[PAD]
[UNK]
[CLS]
[SEP]
[MASK]
!
$
%
&
(
)
*
+
,
-
.
/
0
1
2
3
4
5
6
7
8
9
:
;
<
=
>
?
@
A
B
C
D
E
F
G
H
I
J
K
L
M
N
O
P
Q
R
S
T
U
V
W
X
Y
Z
[
]
^
_
a
b
c
d
e
f
g
h
i
j
k
l
m
n
o
p
q
r
s
t
u
v
w
x
y
z
{
|
}
~
##t
##o
##r
##a
##g
##e
##P
##l
##s
##R
##q
##u
##i
##V
##p
##x
##F
##c
##n
##M
##L
##W
##S
##m
##C
##h
##d
##T
##y
##E
##J
##b
##v
##Z
##D
##A
##f
##U
##N
##Q
##z
##k
##1
##B
##H
##5
##2
##w
##O
##K
##I
##G
##3
##j
##X
##Y
##4
##0
##6
##8
##7
##9
##or
##ra
##rat
##rator
##arator
##ep
##eparator
Separator
##er
##en
##ti
##fi
##fier
##den
##denti
##dentifier
Identifier
##pe
##et
##al
Ope
Operator
##on
##Pa
##ey
##ord
##ram
##word
Key
Keyword
##eter
##Param
##orm
##Parameter
##ormal
##ormalParameter
FormalParameter
##ec
##ype
##od
##Type
##ri
##le
##Dec
##Decl
##ce
##ef
##ic
##ence
##efer
##eference
Reference
ReferenceType
##as
##ble
##ion
##te
##odi
##odifier
Modifier
##able
##ration
##ta
##Decla
##Declaration
##tion
##eth
##ethod
##ari
##ariable
Variable
VariableDecl
VariableDeclarator
##es
##ul
Method
MethodDeclaration
##ng
##ur
##nt
Bas
Basic
BasicType
##ull
##is
##ub
##tri
##lic
##ro
##ublic
public
##ent
ret
##urn
return
##in
##tring
get
ST
##UM
NUM
STR
th
##ew
if
##am
##an
##id
String
new
##re
int
##at
##ate
##ar
##ut
Null
null
##el
##Ex
##ue
vo
##tor
##cep
##ment
##oo
void
##ed
##ception
##ame
##ag
this
##nn
##tation
##ist
##th
sta
##st
##otation
##nnotation
##nd
##ex
##ch
##il
##alue
##ou
Annotation
##Exception
##se
##ess
##row
##ad
##it
##inal
throw
##oc
##mp
##ect
##ode
final
##ile
##tic
##OL
##lean
##ol
##iz
##oolean
in
##bj
BO
re
BOOL
##ap
is
##dd
##age
##In
##ter
static
boolean
##ctor
##Con
Con
##qu
##Name
##ir
##up
##um
##lement
con
pri
##bject
##Value
##ry
##est
##ver
##ata
##im
set
pro
##ff
##ult
##ru
##ass
##lo
add
res
##ing
##ig
##eng
##ength
##List
##ted
##ss
##ext
throws
ch
##stru
##lass
##yte
to
##end
##Sta
##ty
##og
##ve
##ize
##ild
##structor
Constructor
ConstructorDeclaration
##ation
##vate
for
##xt
##om
length
##Pro
##ck
##tem
private
##To
##Id
##ress
##ndex
##ray
##rray
##pp
##Re
##put
##atch
##String
##bu
##ow
el
else
##os
value
##St
##our
##and
##sta
##omp
##rg
##essage
##ouble
##Ch
##ase
##Bu
##ers
##ource
##vi
ex
##ream
##int
##Res
##nce
##text
Object
##ection
bu
##ount
##ay
##ns
name
Element
##rt
##ong
byte
has
##de
##reate
##ser
##ction
##als
##ffer
result
##ger
##Pair
double
##per
sup
app
##Data
##stance
##ort
##ected
##ock
##ace
##ime
##tribu
##ader
##ON
##ValuePair
super
##Stream
##us
##quest
create
##ument
ElementValuePair
try
##Set
##File
##rr
##vent
key
Type
##At
##un
##Node
##ER
##iew
##li
##mo
##quals
In
##ine
catch
par
##tribute
##ang
##ene
##ot
##verri
##eld
##ax
##ert
##verride
##Key
##ind
##ield
##ener
wri
Override
##ys
size
out
##Ser
##ity
##igh
##ilder
##rent
##fig
log
##ntry
append
##ath
##fo
##Map
##ab
st
##vice
##ll
##ct
##ition
##En
##State
##oint
index
##Object
##gress
IO
##op
##rror
##ystem
data
##cess
##ure
##set
prot
cur
##Class
##ber
##Index
long
##ack
##til
##ost
##Int
##rans
IOException
##Element
TypeParameter
start
##ector
##ight
protected
List
##ption
##ool
class
Ex
ass
##em
##yn
write
val
remo
##av
##pd
##putStream
pre
equals
##Size
en
##Time
##loat
##eck
file
##Array
hash
##anag
type
put
##pdate
##ken
##tt
toString
##Of
##AT
##ph
message
##ormat
next
##uer
##Fa
File
##pon
method
list
read
##Path
##Arg
##Message
assert
remove
sh
##uery
##ffset
char
##ound
##leg
##Event
##ach
##anager
##ES
##Util
##ast
pa
##ponse
##eg
##rom
##ames
##Builder
##RI
##teger
##tain
##View
##ler
##cri
##Listener
##Col
##ues
##ml
##ak
comp
##umber
id
##Text
##lient
##Manager
##ge
instance
##ocal
##pace
##Info
##ator
##Count
##Byte
float
##Val
print
node
##riter
gene
##Comp
col
##efa
case
##Ac
current
Exception
##ith
##ign
##ial
##out
##pec
##ly
##abel
##Context
context
##He
##IN
arg
on
##iti
##legal
##roup
##llegal
##get
##efault
##Buffer
generat
##odel
##Attribute
System
##ID
##mpl
wh
##ctory
##ail
##perty
##ask
##Argument
##ersion
##mage
##Out
##OR
##ized
##ree
Illegal
##all
##ilter
##Request
max
##lock
##ip
update
##sion
check
##ain
##tent
##Code
##fix
##EN
de
pos
##Config
##ange
##rl
Array
##of
##AL
##Hand
element
DS
##tus
##ash
array
##Service
sub
getS
##terator
##lu
##ache
##val
##arget
##bug
##omm
##nection
test
##ocument
##Add
ser
##ore
##rig
##ron
##ill
##tity
##read
##ST
##ule
##one
##ting
##lay
##Item
##form
##itor
##Null
while
##LE
##raph
##idth
##Point
count
##are
he
sc
param
jav
##Instance
##Factory
end
##tive
##sg
##ION
##ld
##ork
progress
##lose
tool
##De
##uration
##Writer
##der
##Sc
##ttribute
instanceof
Class
##AG
field
##Utils
##Pos
##ession
request
buffer
syn
##onent
##oot
##ArgumentException
del
##fic
##For
##Th
##ties
text
generated
contain
##Field
ac
source
##oad
##ac
##ute
##All
##opy
##Not
error
##mpty
my
entry
##ear
##ocation
##Host
Integer
Map
##Result
num
min
##ete
Col
IN
##nel
IllegalArgumentException
##AR
Bu
##chron
##ard
##Progress
xml
##vid
##umn
##Token
parent
map
##Error
args
cl
##Dir
offset
child
close
##ite
##Label
ext
##lection
##escri
##reak
##irst
dis
un
##Sh
##Bytes
##AM
##Log
##ink
##chronized
##erm
##Entry
##amespace
##Handler
##upp
##ary
##Format
##ject
##ED
item
path
state
Pro
synchronized
##Method
##Number
##By
Th
obj
Node
##Resource
Math
##vel
rep
Re
Ch
##Client
##gist
##raw
##Model
orig
##Un
##Trans
msg
##Pre
op
##Table
Log
##IT
##ual
##Empty
break
parse
##Dis
##Gene
##With
##back
sb
##Query
ArrayList
##ous
##tore
##Stack
##ln
##nal
##Property
##stant
enc
##Child
##Tra
version
##stra
##And
##vider
##uth
##tiv
len
values
input
##perties
##Group
##Line
##From
##Par
sel
attribute
##Length
java
target
##Inter
##Rec
find
Int
debug
##evel
##Response
##ther
config
##its
println
contains
##abled
##Sel
##ttp
##ire
event
##ension
##tim
##ML
##On
format
##Exp
##Tag
##CT
##ayout
##ean
##Rep
DE
Res
trans
user
getName
##own
##Address
doc
##son
##itial
old
##ark
info
##Status
##Generator
##lear
default
##Ed
object
##roll
##Impl
last
load
pr
url
##Pr
##RL
rec
att
from
##oti
##AN
previ
##Al
line
str
LO
##Source
original
##Action
other
##tivity
##rag
##earch
##Start
myHost
##atri
##Next
getD
##atrix
Ser
exp
##eed
##Char
Comp
##ook
##Ope
##low
##Equals
##ple
getC
clear
##if
##Pri
##Filter
buf
##UL
##ptions
##Enabled
##ond
##Or
##ume
##name
##rame
##AX
##idate
hand
##ara
Sta
##Values
logger
##ature
##ommand
Big
##ts
previous
string
##lace
al
##ENT
##ia
isEmpty
##ner
##Image
sp
##let
##rc
##Offset
##Reader
##Connection
##gor
prefix
##unction
##econd
##ET
##ender
StringBuilder
##Entity
response
row
first
dec
init
##eft
##torage
##odes
view
Byte
##use
##ale
##ression
##End
##Content
##orted
##gn
##OM
##nim
##SON
##User
##andom
stream
##OD
Collection
##arn
##chem
namespace
##ance
Hash
assertEquals
Set
exec
##Header
token
Data
##con
query
te
##af
##Color
local
##Case
##Spec
##tern
##rowable
##Server
tag
##fin
##sh
getL
output
##ton
show
##ueue
delete
sw
##Test
##tin
fl
##Component
##Width
##utton
##Cache
##Position
##URI
bytes
##pected
ID
##dap
##ESS
##tyle
##time
##IC
##etw
listener
##ies
##EM
##InputStream
##ectory
En
initial
match
time
##Op
##Descri
##AS
##UT
Throwable
##PE
##gister
##sor
##map
##Block
getM
##fication
##OutputStream
##Bound
##ated
##ialog
##stants
process
width
##Integer
##RE
##older
filter
tra
##bs
Boolean
##Ext
##pper
##Read
LOG
build
##Date
##acity
##etwork
##Sub
##indow
##Row
DSGenerator
##Mode
table
##ample
##Thread
content
##Provider
##urrent
##AC
##ause
dir
resource
##allback
root
Double
##cter
##ib
JSON
subs
##aracter
##equ
##QL
inter
copy
##Cap
##Valid
##ren
##ole
client
run
group
##Vis
##pt
##illis
##itch
##Ref
##RR
##Height
params
do
##ave
getA
Http
##AGE
ed
##mple
##Met
##Operation
##AME
##equence
##ngle
sk
##ible
##oader
##Version
##ke
##ings
##ING
height
##Prefix
##annel
uri
##ox
iterator
##Port
writer
image
expected
column
##Change
##enu
##Trace
previousProgress
##uc
##omment
position
##Del
Document
extend
##izer
vis
##ape
Context
##action
##ush
##mplate
##untime
##tal
##itmap
##ake
##Enc
##load
##rid
##Task
##Names
builder
##Configuration
##itle
##dapter
##res
##As
RE
##layer
db
##ix
##olic
##Cont
##ulti
send
##ide
##Tree
##Process
##aw
##odule
lang
##sed
as
##ant
base
##Hash
##ptor
##ob
##pi
##UE
##Panel
src
Ac
##Url
attr
##tr
##gin
##ved
##ocket
##ragment
##ud
##Layout
Long
URI
##Long
##chema
##Access
des
##oord
##Pack
##ative
session
finally
##Session
stack
##OT
getClass
XML
##unn
action
##play
##Update
##oding
##erException
##ive
draw
##System
##lication
Date
##Mem
##ULT
##olicy
View
getMessage
extends
##Properties
##Graph
##ym
##ody
##egment
##ecu
##Column
##ndle
##ename
##Store
##AD
##face
Vector
##imple
##Params
##erti
Trans
##Document
##Lock
##Input
##Location
conver
point
##YPE
getR
service
##Millis
##Parent
##Attributes
##imit
##Hel
##ization
host
conn
##cy
model
##tings
##ne
TAG
org
##Constants
##Check
##ission
getValue
##Button
Local
Entry
##Supp
##straint
##Chang
left
inc
##Bean
main
##ists
##ps
##NotNull
cal
##rue
getString
##imension
##fy
##Sp
##base
InputStream
##Pool
register
##ell
reader
getN
top
##ee
##Te
connection
fa
xmlWriter
number
##rite
##Back
##tainer
##AP
##UI
##ility
##Reference
##RO
##Vector
##Parser
execute
block
##ql
Inter
Pr
##gnore
replace
SQL
##ove
##App
label
dest
DEF
##Per
##ries
server
status
SY
##Loader
task
##Variable
##point
##ust
##ATE
clone
hasNext
##edia
substring
getF
BigInteger
handle
##lit
getInstance
reset
##Defin
##Base
##ower
##imes
##gion
##ral
VAL
##az
cache
##True
##Match
##eners
##rim
##ait
switch
##Sign
##Local
##ATION
##untimeException
##Target
##ages
##quire
##bstra
##odu
##2D
right
sign
temp
##ermission
##ie
CON
##ope
##eb
##Get
parameter
Pa
##line
##ics
##bstract
##Level
##Capacity
TYPE
##IS
##Iterator
##wner
charAt
##lugin
##ish
##AULT
SM
##vlet
StringBuffer
##EL
##rou
updateProgress
##dentity
property
##Elements
Buffer
Iterator
MESS
##IL
port
DEFAULT
can
##otification
ERR
Par
##ategor
##ont
##Function
##IM
MESSAGE
##file
##sWith
progressLabel
St
##Directory
ref
ct
generate
it
##Dialog
##ilename
##Activity
##Types
##count
code
##ertific
##imal
##ertificate
##Descriptor
##xy
##Bounds
##Found
##Warn
ver
##rol
Rec
##PT
##URL
entity
##led
##Remo
##ati
com
hashCode
compare
cause
##valid
NAME
##Matrix
##Pane
all
##vo
##rity
##Definition
date
##red
##Frame
##tance
##Auth
##StackTrace
##Record
##lem
##ags
##resh
##ping
##Sequence
address
##unk
##fied
##ync
DSC
##Fl
##Helper
##lust
##AB
SI
##sert
Char
##afe
##Unit
with
Supp
##ick
##ric
lock
met
Builder
color
javax
or
##rup
##attern
MAX
##lan
convert
di
##Range
URL
##Su
Sh
assertTrue
pack
validate
Request
##cript
##rapper
##etail
##utable
Graph
##xis
##Output
##ntries
##STEM
##roller
valueOf
io
RuntimeException
##ces
Text
##Changed
##tom
head
SYSTEM
##Pat
##lob
##dition
Buffered
SE
##Queue
##enter
Value
VALUE
graph
zz
indexOf
Out
##ared
Abstract
##oded
##TH
##EY
##endar
##ouse
exception
##sc
##round
##ched
Attribute
##Max
tmp
##Page
##entation
##omain
getId
##Selection
EX
##Search
##mt
##OU
##Anim
make
##Menu
##Num
##Options
##struction
##Is
random
project
##Bar
##ava
##Command
##luster
##Container
##Ass
##lot
Thread
##ory
##Ver
options
scale
descri
##Root
##ositor
open
State
Link
##Statement
##Default
KEY
HashMap
##Parameters
##order
##tamp
Config
##Order
##Adapter
fail
short
##ODE
##uccess
iter
##eas
##adi
##LO
auth
##imestamp
oo
encode
##azz
##copy
##Current
##Uri
##tex
##reen
##ND
stop
##Str
##Warnings
##Ret
Message
##ical
Intent
##Callback
mem
##Active
##Link
header
##Obj
##Double
Suppress
##Option
##EST
##Draw
##ymb
component
search
##Resol
##ines
##vail
##StateException
##Decimal
##ository
sql
##adata
##Nodes
tree
arraycopy
##ecurity
##Expression
Ass
##Debug
pass
Path
##Bind
err
##Min
Un
##FI
off
##New
bind
##IV
##iness
##oduct
##rea
##sing
##bser
##Conn
##FoundException
##ocol
location
##EX
title
##Window
##No
SuppressWarnings
Dis
printStackTrace
##Policy
##atas
Json
Field
##Mark
##cle
total
attributes
##over
transform
##Create
qu
##ERS
##utor
##ymbol
##port
##Rule
##Box
intent
Resource
##ategory
##ancel
Pri
decode
##Down
split
insert
##AY
##CE
##oin
##inary
getKey
clazz
Service
##gorith
##gorithm
##fter
##eight
##elation
Color
TO
##ped
##otify
##Space
##ngine
##ayer
ctx
De
##TT
ERROR
##sum
trim
##eek
act
##ution
gl
##Fragment
##eature
##Ignore
##SE
##ater
##Wrapper
##PointerException
NullPointerException
##ZE
dep
paint
ope
##old
IllegalStateException
##Len
##essages
resol
elements
##gg
##pher
SU
filename
comm
Test
save
##iled
##Feed
bound
owner
record
##Servlet
##nap
Not
sum
##umns
To
##DN
##bo
##itive
##tition
##Pass
##NotFoundException
handler
##Channel
##inessObject
##tinue
##ason
##Transaction
##Body
##CTION
FI
keys
##Files
##Scale
##ustom
##Var
##ient
visit
Image
ByteArray
container
##Tab
No
Arrays
className
##rap
##aster
##alendar
Query
second
##Write
prev
mark
##inate
##Package
frame
##cept
##olume
User
##ify
cap
##Project
##Top
Option
CH
pop
##Xml
##Icon
Tree
BigDecimal
warn
Action
##TER
skill
command
##Visible
##voke
trace
continue
##ulate
identity
##Load
##ocus
work
##ending
##easure
##Cl
Number
getP
##ByteArray
##ging
##eat
##ision
storage
raw
##Style
rs
##Wh
##Template
checkNotNull
##uple
##nch
actual
env
compute
thread
use
##Socket
system
json
##io
ad
##igest
##Interface
##OW
initialize
##Regist
##ottom
##CH
##PL
##Up
##rable
##Keys
no
sort
##Settings
##vailable
flush
##iction
##Paint
SIZE
##Last
##Head
##Render
##onitor
##Conver
Item
delta
##ground
getType
##entic
back
Point
fileName
children
##Attr
##If
##mary
PRO
##ude
##NS
Sp
##IST
##Logger
addAll
##lias
##Ids
##amera
##eneric
store
fill
se
##uid
##que
##Qu
post
##efore
##Msg
##ABLE
##Bits
App
##Editor
SQLException
idx
##Detail
##df
##loy
isS
##Dep
##oder
at
##GER
##gram
##ipher
Reg
##Safe
##Pattern
GL
##riteria
##oom
##Edge
isC
Simple
properties
##Selected
em
##Constraint
##Control
##Prot
ws
##FF
player
##pha
##US
##sn
##uto
##ursor
Linked
##rop
cursor
valid
spec
tab
util
document
per
##CC
##Args
extra
pattern
of
##itions
##64
password
Result
Invalid
##Part
os
##Doc
##onNull
the
##Handle
##rupted
##inish
##SS
Time
##First
##Timeout
##Mapping
##po
notify
##IgnoreCase
##ota
var
module
##Scroll
Component
##ifier
##Api
##oll
Level
Default
##Des
style
##VO
##Annotation
##amed
##Character
factory
items
anim
##ei
##Transform
apply
##tangle
##sinessObject
##Storage
##rand
##ataset
##shot
selected
Character
abs
calc
fire
##mount
##Left
##Area
##Work
##Listeners
elem
##orld
##cket
##Zone
##lip
that
##ITY
##eom
##IG
encoding
level
EN
##Description
##Edit
##Runn
##Holder
##dent
##valu
##uture
##fer
##Identifier
##Copy
Response
loc
##Di
Graphics
OutputStream
##sTo
COL
getChild
##Permission
##Inc
Instance
##irt
##ookie
##tact
##Device
##irtual
##ndi
##lude
HttpServlet
Nullable
startsWith
##Resources
currentTime
page
##lease
getB
inst
serial
##Call
fields
order
##egin
##Display
desc
wait
##table
##lick
##imum
description
##adius
##Step
Sc
##Namespace
##ority
##Serial
##mm
Property
exists
ss
##ULL
##Module
##Internal
##Us
TR
Param
##space
sun
provider
skip
##rch
UN
Matrix
##napshot
##min
##udio
##mport
##Factor
curr
Exp
getNode
rule
##Extra
##act
SH
Event
##iod
##Modi
##oute
##ERT
Bitmap
##Feedback
success
##Open
##TE
##Region
bits
##olute
channel
##Controller
##rigger
network
##Exists
activity
Media
Rep
AL
##axb
##seException
PO
##Intent
##rateg
getParent
##oordinate
AP
##Member
HashSet
LOGGER
##Comm
##iron
##Password
jaxb
queue
##Meta
##ens
containsKey
##oul
NOT
##Entries
##ironment
SAX
##ency
##Extension
##XML
addElement
ev
step
Collections
##Encoding
##Ad
##ould
##vas
sample
##lus
prep
##mg
##Supported
##ome
##md
##econditions
##type
cont
##ignment
##Title
##Term
##upported
Util
##Segment
##nc
##gent
Base
Preconditions
getProperty
region
##ideo
##Schema
##fs
##Such
##Certificate
##Collection
##chedule
Grid
access
req
##ny
##quired
DSCat
##rategy
call
##flow
Index
##50
##rement
##izable
showFeedback
m1
##ibility
cancel
##ech
##Rect
##Items
##tory
##losed
Uns
##art
layout
##Preference
full
CL
##pc
NotNull
##ingle
NoSuch
##ures
template
ph
##ersist
Block
Calendar
returnData
matcher
vol
##Multi
##Exec
##ToString
##qual
schema
##lobal
##Only
display
##dic
##Delete
self
icon
##Repository
##bers
##verse
Connection
equalsIgnoreCase
newInstance
segment
rem
Dep
##code
##Fields
Server
Task
le
parameters
##ov
##IVE
##ORT
##scri
flags
Interrupted
SS
##onth
##oly
##Word
##Mask
##Profile
currentTimeMillis
word
##tics
##Tool
setText
##Database
##imer
##tical
##Interval
Token
##Cre
Transform
##Network
names
##ward
##Processor
##Volume
select
getDefault
##Lower
##Short
##Focus
##ipe
##Comment
link
cert
##ictionary
parser
normal
##eep
rows
##ero
##lete
##Background
COM
elementList
##ookup
Properties
##Resolver
files
##Float
Al
InterruptedException
##Algorithm
Float
nodes
reference
##Loc
##IP
mode
Parameter
##avi
##Chunk
##UID
listeners
##Notification
##legate
##VG
##ertion
##ruct
##Track
duration
AD
##down
##istory
##Full
NO
##Folder
Table
##ges
dst
ByteBuffer
Error
##iv
matrix
##Scope
##roy
configuration
##etch
DOM
##idget
##pos
previousProgressLabel
props
##ternal
##Support
reg
impl
##ChangeListener
##Bitmap
distance
##FileName
##ynam
Serial
selection
move
aNumber
red
##be
isIn
resolve
ATT
Ed
Web
multi
##UG
DSSafe
Rectangle
##aining
Bundle
##cs
##enden
##Be
isValid
##Le
##ached
sm
##VER
##view
JSONObject
compareTo
##Right
##Bundle
getX
##ACK
Entity
##Def
##Return
Configuration
##Proxy
##ump
##tination
real
##IF
##late
counter
render
##igned
##Packet
##ret
range
##CK
invoke
##rics
##aved
SER
##aun
CONT
##eet
##Plugin
qname
namespaceURI
callback
limit
bit
##gr
##Role
##roke
Print
##roid
coll
##bsolute
##erge
Cache
getText
expression
NE
Storage
Sub
##Renderer
Add
##ERSION
Unsupported
##to
##Json
##Click
body
##Registry
##etry
verify
##andidate
signature
not
##atcher
##HashMap
##terable
locale
XMLStream
encoded
scroll
##After
##lier
push
##Points
##EXT
option
operation
high
change
keySet
##Random
##INE
empty
##ling
##Metadata
##Ph
Ver
##pect
##uage
axis
##DS
##nner
DSComment
numberOf
MIN
##HT
##QU
##tili
toByteArray
##tilities
su
##easureSpec
##ECT
##atal
##Bit
Remo
##ILL
##issing
##IR
##umeration
##Http
reason
##ulation
editor
##ere
##Condition
PAR
function
##ability
Val
##ONE
edge
##ested
http
##Off
##rate
Fast
##ced
##anaged
VERSION
getData
##Day
rel
##Memory
##Details
##Boolean
ap
INF
##mmutable
term
##Form
fieldName
internal
##ixel
##scape
##eer
CharSequence
calculate
getHeight
timeout
##lowed
getLocal
##Headers
AS
job
##Fail
##509
Network
ip
directory
##reg
fragment
isDebug
buff
pan
getAttribute
release
NULL
##CON
##Validator
##Sw
##One
Random
package
He
##ffix
##Job
points
##Sample
mC
##utdown
RES
getWidth
Client
##ORM
##reshold
SAXException
##si
##Hex
##formed
##Second
##enant
##ified
##ncip
##bserver
isSet
##ynamic
EM
volume
SVG
##ycle
##osite
Content
LEN
entrySet
##aunch
##vocation
##ms
bottom
extension
##Se
##Animation
##ndices
##Scan
PRE
dialog
meta
##iteral
##ift
begin
##Java
accept
capacity
##Use
##Instruction
NonNull
results
##rec
getT
JSONException
##Enum
##Remove
Debug
role
tx
Assert
##Protocol
Constants
toArray
##naly
##ecret
Expression
##ise
##Distance
##tax
##LowerCase
Session
mod
##Player
##tribution
SAM
##ASK
addr
active
dimension
##Cons
##udit
##nchor
##Border
##Lines
##ote
##ACT
##Axis
##isting
Generic
scan
mask
unit
aw
##Messages
SC
Auth
##tach
ON
##Drawable
prepare
comment
##Temp
##Padd
##OC
##Utilities
chunk
join
##Engine
##ACE
getCurrent
##itiator
clean
center
DB
##Buf
dbClient
getY
domain
##BUG
button
cp
##sumer
##Columns
##More
##ique
##nsure
initialCapacity
DEBUG
TIM
ent
device
track
weight
##entication
entries
##Flags
##raction
Dir
##ICATION
##cent
Locale
##ring
##AF
##Counter
##eometry
##TM
##Stats
##Recei
bean
##ClassName
member
found
##Rate
value0
Java
##Results
isDebugEnabled
##Env
Stream
getBytes
OF
pool
ByteArrayOutputStream
Activity
FILE
##lish
##Over
ensure
chars
HE
##Initial
prop
##Pres
businessObject
##ggreg
##Kind
##DB
getSel
##gnite
##ense
##Limit
isA
proxy
##Padding
##eta
##Classes
##olution
Process
##lation
##MENT
commit
JAX
collection
Name
##Sum
##olr
##Cal
##IO
##Rows
##ATOR
bounds
##ncipal
Window
##Em
Input
##rees
##path
##Symbol
##ian
##fg
##ensor
argument
##Signature
##Dig
##Children
li
##Web
##Cell
window
##letion
##olog
Line
##Dimension
rect
isActive
##ities
BY
##ASS
toLowerCase
bl
##GTH
##Binding
##ecution
us
##ICE
LE
##tml
##Stop
##nown
getG
##Angle
should
Remote
VM
##gle
##PTION
##Partition
##ownload
##Syn
##Events
##ded
##rientation
##Post
getO
##Expr
##pose
PROP
adapter
##ixed
##rypt
exc
##ged
##lex
plugin
variable
##Strategy
##Prim
chang
##Series
ps
##ATH
Filter
##tis
enable
##lat
##recated
##ft
shape
##cheme
JAXB
LENGTH
constraint
angle
v1
LIST
alloc
##Domain
parseInt
amount
##ice
##ank
and
day
##Vertex
##ouch
isN
##light
##ById
cs
##card
##Addr
##los
##Pay
m2
##eo
getSystem
ar
##Layer
##Duration
##Arguments
IM
##ology
Operation
edit
hex
zone
##ker
##Converter
##Star
separator
##UTE
MET
attName
##Font
opt
##VAL
STAT
##validate
Mem
INT
##Show
##Tip
##RG
##unnable
wrap
##Print
diff
##dicate
##itude
##cover
username
AM
MS
US
headers
##White
SAML
actor
cons
##Account
mid
##Cursor
##yc
##Fac
##PTY
Function
ignore
##Before
##ended
api
##Rel
defaultValue
##Script
mv
getTime
def
Build
Layout
arr
permission
errorMessage
product
Status
##Monitor
Deprecated
Pack
##ets
remote
##TR
columns
ds
settings
##tial
matches
alias
##OWN
##Wait
saved
##rm
##Upper
##AFE
Try
Logging
bitmap
##Product
connect
##VICE
Gene
##Feature
dig
dataset
##FormatException
bb
##ATA
LinkedList
coord
##ublish
getInt
condition
assertNotNull
runTest
##Remote
socket
up
##nalyz
##list
Pdf
##pol
##Cert
Internal
##NT
Multi
Uri
p1
##Visitor
Model
lat
##PAR
##MS
finish
##High
so
remaining
modi
removeAll
##tit
timestamp
Sel
##cc
##river
##Coll
EMPTY
annotation
seed
ACTION
Tra
Att
##Uns
##Chars
font
##Available
getContext
alpha
##ured
include
##UR
##Any
scope
ParseException
##la
X509
menu
merge
##Equal
Search
lines
vm
##ressed
HttpServletRequest
TryResource
##NN
##OF
##Screen
cluster
##ited
bundle
##Preferences
writeAttribute
getPath
Immutable
##OutOf
##GE
##STAN
FL
##arb
JComponent
Access
skillname
notification
qual
##vision
##rant
Vector3
##Future
Transaction
##Category
now
newValue
panel
##tributed
ClassNotFoundException
##Span
##N1
##ndard
##Stroke
Conver
Pattern
##Pop
OP
instruction
database
account
##Man
##ma
getResource
##ations
##erial
inputStream
##Mapper
Utils
g2
##Weight
STATE
statement
COLUM
TEXT
Enumeration
canvas
##Executor
cls
##ooth
##Inf
##Free
##eferred
##ao
##ification
Ext
##Bas
hasMore
##SQL
Ignite
low
##hs
getParameter
##emon
Db
##RIB
##olyg
##Modified
TH
##bserv
##mar
##Failed
##aint
NodeList
BufferedReader
Address
##IAL
attrs
need
##no
cor
##Non
mS
##oop
increment
Regist
custom
##ror
dom
##Comparator
Reader
##iler
##latform
uns
getFile
readObject
script
getUser
##Idx
##osition
part
##oci
##oard
##teration
JAXBException
##Plan
##formation
radius
Inet
##Operand
Security
##oef
m0
charset
getAbsolute
##olygon
AST
cmd
##Register
##Total
methodName
SAFE
##Reg
findBy
##alse
DateTime
MOD
manager
##Timestamp
##Insn
subject
transaction
##ircle
conc
##atalog
##irror
##Desc
##Mgr
##ART
ARR
##erson
Dec
##BLE
Draw
MASK
Work
Xml
inner
##imeType
##Subscri
getContent
##OperationException
##Raw
##History
dx
lower
##Objects
Op
types
character
Label
##gfs
FileInputStream
##Viewer
##ired
SUCC
Certificate
evalu
##ating
##Ind
Te
##oss
##sets
year
##Separator
##TreeNode
JSONArray
##WT
sequence
Instances
##Selector
digest
##Close
tail
##Cluster
asList
destination
TIME
Attr
##OutOfBounds
##Qual
intValue
ns
##URE
##ationException
v2
##Move
dim
##odifiers
##Period
##Alias
##Metrics
##mark
##Relation
StringUtils
resBytes
##jection
##Red
##ecure
##rie
FileOutputStream
##AND
extract
##OutOfBoundsException
##anization
refresh
##tistics
Can
attributeValue
dy
round
shutdown
Valid
##SIT
##Zero
PRI
Style
UP
##amp
##ArrayList
mouse
##ranch
force
startIndex
##IGHT
##Private
Anim
##Transfer
##Required
sync
##FIX
##Sync
export
##Application
##Finish
##ract
##Lib
layer
##points
##uper
require
Sign
Vertex
BU
SP
available
world
##Cor
##inding
startTime
##Ms
##External
application
delegate
screen
criteria
##Tokens
peek
##Failure
pay
##Connected
Application
expr
report
##ucer
pred
allow
##Dictionary
##ndo
getColumn
##Shape
dt
##Struct
ids
Ph
##Run
subscri
##Grid
lastIndex
endsWith
getNamespace
##Digest
##inator
protocol
configure
Dimension
category
exit
regist
relation
##DK
##Static
Env
destroy
##Marker
ATTRIB
conf
det
SERVICE
##oriz
##Init
##Play
##Instances
hel
##atit
BufferedImage
##Sort
##Tags
##ASE
grid
##Agent
##ORI
##nth
loader
IND
over
pad
##cel
isM
stmt
sig
##TagName
lookup
##Operator
bucket
##atitude
##Information
##Visibility
##otate
PROPERT
##ynth
##Variables
##cp
elementAt
camera
##Dest
Sw
engine
##Formatter
##Download
getNext
##orizon
Source
getFirst
IS
##ilities
##arbon
multip
As
##bed
##Snapshot
##bc
sl
##nect
##Delay
##Complete
propertyName
##Animator
##otion
QU
cell
##Inst
##Alpha
direction
Writer
##berty
translate
##Strings
##Methods
##anguage
Logger
visitor
apache
##endor
cookie
##ness
form
dispose
depth
##Observer
##oogle
##umb
##SL
##Center
##iting
scal
flag
Vec
##Video
retval
##ffect
##Pointer
##RD
##10
FLAG
##Net
decl
##Seq
ts
tuple
##ug
Container
Command
Vis
cipher
##aN
##Allowed
partition
##atio
liberty
Named
##eigh
##eric
media
##Public
##OUT
realm
VO
stats
##inder
getMax
##Coord
##32
##wo
Check
UI
net
##3D
##Constant
##orizontal
##Components
HttpServletResponse
parts
CHAR
av
yy
##Binary
##tivate
common
schedule
##arm
##Tokenizer
getAbsolutePath
upper
##Wri
##imiter
Pair
##Flag
cre
##Touch
##eatures
##board
sq
executor
Database
##ridge
##ario
Player
vec
##ClassLoader
##oto
Id
jm
##mentation
##Gen
##Report
##alf
##blem
##ooser
states
Binary
global
month
##ryp
PR
##bar
##ester
##ely
mean
##dr
##Real
Psi
##DT
##Chart
resources
##losure
existing
vals
space
##Save
START
##Chain
packageName
DTM
pref
##leep
END
ab
sem
##PLICATION
##tl
##alformed
Column
##etooth
getLength
##luetooth
Cl
##False
getElements
##class
fieldId
##orter
ObjectInputStream
Socket
##Radius
oldValue
##ict
##Program
##arable
##OUR
tenant
##Card
monitor
##ADER
COMP
##Locator
##Det
##Select
expand
##Sk
##ede
Shape
##Usage
##Mouse
##ective
##JECT
##aller
##WOR
setValue
metadata
auto
origin
SK
ind
##Drag
readInt
##mpt
##ui
##ans
Project
Mouse
##eted
##road
booleanValue
##chedul
Header
Iterable
##ONG
##gnor
ATTRIBUTE
Group
md
##vant
##oducer
pi
waitFor
getSelected
CC
uuid
##Hint
##rage
arguments
TABLE
iv
##UP
##Paths
evt
General
OFF
##AST
Optional
after
security
writeObject
##END
TransformerException
MODE
ui
##Pending
##ding
DIS
##mit
##Evalu
##OK
feature
##HOD
##rust
Stack
Enum
##Constraints
UnsupportedOperationException
suffix
before
vector
##Single
##rary
##Execution
supp
##Processing
mCurrent
patch
##20
ClassLoader
##Widget
##Import
fs
PER
##box
##Core
delay
##Preview
##data
##ulator
pw
##Conf
##Send
My
play
##oid
MSG
Position
##IFI
normalize
##Groups
##Running
##argin
drawable
INSTAN
unlock
##Operations
##dentials
putExtra
##ship
pc
##Route
##cast
policy
##ByTagName
PROPERTY
##AIN
gen
##Stage
tokens
##edException
series
seq
##Batch
##peed
##arse
##ALL
##Environment
getRoot
METHOD
x1
##sp
setAttribute
##endency
lastIndexOf
detail
##VM
##NI
localName
##Org
Cursor
binary
##urface
NONE
##fiable
getSize
Met
##MP
##Com
##Each
adj
getElementsByTagName
MeasureSpec
##Pixel
##aml
APPLICATION
ASN1
##ular
trigger
##buf
##Clause
best
##Filename
getObject
setVisible
##Primitive
##leted
download
##rd
removed
Virtual
compile
warning
p2
##ors
##ORE
hi
##rarch
invalidate
##NG
getSource
LOC
##OP
contact
convertTo
STATUS
##JSON
isLog
OB
escape
Bean
##rad
Coordinate
PL
img
##bl
##Iter
##ierarch
##Commit
omg
disp
ByteArrayInputStream
##Admin
INavi
##Unique
Syn
deg
##nalyzer
##Timer
NEW
snapshot
evaluate
Border
mContext
##wn
Fields
NumberFormatException
non
##Reply
install
DOMException
##lain
##vance
##VALID
##Year
XY
pending
##eur
mapping
Enc
failed
Statement
##eive
##me
##euron
bas
##Saf
where
##Threshold
##Identity
##requ
fetch
##caster
setEnabled
##Matcher
control
##QUEST
WAR
##Security
##ade
##Actions
Is
##InstanceState
##Receiver
EV
Tag
##irect
forward
##BusinessObject
TRUE
##Db
##tities
##ware
INVALID
##KeySpec
##Characters
##Native
cas
indent
##inglet
##ildcard
##fine
CLASS
##ingleton
##istency
Cont
##NumberOf
MediaType
import
##Media
##Bucket
##oft
jo
FS
comparator
##rupt
REQUEST
Page
pt
nextInt
peer
##Auto
##luded
##DF
writeInt
Base64
android
ARRAY
##ederation
stri
CONTENT
##Elem
INTER
##Endpoint
##Encoded
PrintWriter
Notification
millis
symbol
readLine
DELE
##ersistent
isL
##Safely
DN
##da
##Contact
interval
DATA
Edge
Del
box
dn
Malformed
descriptor
Cat
##entence
NODE
##Managed
##bert
##Need
isF
Bit
##Owner
Runnable
##Compat
sever
Soot
candidate
identifier
ok
##Contents
##Bottom
attValue
##StartRead
ioe
##Ar
getSh
##Price
##ELD
packet
zzStartRead
##known
addTo
##Disk
ACC
##size
##aring
##Async
changed
ARG
##aj
errorCode
getPrefix
FileNotFoundException
Cluster
##ycler
cb
STRING
##oud
pair
INFO
Directory
##PO
##Camera
##icense
utils
support
XMLStreamWriter
##TipText
Font
rBytes
##Join
##anos
##abilities
section
lex
ins
##OptionPane
##UN
algorithm
isDirectory
##Reason
ba
lo
mock
web
##Runner
cos
##ticle
userId
PREFIX
##SET
shift
##nalys
Catbert
FIN
currentThread
##onical
##rency
##Split
Register
##Contain
Mutable
PATH
##Success
##CL
##he
bin
lon
##ParseException
Assertion
##ci
##AlgorithmException
foo
##pings
##enario
##quip
##EventListener
##Present
##avig
FR
##iver
##Buff
Account
Location
##Tick
isD
Point2D
INSTANCE
replaceAll
##Views
##Tuple
Term
mo
##AV
##Texture
emit
gc
getMethod
##Assign
##nalysis
##qtt
##nder
XMLStreamException
Job
##Cookie
runn
sleep
PI
##Sink
UUID
##current
columnIndex
Output
FastStack
Solr
##Mirror
##Old
toChar
getDocument
Rect
native
mapper
runSafely
Bad
JOptionPane
##Anchor
##ider
##quested
setColor
##ORY
Geo
##LED
acc
##Predicate
NoSuchAlgorithmException
##Same
stat
assertFalse
sim
##CR
##mploy
nextToken
##Ban
##tored
endIndex
##ACH
factor
##nsw
##Units
##Removed
Synth
XPath
PARAM
##NonNull
##ross
##nti
getResources
vertex
##otated
##MetaData
##Calc
##Changes
##GL
findView
dc
##CS
##achine
LONG
##len
ann
##Vol
##Month
##El
##Help
Script
##lers
##vity
##agn
profile
##covery
sin
##UpperCase
sip
##unc
##Score
dump
route
ObjectOutputStream
Exec
reply
getApp
getNum
topic
ssl
Volume
newVector
minute
##PARATOR
##Common
Frame
der
dist
##firm
slot
attributePrefix
span
##Finished
##Amount
##Replace
##polator
##Bus
##cedure
##ajor
##arge
recei
Qu
Prot
free
##oice
##Rest
##Dataset
required
##etter
##tf
nextElement
##Errors
SSL
##HexString
CAN
dot
##go
##Literal
##itional
##FFER
##ensity
##Switch
##apsed
repository
Composite
##ategories
hasMoreElements
cm
##Throw
ASTNode
##Sl
StringWriter
Schema
setProperty
Paint
Parser
SKILL
##tx
##States
businessObjectData
##SITIVE
##Section
##Tri
isB
##Graphic
##fact
##ilation
##Statistics
##sheet
##OUND
##Ab
SSO
##Mod
##AIL
getLast
getHost
reverse
EC
##stim
##ific
##Closed
##11
registry
JC
s2
nb
outputStream
Region
##Refresh
##bservable
OM
##rammar
getStatus
quote
HEADER
hour
forEach
skillcaster
ELE
ce
##Imp
getClient
##adow
##Syntax
go
##eak
##rance
##Stmt
##mployee
##Serializer
##Digit
mimeType
sr
dos
##icator
##aterial
getComponent
throwable
##tachment
c1
##Uuid
##Orig
inters
isEnabled
##vide
AUT
getItem
feed
##Virtual
##key
##ernel
##16
##ryption
##struct
##impleName
##Depth
##terns
##log
Non
##Ptr
##orization
getIn
endpoint
##Whitespace
##way
inf
calendar
##later
##atible
##rchive
USER
##Custom
KeyEvent
getIndex
##apse
isNull
transformer
renderer
sqrt
findViewById
FORM
audio
bNumber
mR
zip
imp
##LY
##Lon
##Suite
FIELD
##ose
##Im
doubleValue
SUB
classes
SAML2
im
rotate
##Foo
##Indices
##aming
##eme
filePath
##aredPreferences
jar
SQLite
SET
indices
preview
##Primary
##Chooser
##IND
##Vari
##eloc
##ierarchy
Or
perm
units
##Pref
InetAddress
##World
primary
##lice
enabled
Servlet
processor
##Seconds
Dyn
Host
dm
##Missing
##Stamp
one
s1
##BER
dp
score
##AccessException
OPTION
##Tile
##Normal
##antic
collect
INDEX
##binding
##enta
##Login
concat
Comm
Mark
##FT
##ertices
CONFI
##Drawer
savedInstanceState
##requency
cc
##eel
contentType
TimeUnit
LD
board
##odec
selector
##Functions
ADD
##ritical
##trib
program
##IDs
##Expand
##Resolution
##lusive
##DateTime
Per
Version
getSc
Async
iss
##Share
controller
Der
##register
##umes
##Self
visible
EXTR
period
notNull
##Candidate
##vious
##Disp
##roadcast
##igration
disable
columnName
##Delta
Update
coef
##eh
##Services
##Direction
##Export
Ad
copyOf
keep
##Extended
mac
setLayout
##NotSupported
Display
Foo
##pping
expect
##Delegate
POST
##Popup
##gable
##aces
##rypted
Cipher
Di
DI
##edi
##Principal
Segment
kind
cached
newNode
Dynamic
##Can
##Consumer
##quipment
e1
##outing
##Distribution
##ifi
getElement
addListener
onCreate
CODE
Plugin
##OV
Template
jmri
##arsh
##Squ
##Cipher
##OS
shard
Comparable
##Destroy
OBJECT
##Flow
getDecla
##MenuItem
ACT
Core
pow
##Payment
assertNull
##egative
##Requests
widget
##Criteria
##Has
getMin
multiply
core
##vis
##Used
Audio
##tifact
DSBan
loadFactor
Unit
Sn
Graphics2D
axis2
WARN
##nswer
initiator
##nces
##Previous
##cheduler
oid
##Graphics
SEPARATOR
##Mo
getAttributes
##illing
car
##rift
##Invocation
forName
drop
##boBox
Converter
cnt
debugger
Charset
allocate
##NotSupportedException
FOR
SWT
##omial
deploy
sys
getModel
constant
checkArgument
tr
##Slot
##Dao
Timestamp
##dir
sax
##ERO
Signature
##Trim
##odifiable
getConnection
##AMES
Hashtable
##ApiClient
##NNAME
COLUMNNAME
tile
##Trigger
Constraint
##licate
BIT
setName
opcode
animator
##ncestor
chain
clip
##rget
##Priority
Localizable
ALL
##Summary
##Collector
##elocity
messages
##SION
setS
ResultSet
Symbol
ob
groups
##Patch
regex
CU
plan
##RESS
rc
##rain
##Props
##DataSet
MouseEvent
##gnored
##ogram
delimiter
Read
##DateFormat
GET
priority
##ARD
actions
Matcher
##Calendar
##ecision
getE
Inline
##Diff
Carbon
toUpperCase
##stanti
databinding
##TTP
Criteria
orientation
scheme
##SP
##Illegal
DES
df
restore
mView
x2
##Deg
##kt
##DataSource
##OUNT
Opc
Tuple
game
##tree
##ich
##target
getState
invalid
##live
complete
READ
requireNonNull
Hand
QName
threshold
##Break
LayoutParams
BE
newCapacity
systemId
EVENT
Atom
rhs
##Lat
##ctxt
##This
deserial
email
CONFIG
##cr
##Site
##Home
##Added
##Email
##Alert
##Threads
##CONDS
cv
##Language
##peri
getSimpleName
##agement
preference
CLO
Format
##sFor
##words
maximum
##Encoder
ir
formatter
tableName
contents
html
##urrency
##Exc
xctxt
setContent
Vector2
done
##Ratio
##istogram
ord
operator
BUFFER
TEST
##Dto
##EncodingException
##Relative
getView
InputStreamReader
CONN
cmp
folder
##avor
paths
##Transition
LocalizableMessage
stage
payload
WID
##eline
##mplementation
skilltarget
ItemStack
Plan
##kit
##ipant
##ipient
pres
language
scanner
OK
me
getStart
Localized
Messages
aBytes
##FS
##Setting
cols
uis
getDisplay
getSession
Relation
perform
Ins
leg
##Effect
##urnal
hide
##dc
##Edges
##connect
##Simple
wsf
Policy
y1
##Lookup
pm
##Place
##idden
TRAN
semantic
Rule
##ube
##rott
fm
DELETE
##Unsigned
Opcodes
newSize
##ivot
Menu
INIT
equal
##ToFile
##Accept
getTarget
##azy
##amb
environment
Short
OUT
##tn
fac
viewer
##periment
wsfederation
##rieve
toCharArray
Bus
##sIn
##LD
getAll
Zip
##utation
##utom
##change
example
ActionEvent
##Digits
Get
launch
##Sim
##KN
Change
Order
##epared
ONE
aSign
##Cancel
UT
##ls
##VEL
##ticipant
##ENTER
##Rules
hc
pd
tri
Record
background
getNamespaceURI
##now
##Ip
##Constructor
interface
##Members
##Leaf
##Math
##bin
##FileFilter
##ATCH
##bose
CRE
FAL
po
getPackage
getError
chart
##LOW
CHAN
NAMES
##Live
##loader
##INT
##ready
servant
##OST
FALSE
area
agent
backup
getChildren
##MBean
plot
##uff
##Exit
blockSize
semanticObject
##Audio
##Global
isP
##Blocks
##tract
##Radi
##amil
##TextField
errors
LINE
##Final
getSub
minimum
##Tables
mIs
timer
value1
minor
EXP
##Registration
##PACE
##Actor
bi
bar
Objects
severe
ZERO
##ceptor
login
REG
Package
##Sens
##Cast
isConnected
##PropertyChangeListener
##Assignment
##Creator
X509Certificate
##Accessible
PRIV
Min
by
c2
video
##Arr
##att
##EP
##losing
memory
Call
anchor
getField
##Inte
INFIN
##Iteration
setSelected
groupId
##Assignable
CS
marker
##Upload
BorderLayout
Ref
bs
mM
##Cause
firstFree
SynthContext
##UMENT
locator
##Schedule
##API
##olyn
##tinct
sorted
##ik
##ier
##CODE
dataSet
EXTRA
##IE
##Build
Custom
Role
cg
##IBLE
##nnotated
Condition
FORMAT
##uplicate
getLong
members
RemoteException
##QueryResult
Range
##PropertyDescriptor
HTTP
pk
newVO
oldVO
serviceName
##Connect
note
##Rem
##ifest
##RuntimeException
##dbc
##Performed
##cu
##str
IllegalAccessException
##ficient
##Started
adjust
CENTER
S2
##Insert
##Tasks
##Infos
Extension
BLO
Geometry
RP
##cies
putAll
WIDTH
##nowled
osc
plus
tc
##ism
##Subject
##Multip
Open
##Clean
Concurrent
unregister
fromIndex
rest
getLabel
UnsupportedEncodingException
PRIVATE
np
vendor
##vc
##alt
SIP
API
JFrame
Rcs
##Perm
Preference
place
zoom
##Features
wrapper
##Zoom
##Forward
##HashSet
oscm
Runtime
XSL
cfg
poll
##mis
##Ent
##00
##urs
rp
newState
ops
redu
##olynomial
Arg
roll
##ung
##ODES
labels
moveTo
##stream
##Classifier
startActivity
##eighb
##iet
##Horizontal
##Positions
##ibling
##Writable
SQLiteDatabase
##ARY
##plex
##Annotations
IT
StringTokenizer
isLoggable
pixel
##TY
##It
populate
relative
getRequest
serialize
Clone
batch
##Jar
LEFT
FIL
Pla
##XY
##etty
##eground
DOWN
##18
resultSet
testGet
sendMessage
validator
##Extensions
Canvas
fis
##Orientation
##ATED
methods
train
##Vertical
an
##Aggreg
##Loading
hs
##TES
getLocation
Feature
virtual
##ture
##Clock
##rase
putString
SEVER
br
mi
##Invalid
##Thrift
repaint
##nowledge
##Coordinate
BYTE
ELEMENT
man
##Big
ln
sym
##Producer
##Vm
retry
getService
##ano
##Composite
##ookmark
mb
measure
tw
##Stri
##Prop
##Preferred
##Offsets
##Locale
getApplication
INFINITY
Void
audit
##dl
insn
##anges
para
enum
putInt
AssertionError
##pr
##Parse
DEL
##PUT
##iform
##Circle
##antity
##ingMode
toHexString
parsed
##Received
##Library
##rottle
##Week
##Bag
##25
##rated
addAttribute
##ElementImpl
##Backend
##Consistency
helper
##ambda
Create
##RP
##IZ
##IndexOutOfBoundsException
##outer
TextUtils
COLOR
##ossible
igfs
##Scanner
Word
ll
##Reset
##Deploy
ImmutableList
##Subscription
EOF
##ConfigurationException
##Retry
mk
##ux
##UND
star
objects
Standard
alert
##yclerView
##inner
resp
##Records
advance
##Super
getColor
prob
Coll
Product
##Marked
GLES
On
card
##12
Settings
SHORT
holder
##Pressed
##used
metric
Span
##KNOWN
##amily
arc
certificate
seek
tick
##UD
getAddress
Instruction
##Translation
isNaN
##igure
binding
##ifiedName
OFFSET
##Escape
##ires
usage
##RestRep
MBean
Lat
retrieve
zzBuffer
accessToken
GRO
major
##modifiable
getLine
getDescri
Category
classLoader
shared
UNKNOWN
scalar
supports
##Main
##KEN
##Based
look
sender
assertion
ByteString
At
MAP
##Machine
##UUID
##Gap
Constant
statusCode
Executor
##Cfg
##Generic
##FilePath
##Atom
docType
modify
##Needed
Org
getAccess
##Chat
typeName
seconds
##TERN
am
mB
getUI
receive
##OURCE
##QName
getRow
isAssignable
currentNode
Pred
##side
##AI
##ece
##ceed
tags
Environment
ME
##des
Active
##Authentic
##Authentication
Render
##ife
##Permissions
lexer
PORT
mc
##poch
ComponentUI
##ndivid
IndexOutOfBoundsException
##Sender
##tag
##angle
##Suffix
##Rotation
##vm
rules
##viders
Member
getLogger
##elep
##ronology
##ersistence
NS
aggreg
getCount
##ONT
##Loaded
dictionary
##ixt
##Upd
##Alloc
##Shared
##Volumes
##CI
##Validate
##Users
Workflow
##dk
##ality
##Completion
##lank
getNodeName
##Structure
Secret
##Implementation
##Decor
NUMBER
##Release
##Sets
strategy
##efactor
Future
Pre
drag
o1
##Lex
##Ev
##vile
added
swap
##ORIZ
basic
##ros
##Prob
COR
WH
nodeType
##Tracker
BYTES
AUTH
NET
##SC
setPrefix
CLI
CloneNotSupportedException
CAP
cr
eval
##imed
Files
##lyph
bad
##Launch
##Cost
getResult
##ilon
##Convert
Transformer
variables
Memory
##Cnt
isClosed
getFirstChild
LDAP
sensor
##Wrap
##Utility
##Allocation
##avigation
Tool
##GN
##eterm
##loor
##Indicator
getEnd
##OLD
ignored
##verage
##Mappings
elementData
BLOCK
Igfs
e2
##Plot
##atable
Bluetooth
xs
##au
getActivity
consumer
##Links
##WORK
GLES20
si
##link
##ROL
##rames
##vie
UserActor
Atomic
AN
itr
o2
##Iss
focus
future
##Pull
##Decoder
##Counts
##shake
MILL
fix
##Audit
DSSink
eventType
CACH
XMP
##riend
addChild
interrupt
components
Rectangle2D
getSystemService
ConverterUtil
publish
rb
##AO
transfer
##ChangeEvent
##Example
Toast
SimpleDateFormat
permissions
New
rg
##PC
##net
problem
userName
modifiers
oct
##Cur
getPadding
disconnect
##ByName
Sequence
##Driver
isFile
Mqtt
##ref
##MIN
##ented
##stall
##izes
##Direct
TOP
TOKEN
Api
##Sensor
##ectivity
##licit
##ayes
##DataType
longValue
##AndSet
##Checked
Permission
cn
##Dist
##peech
##legator
##Filters
signum
convertToString
##Fully
getDeclared
jj
saml
##Handlers
Count
Sorted
closed
##tp
##Done
##fe
##ultim
##ments
##iling
##ollow
nodeId
maxSize
zero
##TED
##itted
inv
predicate
##ront
samples
hashcode
##UTF
##Runnable
UTF
mkdir
Match
ms
observer
##oned
messageEnabled
what
##Matches
##Debugger
##ipeline
##head
##Polygon
##place
##Vars
##Clone
findByThrift
padding
findByThriftId
##ned
##Solution
##Tail
KeyStore
##ABLED
constraints
modified
Git
VIS
was
##Exist
subtract
Comparator
##Serialization
WARNING
##ixture
missing
rm
##tack
##req
##Distributed
Attributes
LinkedHashMap
NETWORK
Mock
half
##licator
newChild
##Heap
##Shard
Back
segments
Packet
Protocol
Target
fos
##alk
##ariance
DESC
Move
##Named
##eto
isRead
##Dirty
##AndF
Predic
OTH
p0
##Hierarchy
history
js
##BO
await
RO
zk
getProject
##ayers
array1
attrName
gra
rotation
raf
##Leg
##Do
Invocation
ViewGroup
##Highlight
Close
mgr
safe
##Seed
##dle
createElement
dataSource
PrintStream
Subscri
GROUP
Fl
pe
Contact
setDefault
##Shift
actionPerformed
ATTR
Code
##alled
Cons
##Enable
writeCharacters
##ETER
AttributeSet
ContentValues
MILLIS
gu
##F2
##vals
##ogn
##Validation
##Segments
Linear
CACHE
FULL
Options
##NAME
##BT
Channel
converter
LEVEL
Elem
measureSpec
##bit
getPort
##KeyException
appendChild
##Compatible
##ragraph
tokenType
##ilationUnit
##ursive
isSelected
assign
##ASH
##Words
Form
Row
##Decode
proj
pointer
SELE
coords
SDK
##rect
##aiting
##Colors
##SocketAddress
##cii
##IllegalArgumentException
Offset
answer
latitude
##yper
metrics
##echn
Fa
geom
##Credentials
isAssignableFrom
##ood
##Sec
Conn
construct
##Note
##Conversion
##Payload
Drawable
##RAP
##Raster
##Keep
##lerance
byteArray
##ociation
SEVERE
Coord
any
rand
writeNamespace
##AsString
##Locked
signal
##CP
getEntity
##alleng
##Formats
events
##Transformer
##rypto
##PublicKey
den
TextView
serializer
NAMESPACE
offer
##iration
##mb
getImage
##Thumb
##Shader
##Updated
serializable
DOC
End
##DataException
failure
external
##Discovery
specSize
BusinessObject
aScale
wildcard
##Pick
##Secret
##Tx
##ential
Types
##Quiet
specMode
##Creation
##Starting
Vector3f
degrees
FACT
bc
hint
secret
##PLE
##Compound
transport
ordinal
mag
##LS
##tein
getNumberOf
##expected
servlet
##Blocking
##ffine
##Bl
setC
##Metric
##DTO
running
Post
World
tp
##ones
IOUtils
##endencies
##Roles
Dialog
##PS
zzMarked
JsonObject
Device
zzMarkedPos
Typed
Proxy
##IVITY
fullCopy
Identity
##istic
generator
ArrayIndexOutOfBoundsException
##Labels
words
##efactoring
Main
Queue
##een
##ht
isNot
##Capability
getBoolean
##agnos
Snmp
Prim
##gra
##ning
##Notify
##ench
setVisibility
##BusinessObjectData
DAY
cf
driver
mer
##off
##Sig
##Sibling
Operand
##rowser
##Initiator
attributeNamespace
##Replication
registerPrefix
##Base64
For
##tten
num0
##resentation
##Console
Num
fraction
site
##Publish
##BA
share
attributeName
Predicate
Cert
ii
mat
rad
##uous
##Sorted
COMM
##Vec
##esting
##Into
Reil
##Footer
Observable
single
##queue
##erg
edges
runnable
##Side
Execution
##Alignment
filtered
getChildCount
instructions
bos
mSize
##cer
writeTo
##tives
Scan
subscription
ep
##Round
##null
##bum
##lict
setTitle
##Stat
##Divider
SERVER
##AILED
room
##eip
##illed
##Entities
dataType
##Completed
resolved
##ied
##Times
##AndGet
dispatch
qName
##SA
##less
##EditText
##eleph
JPanel
eps
##EC
longitude
listFiles
##earDown
##Modification
CSS
FAILED
##par
##not
##Spi
##Guid
##triction
getInputStream
##Management
And
ca
rename
getLog
##seud
##ViewBean
##Connector
##Created
enter
##alker
##ecycle
##oun
##Inline
setMax
##ifecycle
##Destination
BACK
DIR
##center
##Codes
phone
dtm
Cap
Pay
Tab
Top
allowed
bytesRead
resolver
animate
IMAGE
##ndividual
nc
##Game
getConfiguration
getActive
additional
defin
simple
##Fraction
##ATIVE
unique
##Backup
##oduces
RequestMapping
MessageDigest
getNodeType
SUCCESS
Descri
Layer
b1
##Warning
##Topic
SVGOM
Pass
catalog
iterable
uid
##Mac
##ominator
FileUtils
adapterFactory
SootMethod
##Margin
setSize
elapsed
precision
Authentication
prim
##inated
filters
blocks
taskId
Annotated
Trigger
seg
##icode
##ulated
##ponent
REF
digit
Swing
Icon
##Fixed
##ading
##umm
##BuilderFactory
bytesTo
FINE
##sl
##Turn
##Dot
##Drop
##Analyzer
##Indexes
##Sheet
Button
SO
down
tru
##Bridge
##itness
currentState
array2
BufferedInputStream
##LOAD
operand
COLUMN
AV
Literal
##raft
Distribution
##Remaining
Ar
WE
##Branch
tokenizer
##ivery
Platform
pat
##PORT
##dence
Scope
##NodeMap
UPD
##RDER
##eparedStatement
REM
cx
##Ctx
##Analysis
##Confirm
##ICAL
changes
##IEW
Man
RIGHT
##pro
graphics
##IOException
BL
Size
times
Resources
workspace
cu
employee
##Two
##lel
##tempt
##Than
##NotExists
EXT
baos
pick
##etplace
toIndex
##fference
connected
##Binder
##otionEvent
Zy
##SDK
getBase
byteBuffer
##velope
##Comments
cleanup
Trace
Common
Vk
##BL
##ublicKey
getH
Real
packed
##Increment
TIMEOUT
VkApiClient
newArray
##Positive
##sation
##ony
##tart
##olve
decor
workflow
##posal
StorageSystem
Subject
ic
##Geometry
ReferenceVariable
##Transport
Sparse
##ccur
MON
XObject
fine
##active
union
##ktop
GEN
Sip
SCH
ix
shell
##Encode
branch
lhs
##TableModel
##Charset
Select
##atest
##URLException
coordinate
##Me
##MQ
replacement
##ClickListener
strip
##Inner
##roker
##allet
##StartTime
DataSource
Bound
Lock
ai
mService
oos
pivot
##Surface
getVersion
created
INITIAL
Camera
b2
sep
##Clear
getAction
lineNumber
##URLConnection
prefs
MalformedURLException
##TypeName
Parse
##Beh
iteration
sn
tearDown
y2
##wd
getTable
outer
orderBy
Repository
##echnical
Cell
tax
##arity
getID
toXML
resultCode
Alert
##ediate
IJava
PAT
Rest
Sample
mail
undo
##sig
##hip
##ecess
getBlock
Progress
##IFICATION
ITEM
lib
##01
setData
currentBuffer
hostname
upload
##Buffers
obtain
person
sentence
##orting
insets
Listener
scenario
getDimension
cast
nanos
##Undo
unmodifiable
executeQuery
##Animated
##Secondary
receiver
Jar
##BB
newBuilder
##ITION
##PropertyChange
##Connections
verbose
##Assertion
##Windows
##Worker
##Workflow
businessObjectFormat
Delete
singleton
##Shadow
lastModified
##Quote
big
##Under
##endent
##QUAL
help
lambda
##GC
inte
##vert
writeString
SMS
awt
Animation
##DTD
Des
persist
##Peer
##Find
##nail
##Dim
##tions
getToken
##Shutdown
##Logging
animation
intersect
saml2
ZZ
jc
take
##Mutable
addItem
ensureCapacity
getAccessToken
##seudo
floor
two
##Face
##NC
setup
Box
DOU
HT
IP
##Sep
##rog
extensions
##MSException
LOCAL
##Cached
##Deleted
##Execute
PROT
##allenge
##grade
Secure
##Low
getServer
##ENCE
resourceId
storageSystem
absolute
##eipt
ec
##Sql
##Jo
##Now
##emand
##Buffered
submit
endTime
weights
exclude
##Original
fc
flip
fixed
neg
stored
ttl
##ParameterSpec
##ids
isRunning
##Interpolator
##Percent
dto
grow
refer
##Histogram
ifExists
deleted
##Foreground
##Rectangle
dependency
WebXml
##ComboBox
Namespace
rank
##Gra
##Idle
backend
##preter
##etermine
##elephony
PK
Polygon
glob
##JNI
##Noti
removeListener
loadClass
recycle
PathVariable
##Phase
##MD
##ISH
CONNECT
Closure
VER
##Rank
##Scheme
##Catalog
##Existing
setString
elementName
JsonValue
ResponseEntity
Nonnull
##aemon
##gs
##PATH
##Runtime
requestCode
##Train
##URIs
Control
Google
##centa
##TypeImpl
isStatic
##acing
##dictor
##Regex
##IFIER
AT
LAR
side
##rac
##izard
##usp
##Activate
Parcel
##Flush
vars
corner
DOUBLE
Could
MAR
Video
fin
mMax
sz
##arison
##Projection
##Classpath
##Adj
##tf8
closure
##RS
##Ok
##Lists
##Setup
compiler
debugCode
executeUpdate
EQUAL
fd
mData
##CRL
reser
##ectors
decoded
least
normalized
HTML
BASE
vplex
##Speed
objs
strings
resourceName
##overage
##Evaluator
VISIBLE
Duration
FOUND
aug
google
##RT
publicId
##Numeric
ifNotExists
##Workspace
##Vals
##alth
##rint
##FileSystem
caseSens
errorListener
getClassLoader
##IMIT
##Minute
FSUtils
PackageManager
##AndFeel
CODES
Fragment
cost
getTag
##Subs
##Defaults
phase
rgb
Couldnt
CIM
Download
##xim
InvalidKeyException
##Clicked
Primitive
co
dynamic
px
getInput
white
##Throttle
Interval
SUP
TreeNode
##Skip
##crete
##miss
Em
gd
xpath
##nemon
##ECK
##ette
##Requested
##Stub
exceptions
Password
IResource
Module
ks
norm
updated
##etween
getFont
APP
users
##Dispatcher
COUNT
determine
##rs
##les
toList
##ByteBuffer
##Without
getNew
##Signal
NEG
##DAO
##tivi
togg
##PropertySet
##Include
named
rate
##urable
##ventory
##ORD
##ENSITIVE
Matrix4
##Defs
##Quietly
##opping
##sm
##BE
##Inters
compress
align
##Servers
##Matching
##Authorization
HEIGHT
##acesContext
##ultimap
mkdirs
Factory
Audit
Sim
tf
##Latitude
addAction
resize
disk
sso
##Weights
##Basic
##marsh
MULT
RET
dl
##Ack
##ka
##Expected
##ToRemove
keyStore
ServiceException
SSOException
ActiveMQ
Bi
xy
##nable
##esh
isH
##oming
logAnd
##ookAndFeel
Bytes
##Capabilities
author
##visor
toggle
border
##Zip
##dential
recipient
compareAndSet
##Spaces
##WORD
Modi
rd
##racy
tok
##HashCode
desired
Metadata
##ConsistencyGroup
Angle
Loc
Export
acquire
services
deltaY
##Helpers
Sync
flow
rew
##TargetException
BufferedWriter
##Modify
##Multiple
##ovy
consume
Mo
m3
may
mLast
##value
ObjectName
heap
##Dimensions
loop
tm
##IB
##onym
##install
setImage
##Transient
Struct
##Dynamic
nameNode
keyCode
##Definitions
##Callbacks
TreePath
suite
Accessibility
##Power
setLocation
stroke
Child
getCause
##CheckedException
ceil
##SyntaxException
##elephonyManager
Copy
DATE
getEntry
##erspec
getRaw
minutes
Handler
css
vertices
##uted
##Sm
##Coef
##Tog
##Begin
##Hook
setTime
nextDouble
unw
attach
##nother
##RDD
##RC
##lots
removeElement
##Specific
##ACITY
wrapped
PASS
Wri
##Fill
##Cas
##dp
##Instant
numInstances
##EDI
Provider
encrypt
caller
cross
##ffic
##Gu
##Attrs
LARGE
are
radi
##PON
##Absolute
##Hour
##alette
newData
##BufferSize
##Parcel
##Encryption
RESULT
##ociated
FE
RVM
classname
queryObject
colors
##radient
##roovy
inverse
isDis
##umentation
Initial
extended
needs
##Hints
PATTERN
MATCH
salt
##sal
##Rele
createNew
##aker
##Logic
taskState
SharedPreferences
boundary
Edit
Editor
InputSource
binarySearch
a2
cd
fn
##Nanos
##etric
##Restore
argv
urls
##Longitude
sessionId
Unknown
##atastore
POSITIVE
SecurityException
##Detector
pkg
Cre
estim
##LINE
##CEL
##alance
partial
completed
when
##ATEG
optional
black
middle
annotations
##Quality
Validation
NaN
##COD
##1D
##OG
##ecode
returnValue
getRemote
ObjectAnimator
##Scroller
##ARCH
ROOT
##Behavi
tv
##Bin
procedure
##ToAdd
pause
working
PREF
##Inflater
##Pixels
ACTIVITY
Lazy
instances
counts
##econds
getLayout
clientId
MessageFormat
m10
##Calculator
Argument
CORBA
UNS
pur
##Abs
##aled
authentic
##Radians
Closeable
serializableInstance
##nemonic
Writable
notation
slice
##Cart
##jector
##oderException
##ulk
inser
CHECK
m11
##centage
ast
noti
##RU
##Ring
##kemon
##isc
##Indent
##Arrays
deep
##QueryBuilder
authentication
population
radix
##Cycle
##Ann
##Alive
##anceled
##READ
roles
TEXTURE
DynAny
##EOF
##DOM
##Ui
##Grammar
getW
##amage
cond
readString
##Optim
##TraceEnabled
popup
Syntax
ER
VIEW
es
license
pp
##SF
getV
##stmt
checkState
##Aspect
RequestMethod
##PrivateKey
SEL
snap
##uta
##pool
##node
##MIS
##ableFuture
retVal
isVisible
setType
##ather
##Fault
##uffle
UPDATE
Weak
##Fire
##peg
newLength
##reet
##ReadObject
##When
##Synchron
txt
##pa
##rive
##relation
##ANT
##TemplateElement
##Protection
##lusion
Pending
##Po
##Put
##Sound
getOffset
setM
std
##AdapterFactory
##Expanded
##erspective
AB
IF
Mode
TAB
used
##GIN
##aret
encoder
##Representation
DESCRI
##ffineTransform
ra
sLogger
##Tim
##AIT
setUser
addToken
Completion
supplier
issuer
T2
sv
vb
##Patterns
Principal
##lipse
Parameters
days
m01
##Organization
Organization
##Updater
##MX
##Hit
##ased
theta
##Procedure
getCan
##Defined
ADMIN
DAT
##length
##Theme
divide
Validate
OPEN
Round
lc
sbuf
##Known
##IX
##ital
##Invoke
repeat
##tinuous
codePoint
getNodeValue
##ummy
Drag
VERT
power
getEvent
newMap
##ateway
##IME
getLocalPart
getSelection
getOwner
Vec4
MotionEvent
##lap
##iol
##cat
##Kernel
newName
##ooled
resId
##ERY
##ysical
SIGN
Distributed
percent
##Facility
digits
##ampler
OMGraphic
Single
crl
pub
##Frequency
##Der
##wt
##enti
##PoolSize
finished
journal
CREATE
##PreferredSize
##agnostic
WIND
ancestor
d1
##RES
##FieldName
rootNode
##Localized
InetSocketAddress
##Degrees
CLIENT
generic
nano
##rp
getBounds
##aging
setBackground
projection
##inger
##Expired
##Checks
Visual
patterns
getResponse
principal
##Chronology
##index
delim
textArea
##Already
Transport
getFull
##Where
##Plugins
Empty
GR
NORM
sec
t1
getConfig
inStream
isTraceEnabled
##InMillis
node1
stringBuilder
##SSL
lowerBound
geometry
##gh
##Li
##hal
##field
##oost
initComponents
DataSet
##Ops
##Optional
glBind
##500
buffers
RandomAccess
subscribe
CAPACITY
FLO
##Room
chat
##ObjectException
entities
listOptions
##Allow
IDENT
getAuth
##Editable
##Install
logAndConvert
Rel
##Plex
##Cop
##ominal
ObjectReference
uninstall
##tivation
defaultReadObject
LOAD
##Accessor
accum
##bined
AND
Hel
pts
##ARI
##Broadcast
##ational
DSSource
baseDN
##Checker
Step
rollback
LIN
PACK
margin
solution
t2
##rence
##Tenant
Example
distinct
ENABLED
m12
Track
Metric
mValues
ptr
##Fast
##Sizes
##Other
##Proposal
unexpected
##Pred
##Signed
leaf
dimensions
##Symbols
dayOf
Animator
click
etag
secure
##gers
##book
##ToInt
alarm
interpol
Android
Mail
##Req
##ElementException
Complex
blocksize
##Matrix2D
deltaX
blue
##Realm
Mod
ie
##Wave
##vation
Instanti
##ATURE
opPos
##chemas
DataOutputStream
listenerList
##Parts
digester
Selection
m00
d2
requ
isT
resume
FileWriter
##lucent
##Steps
##Swap
##bedded
SCHEM
##EF
##Aware
Login
##rallel
unwrap
ICON
Py
TelephonyManager
##leter
##sList
##Pages
##Standard
FILTER
mG
soft
war
thumb
requested
##IDE
##ibble
Private
BitmapFactory
WINDOW
##Pi
##her
##buffer
MathUtils
##Opt
##Buttons
redirect
OPER
DerValue
##tid
##Pause
getPosition
getStorage
getStyle
syntax
##Predictor
PreparedStatement
isCritical
##olley
##Inclusive
SerialUtilities
SOAP
Launch
poly
##ural
writeByte
##ITE
##LocationException
Serializable
SELECT
n2
##Finder
##oster
cloned
JLabel
MEM
another
##Rew
##Avail
getComp
setMessage
setStatus
struct
INPUT
##Sources
responseHandler
Partition
TreeSet
##ropy
qualifiedName
SSOToken
InvocationTargetException
##SDKUtils
Timer
nl
sock
##WS
##beat
##Html
UIManager
##Prefs
Game
Volley
##mented
##hash
##isation
##amma
##lied
##Disabled
transition
##Append
##Getter
highlight
RESPON
NamedNodeMap
XSLT
Adapter
T1
blob
fp
ratio
##Codec
getWindow
##endhal
##otype
##Sharing
##MethodException
##Authenticator
AffineTransform
CO
WRI
##holder
sources
##Uniform
##Prev
##IFT
##Moved
After
Zone
##Scheduler
##UST
##Oct
newElement
Stop
firePropertyChange
NoSuchElementException
##NGram
CANCEL
MILLISE
n1
##Src
##Dump
##ful
##Pager
##Dead
##Expiration
##Ports
##References
Split
upperBound
horizontal
rv
drawer
admin
getChildAt
##CastException
returnType
TypeReference
##Supplier
##Uris
##Initialized
g2d
##Contains
Ade
TASK
green
managed
nested
sy
##v4
##Uid
##jected
thrown
##Pairs
REC
async
BufferedOutputStream
##overy
SHOW
hexString
m02
QUERY
BadLocationException
DOCUMENT
Managed
Person
RU
master
##Density
getProperties
setId
indexes
##itivity
runtime
##Prime
employeeNode
Material
##rb
##Ranges
##cing
CharArray
##Minimum
DbException
##Qualifier
grant
##Polynomial
##OID
##Updates
primitive
Domain
##Frames
##Modifier
setChild
createUI
Exif
##FromFile
##Resolve
quad
Doc
Sort
same
we
##EK
##Neg
ClassCastException
DateFormat
##Docs
##Locals
##bedPane
abort
getDescription
ED
mul
pl
solr
##ention
##isted
returnVar
##atial
feedback
##Images
CLOSE
##18n
Callback
platform
##Merge
##java
createTemp
maxValue
##ContentType
##Specification
Replicator
customer
##Enter
Cookie
##Feat
##Abstract
##Negative
##BACK
##tick
parseLong
##ternate
summary
##HttpClient
##Seen
LatLon
SELF
##max
##Using
readUnsigned
##FailedException
##MISSION
Axis
SL
cov
##ework
##TableName
records
##Coords
CHARACT
Import
mActivity
pin
##xName
##nk
##any
setOn
logError
##ENSION
##RECT
base64
tasks
##Samples
DbClient
##arshaller
PlaPoint
GF2
##ium
##jo
##alle
##ueries
##Compare
##Addresses
stringTo
ENCOD
GridData
##IFIED
Period
##rogate
FLOAT
lp
plain
##aque
##sted
##Immutable
##eturn
##urrogate
price
##ATER
texture
INS
##Traffic
quantity
##Toggle
JMenu
Tri
##ligh
##ery
getGroup
setLength
##ListView
##omb
##ErrorResources
execution
execSQL
##Ordered
addElementTo
Validator
exportGroup
ACCESS
Refactoring
##ECTION
tolerance
generatePrefix
TimeZone
ENT
CONTEXT
##OCUS
##CII
Flow
Raw
func
##Are
##Ins
valueType
writeQName
ResourceBundle
detach
DynamicAny
BAD
bg
gap
mTemp
setState
##OfDay
##Scor
buffered
##AMP
##Ord
groupName
##obile
ImageIcon
SootClass
##Activated
##Fixture
##Migration
##Loop
##ALF
Profile
obj2
##Verifier
TreeMap
##InsnNode
EOFException
All
Space
Us
getCode
getHeader
isFull
##Resp
typeRef
optim
##PEC
##REE
attrValue
steps
##Waiter
characters
##Relationship
epsilon
nanoTime
Naming
gbc
##orary
isPresent
##Dev
##izationException
Chart
##Strength
Assignment
##types
COMPLE
Folder
gender
##bound
getNetwork
##Flavor
##Linked
##Printer
intersection
deserialize
##ergy
Brd
Send
mStart
##ners
only
IgniteCheckedException
##onymous
Lex
density
under
##Estim
isTrue
value2
checkFor
getSuper
##Generate
##Special
##tine
Stendhal
m21
payment
##Slider
##PullParser
MONTH
Flu
HOST
IType
eq
fv
mStarting
week
##APE
StringReader
##stack
##NodeId
putValue
readFully
shuffle
Compute
##letableFuture
##Overlay
artifact
details
Subscription
getCanonical
RESPONSE
neighb
##Ping
##Light
##Letter
##dx
##zz
##rang
##ratch
getException
##TextArea
MathIllegalArgumentException
modules
PropertyChangeListener
PART
##COND
interfaces
NORMAL
addElementToRegistry
Binding
CG
Plot
pg
##Router
##pack
##Master
##Go
##ResId
readLong
numAttributes
recipe
signed
##lusters
CSV
##ectivityManager
Ldap
jp
##rong
##graph
##Velocity
##Lng
nodeName
dirty
REL
registered
##oduction
##Picker
AC
Monitor
Var
fld
trust
##Push
##Dom
##Age
##width
##4J
##istics
##esture
##Bug
createS
removeFrom
##Acquire
##ootstra
formatted
UNIT
NoSuchMethodException
m20
PsiElement
Load
features
mState
near
##Routing
##Dp
##Ap
##Navigation
##rease
Const
##Attach
textNode
LOCK
HORIZ
Pc
Route
ZWave
##print
##Archive
##arance
styleable
TaskState
##256
Gra
RDF
##Half
##pector
##Exif
readByte
##AsStream
##Rendering
prepareStatement
supported
##Square
##Thumbnail
##Availability
Bl
Max
override
sid
##EAR
##88
getZ
isOpen
##imited
addPropertyChangeListener
##ToBe
xmlsig
##MethodName
##REF
##Redu
declare
##ehic
##ismatch
Digest
Join
##xes
##Walker
##bind
##check
finalize
##Tok
##bus
##Attachment
quest
##sumed
SecureRandom
Agent
El
MOV
Native
cart
##WN
requestEvent
##TokenType
##Sprite
##Numbers
ownerId
##IGN
##artbeat
##TouchEvent
POL
mText
pid
squ
##aton
define
Chunk
atts
##Boundary
LinkedHashSet
##endence
##HTML
FastMath
##OKE
VirtualFile
BusinessObjectData
##rCluster
##Px
##ived
##Mock
##Ljava
##errain
##ffective
##ingBox
toInt
privateKey
##Deque
##Participant
##Subtree
Disk
XPathContext
##Permitted
ElemTemplateElement
Body
GP
##arg
##Exchange
invo
writeLong
numeric
##Generation
encrypted
##Repo
getAnnotation
photo
##eighted
CoreException
##ficients
JButton
MAN
Prom
equipment
##Figure
addView
classIndex
##Compiler
##IMUM
secondary
Io
ci
hit
mp
##ior
##Vendor
##Grant
standard
setAccessible
asset
accep
dbConn
DBID
##utomaton
Neuron
One
migration
pstmt
##ae
##sGet
outStream
##Force
DataType
##Delimiter
dateTime
##Cloud
systemName
CacheHeader
entRef
ADDRESS
##ROLL
jjt
crc
##Front
##SED
##Categories
##ication
STOP
##FileTransfer
##Enumeration
##AndResponse
spring
vertical
##Bindings
##phere
NotFoundException
ValidationException
PERMISSION
received
OTHERS
HORIZONT
Fixed
VPlex
##gl
getJ
setting
##AttributeSet
##The
##REEN
HttpURLConnection
canonical
extras
##Multiplier
StendhalRP
Break
OR
##ves
retain
getBody
##StringBuilder
ObjectMapper
offsets
Compiled
##EMENT
elems
dispatcher
INTERVAL
merged
k1
##RED
##hood
##Nr
##HA
BasicBlock
testNode
##IZED
HORIZONTAL
f2
overri
##Vertices
##Family
##Override
##GED
##ependence
##TypeId
FileReader
FileSystem
arg1
translation
CompletableFuture
##EndRead
SHIFT
emptyList
XmlPullParser
globalInfo
getUIMgr
GENER
augs
DT
Po
YEAR
a1
mW
possible
##tecode
##oted
##Sem
##Tw
##DATA
##Decision
isW
##Until
targets
##Repeat
SECONDS
metaData
##range
ASS
Mon
ORDER
##Mail
##lica
addHeader
columnNames
##Controls
ConfigurationException
Heap
PrivateKey
NON
ele
##ainder
##Modifiers
##TING
##Best
##Handling
closeQuietly
contentHandler
sendRequest
##unnel
comb
zzEndRead
##olds
commands
##Dependency
GridBag
ServletException
##tidad
##Tax
##Employee
##Arc
##epoint
##ectives
##oose
isG
##otos
##ommend
##ErrorMessage
configFile
fromString
Deploy
##ToolBar
GenericValue
Endpoint
##ootstrap
FOCUS
WRAP
jms
##nonymous
##Mismatch
##IES
##GET
##ination
getPage
testAddr
bufferSize
oldCapacity
##titution
Html
Up
bw
emo
##fc
node2
LogRecord
positions
remainder
##oves
##Phone
Switch
Ab
DER
Meta
ack
fast
ored
tip
##Pur
##COM
##Oid
##orth
getParameters
getTitle
##ansion
##Toast
startState
nextChar
fieldType
##finity
getModifiers
hostName
##CheckBox
networkPanel
NOTIFICATION
##Registered
Ct
ois
tbl
##ses
##cut
##Equipment
startAngle
numBits
mappings
getDraw
getClassName
##ScrollPane
##Photo
##Subscriber
##do
##bench
##Observ
isApp
arg0
##Alg
##Channels
DefaultMutable
##Tools
credentials
oredCriteria
Schedule
Tile
lr
persistent
##CLE
##Err
STOR
iface
responseHeaders
##Population
INTERN
inflate
Sk
##Person
##Between
Info
requestUrl
recon
##finite
getNative
zzReader
##WebXml
Leg
carbon
mTab
##Mean
##tan
getFilter
createX
##literator
##Health
parseDouble
interrupted
imageView
columnLabel
KEYCODE
sqlState
##Extractor
Algorithm
##Days
m22
detect
##going
BITS
##UTF8
FILL
HASH
WAIT
clock
pdf
##UES
##Book
##IZE
##rith
getViewer
createTable
currentIndex
##Handshake
##Receive
casFeat
BitSet
##Squared
Promise
##aus
##Pt
##Speech
##Ddl
##rier
inOff
Instant
participant
nextNode
##UserId
getAs
##Delivery
visited
##Levels
AbstractDocument
reduce
hints
REMOV
DynAnyPackage
own
tim
##atum
##ister
##rows
##opulation
distribution
##Ready
graphic
##Modules
ALLOW
##Redirect
WRITE
LAST
bScale
##VN
getArray
##Exponent
Lists
producer
##Refs
##Descriptors
DESCRIPTION
StendhalRPZone
DefaultMutableTreeNode
Gu
PAGE
Wh
ty
##sMap
##ramework
##regor
isPrimitive
replication
HttpStatus
attachment
##regorian
RAD
##Multimap
##License
getList
BOUND
##query
##Maps
OutputStreamWriter
##Terminal
##IFY
##ways
##Coordinates
SortedSet
Scanner
ZyGraph
ROL
duplicate
equ
##RA
##mer
##GB
##Gui
##02
##estor
isArray
##Complex
testEmployee
activate
##Deserial
getChildNodes
hours
coeffs
MARK
JMSException
Sm
##med
##mask
##Criter
##Clip
##Iterable
##Union
swing
URISyntaxException
ActionListener
relationship
GUI
byteCount
##FieldType
doGet
##easured
##WhiteSpace
scaled
##SecurityException
SAML2SDKUtils
follow
##write
##Offer
##icon
##Extent
setElement
##ToLong
par1
testName
##ResultSet
##OTE
##UNK
##Origin
Marker
NEGATIVE
MILLISECONDS
Aggreg
HG
YES
some
##day
##aries
##esc
##reater
##verted
setAction
setCurrent
enqueue
prod
Transit
divisor
excluded
screenResolution
LOCATION
##Inser
setBorder
##DataTag
##ackbar
Reason
Cloud
##JSONObject
LocalizedStrings
SecretKey
##Like
Le
MEDI
critical
dict
ge
mKeys
nid
vs
##bility
##Pan
publicKey
##inance
##Streams
assignment
##Interceptor
##Recon
##Endian
##ACML
##Searcher
FIR
terms
SCROLL
Selected
Payment
Ind
LAB
Place
Sensor
Write
bridge
##Testing
##ista
getItems
StringUtil
##Invalidate
##Require
##Review
shader
##rough
##Painter
CertificateException
runner
RectF
VERTICAL
CALL
##estion
getOutput
##edis
##oreign
##Reporter
##ReturnValue
##RGB
##metic
sysWrite
getApplicationContext
##BTTag
SwingUtilities
Before
MP
OAuth
UND
cy
fDocument
tester
##Sq
##Demand
getValues
thisVar
startOffset
shadow
##Ascii
##SocketFactory
RESOURCE
PLAY
intersects
Global
categories
watch
##Measure
##MeasureSpec
##adoop
##aving
readFrom
printf
##ALE
numOf
unManaged
getCommand
##SystemId
EXCE
CHUNK
##mentations
trunc
CHARACTER
##rithmetic
JO
Over
broadcast
f1
sd
speed
STROKE
invocation
##Resume
readFile
##OrEmpty
##awn
##Targets
##PLAY
##Terms
Aug
Missing
sce
##Station
##mise
getFormat
getGraph
getEncoded
##InProgress
##Accu
elementCount
preferred
Compiler
Static
decrement
matched
locals
Parameterized
pane
Diff
LABEL
PU
mon
##nted
##NOT
##IER
##erve
##ilarity
##essaging
##irc
##ytes
##Restriction
createAttribute
key2
startX
##Scal
showMessage
##ants
VALID
validValues
hasMoreTokens
GT
PDF
##Roll
##Mer
##Lang
##Daemon
##Blob
##terate
##ulus
keyType
delegator
Chat
VALUES
##laration
patchState
##Intersection
Str
literal
neuron
routing
##Poly
##Neuron
newArrayList
##Interrupt
##ookies
##Vectors
SESS
ae
cw
##Cross
##by
##agic
##ilent
##Exceptions
isInstance
street
##EventType
##activate
sprite
varName
CharacterData
InternalDistributed
deserializer
rx
##Platform
##Own
isShow
resScale
##Revision
dismiss
outputFile
Replication
displayName
ONLY
getDocumentElement
RandomAccessFile
Ev
EGL
IV
Peer
face
##Perspective
##Motion
##Ele
getMap
isUn
mapSize
##fined
##Validity
##Author
##Recording
##Verify
Verify
##Overflow
ApplicationException
tuples
##BusinessObjectFormat
InlineQueryResult
##Integ
FX
HAND
dup
grammar
mx
sink
vari
velocity
getOp
##Keyboard
##Align
tagName
##Locations
##ChangedListener
ErrorCode
INaviView
InstantiationException
JMenuItem
atom
agg
frequency
mime
##Trust
##Epoch
##Band
##itter
##ingClass
Classifier
##That
##Throwable
sourceList
numBytes
childCount
repl
##QueryWith
lineEnd
decimal
DSSinkKind
archive
epoch
fallback
life
trees
##uri
##Average
isLocal
confirm
##Att
DSSpec
subp
##ValuesHolder
converted
EXACT
NumberFormat
modCount
ARROW
degree
##BigInteger
##RESH
circle
kernel
mAdapter
##Far
##Solr
##enc
addProperty
Inc
##ctual
childNode
##OrCreate
##Capture
connector
authority
APIException
##vilege
FACTOR
CIR
Lib
TInt
##4j
##ares
##strument
Initiator
getSign
##acion
stackTrace
##mmediate
businessObjectDefinition
getResourceAsStream
##MouseListener
previewing
##TrafficController
SESSION
dao
k2
##BI
maxY
##Recipe
decrypt
##Checksum
destDir
serverTransaction
##Working
Processing
getShort
ENCODING
bool
book
ear
iNode
mRoot
ur
##ze
##Bi
##GUI
##alc
##umul
##Visual
Produces
##Asset
##overed
##Topology
##Dependencies
##CertPath
caseSensitivity
By
GONE
OVER
band
mHeader
##Ahead
newLine
##ounce
Consumer
##Choice
minus
combined
schemaName
##Written
simulation
INTERNAL
cent
nr
##chase
restart
##Problem
createDefault
classifier
childList
disc
DataInputStream
getAss
##Delayed
StackTrace
started
PASSWORD
##ependenceTest
Def
Sql
##etermin
then
toLocalized
##rono
INTE
##Partial
channels
Workspace
Stylesheet
CertPath
mF
##lator
##Fs
##TON
##Protein
acl
portable
##atasource
Timeout
sipStack
##Stride
##Accuracy
JCT
Solution
fatal
getStackTrace
Conf
experiment
##FileChooser
##lying
mapped
eventName
Datagram
RecyclerView
difference
##Markers
worker
##Wheel
##Interfaces
##Included
##ova
##SampleSize
arrow
conditions
CarbonCommon
beta
mirror
nibble
##ua
##We
setInt
startY
repo
##Android
##URATION
ParserConfigurationException
##Publisher
PACKAGE
IR
PublicKey
inBuffer
isNew
isWhitespace
##ONENT
dataArea
interpolator
##Spinner
frameSize
##Chunks
##Lexical
Literals
X500
effect
##Layers
##Blank
##eros
setParameter
##vite
logging
entidad
discard
responseCode
QueryTask
PROC
STORAGE
XACML
knowledge
##PER
##Persistent
##zip
##olved
##Std
checksum
parentNode
##Recent
##PEG
##Retain
##Retries
searcher
StoragePort
DISPLAY
Readable
DELAY
mBluetooth
orderByComparator
##lated
##rams
##ula
##licable
##ince
getOutputStream
getTask
setOp
##ctx
##Outer
##acy
##EndTrim
matching
REPL
stackSize
##Commands
PARENT
md5
forwardTo
toXMLString
##ticky
##Mech
##ked
##Hub
##Paragraph
##ordova
##ParameterException
getUnique
##Providers
proto
endElement
##Translate
getCache
##ConnectionFactory
resourcePath
getAdapter
jsonObject
notifyAll
##Transformation
##OCOL
##Many
##Degree
definition
SMSException
SUPPORT
##oppingCart
BUT
ROUND
##So
##ye
##Den
##trict
prime
toLong
##Prompt
removeAttribute
##ManagerFactory
requestAndResponse
getDoc
attempt
PROTOCOL
cube
fCurrent
##MA
##LookAndFeel
##mx
toJson
External
##ips
childName
##ITLE
##Prep
processing
sku
getNamed
topology
Report
##Toolkit
scrollX
JCTree
CarbonCommonConstants
Has
HLE
MIS
adap
ldap
latest
ys
##tc
##Func
##DIR
##3d
##cho
##char
createFile
discover
Shard
scaleX
Alarm
##radle
CHANGE
FIRST
EXCEPTION
Current
ja
##Catch
ifd
##child
##semb
##ember
attributeType
scaleY
Priority
sumOf
Drawer
Collectors
LinearLayout
LAY
WX
##Plus
##alone
getContainer
##ndalone
##ird
keySize
diag
RequestInvocation
##Association
getPlugin
##Probability
##etoable
##Released
##Absent
RequestInvocationEvent
HOUR
Jdbc
SENSITIVE
analyz
analyzer
rl
touch
vert
wss
##lid
##cted
##Duplicate
##KE
##oup
##Requ
##NotPermitted
lineTo
copyTo
##PortHandler
organization
##Extras
getLocalName
##Facade
Conversation
tenantName
exampleSet
GridBagConstraints
Cor
KML
Power
Soft
SOURCE
analysis
bv
ld
nm
##Possible
##lin
##lect
##Large
##Soft
##ving
##Browser
##eli
##ingStrategy
removePropertyChangeListener
##RequestBuilder
##Recursive
expire
initCause
timeStamp
##uda
InvalidObjectException
skipped
scrollY
coordinator
unsafe
PARAMETER
Admin
Spannable
Auto
Arithmetic
Mat
have
oc
turn
uc
##TP
##ables
Strings
instant
##versal
minValue
parents
processed
##CRY
preferences
##Scheduled
ANY
addActionListener
PendingIntent
LINK
CIRCLE
IStatus
mf
##Cmd
##asl
providers
logInfo
file1
printer
##Acc
getSp
##conn
outputStack
##ThreadPool
##Appender
##Percentage
glGet
Pointer
##icture
VirtualPool
##Canvas
##ingerprint
Bind
Card
Groovy
##EAN
##v2
##DP
getListener
##Exact
ch2
appro
colon
Reject
##Clients
PathParam
TestSuite
ResultPoint
getParentFile
##Conditions
Head
Controller
FacesContext
Port
##Way
##GRO
getTransaction
getProtocol
newTable
##apon
setOutput
toRemove
##Reverse
##Cols
idle
##Additional
recur
Std
Supplier
##Clazz
##URN
jjtAccept
Mac
Navi
Singleton
npc
suc
##Suc
##etAddress
getTop
##ourse
##Ints
writeShort
##phab
getSupp
##Trailing
AbstractInsnNode
##screen
##Certificates
##Evaluation
FROM
##Dispatch
getPackageName
S2Point
##auss
ConnectivityManager
RS
codec
eof
geo
##Sent
##Board
##uter
##RING
##Outline
##ippe
##ludes
##ResourceId
decoder
##Spring
ThreadLocal
##Tabs
##Facet
IPath
af
r1
variance
##Tcp
##QUI
setArguments
numRows
##TestUtils
AbstractThrottle
ResultCode
ordered
reload
DirectoryServer
##agnitude
Relationship
##atten
##SerializationContext
mult
mImage
mFirst
##Freq
##for
##Bra
putLong
Mapping
##Interest
##Contract
Stun
##atis
allocation
SECOND
Extended
Visible
legion
toLocalizedString
cop
##Fitness
isRoot
setSource
addColumn
ready
##formance
unknown
##FromTo
##Username
initialized
##Pools
##SelectionListener
randomGenerator
validation
locate
##Manifest
findByName
##Iterations
##checked
combine
##Cp
##ks
##Hidden
isLeaf
opts
##ITH
##CacheSize
AttributeType
##WriteObject
##ToolTip
Remove
##BTTagCompound
Crypto
ISerializationContext
bBytes
filled
material
pb
##aim
##14
theme
##inality
BOOLEAN
setFont
addField
##INED
minY
##Shell
getDate
##rupti
##Drawing
isSame
ErrorListener
MODEL
FINEST
movie
anno
getDisplayMetrics
Se
tl
##air
##Pe
getQuery
##InBytes
##Keyword
logException
##anagers
##Director
##Album
getDep
serverId
dateFormat
RequestBody
selectionArgs
##WebView
##Contacts
CANNOT
mViewPortHandler
##LiveAttributes
##Assertions
##uspend
radians
##elihood
Net
Tim
USE
We
live
mPaint
ping
##Coverage
##TypeRef
addT
##NodeInfo
scratch
##Within
objectName
##ANCE
alg
intern
##RRENT
##Authority
bindings
threads
##SITION
##GenericException
Timed
mt
##uzz
##19
##Io
setInput
addParameter
##otential
##aching
##Codewords
##Models
Stat
rowIndex
getMatch
drawLine
incoming
##Matrix1D
SEARCH
##Assert
##IfNeeded
POS
SCALE
quality
Temp
##ampling
##keys
##Variance
##PopupMenu
CONNECTION
##Issuer
CT
Ui
mColor
mScroller
##bt
##eces
##icros
##ito
##imits
setBounds
##Indexed
##TimeStamp
checkClosed
##ITS
baseUrl
##Quest
ContentResolver
chunks
Decimal
ARGUMENT
DerOutputStream
isReadOnly
##Copies
EXACTLY
CRL
FAIL
GRE
bot
cut
glyph
##UCT
##GR
##YP
##ecting
##asing
##atures
choice
country
connections
getFrame
##Templates
instr
##iven
##TRY
aliases
THREAD
unsigned
##Buckets
##Artifact
REGIST
Counter
AnnotatedType
High
MAG
TITLE
avail
bSign
fi
mFile
##fill
##ales
##ngred
##app
constructor
##igen
##ToBytes
##Attack
startElement
##Recipient
expResult
getCtx
getMode
##sumes
ImageView
##TimeoutMs
##tivities
ReplicatorException
PUBL
##ngredient
REND
TEM
pages
##MB
##JREF
getTab
isNotNull
addNode
outLen
##ObjectPath
testSet
##ForTesting
entryDN
extProfile
##Shown
inputFile
findAll
##Editing
##afka
##PECT
attack
SETTING
##Launcher
octets
Backup
Flag
Numeric
LIMIT
Mime
Pool
mListener
##SING
##ening
getChannel
setKey
exact
Inject
assertSame
##Scene
##USH
POINT
##titlement
severity
##entary
pixels
##vileged
##AspectRatio
Ok
nf
##erator
##FFIX
##EAM
retValue
##stone
INV
commandLine
Repl
##posed
Callable
INTEGER
CLE
PUT
polygon
raster
##tle
##Refer
##policy
##Friend
##Mid
##Surrogate
##mission
##Ident
##rink
##ndler
isInfo
isEqual
createStatement
logout
compact
arrays
Projection
defaultWriteObject
asm
soap
domImpl
Encoding
DIRECT
COMMAND
##Memo
Modify
PE
Root
REST
i1
ls
mContent
surface
tz
##Pin
##Persistence
##Since
##Provision
##state
##InfoList
subtype
##EndTime
##ReadOnly
##Resolved
InternalError
VOService
##Replacement
isNullOrEmpty
XSLMessages
FXG
Fac
billing
plu
s3
##My
##Bookmark
KeyPair
##osa
exchange
createCriteria
##Completer
dbg
makeText
##Partner
InstanceManager
CONTROL
##Containers
BUTTON
AWT
Bridge
VOL
modifier
scheduler
##DC
##elow
bus
messageId
##RequestException
ascii
Spatial
operations
##STANT
pdu
Augmentations
HALF
PH
TRI
bis
freq
##Fallback
##Kit
##entrant
##anti
##Inventory
proc
createFrom
##TimeZone
##STR
containsValue
doPost
aspect
##Spacing
CONSTANT
randomUUID
quick
SUFFIX
links
##Tracking
WindowManager
PdfName
##ORITY
bucketName
PLUG
FINER
isDone
nbt
Launcher
Persistent
aux
cycle
i18n
mVideo
##RY
##Ag
##aser
##uestion
##Scenario
##GroupId
##Sessions
comboBox
getLocalized
accountId
ENTITY
Batch
Language
SQ
lst
must
mBitmap
##Fetch
##LL
##Life
##SH
##Hide
chooser
##ops
##ANGE
SYNC
isInfinite
collector
##Instructions
##Initializer
correct
sigma
##VideoItem
##NIException
insns
Terminal
AtomicInteger
VN
crop
mm
mList
##Eval
##Dn
##zed
getChar
##ollo
revision
currentEditor
clz
timeZone
getReturn
parameterTypes
RequestHeader
CLOSED
phoneNumber
##Observations
dr
pn
r2
##PR
##Latch
##Watch
##Glyph
##orer
##oral
getStack
isDefault
readAll
minCapacity
Servant
##OrThrow
##Accessibility
##Sparse
addresses
##PackageName
sampleSize
DBG
MODIFIER
EnumSet
isFinal
DirectoryException
##ceeded
FACTORY
##ccurrence
jcas
square
##escape
JNI
OC
Play
Wifi
btn
jdbc
ren
sector
wifi
##Poll
##rins
getIcon
newAttribute
newDocument
addNew
outline
writeLock
##CompilationUnit
##ARGET
##ProgressMonitor
input1
LinkedBlocking
Expr
##Leading
##ught
##Conflict
OUTPUT
##Interaction
PROCESS
Dense
Site
XNIException
be
ring
##lt
##SOR
##Ge
setParent
ClassNode
##ARE
extent
##AMETER
##Prec
Stats
queryString
Transfer
##FocusManager
chunkSize
productId
SAML2Exception
##Radio
denominator
isNotEmpty
##ximity
WeakReference
isInfoEnabled
Kind
fil
guid
##Ttl
STREAM
setPage
##Compression
##Should
alignment
getModule
DocumentBuilderFactory
divider
##Toolbar
SearchResult
QUEST
getSelectedItem
casType
##DataSetChanged
##Deployment
##Confirmation
BLACK
##ehicle
getNamedItem
PLUGIN
Dataset
i2
##Tmp
##Near
getter
getRepository
##Atts
prein
##Quota
##Serializable
terminate
InputMethod
Cannot
getRowCount
IgfsPath
##Notifier
##marshaller
##Behavior
Comment
DO
Obj
RED
bayes
cbuf
jpeg
##Co
##Geom
##anisation
##Invo
Connect
createCompatible
logLevel
postin
##Checking
SMALL
locations
##CreateRequest
certs
aws
helperText
Description
CtClass
InternalDistributedMember
nibbles
aff
light
ray
sx
##doc
##atter
toFile
##emFire
##AttributeValue
maxX
toolbar
getDomain
##Quantity
##Displayed
##Phrase
Visitor
invalidValues
##RelativeTo
OperandSize
##Initiators
StackTraceElement
VNX
Bits
CM
Hyper
JScrollPane
git
home
mix
rnd
##SD
##isode
##arv
##iter
BOTT
##Concurrent
logMessage
##egister
Mapped
getDouble
handlers
##ACL
##Apps
##ScrollBar
##tistic
yylength
maybe
RoundingMode
##Rewrite
postinvoke
BOTTOM
cam
less
qh
##Pm
STEP
##exus
setSelection
setLast
##Compute
getSample
##ItemProvider
parentId
Reentrant
input2
transit
##Alt
##TestCase
##Processed
TestCase
##ScrollBy
PropertyChangeEvent
syntaxError
##regorianCalendar
ServantObject
Gui
family
lt
lng
mType
##aken
##Was
##CG
##Equ
##IAS
##etype
##cele
setIs
##usic
TypeVariable
Bigdata
##Tests
direct
getContentResolver
Deserial
##ractive
##allest
##connected
preinvoke
CF
Com
Driver
bo
fut
##Svc
##tip
getNumber
ints
##aper
createObject
##TimeMillis
##achable
##IDER
##Disc
recursive
FieldConfig
ENTRY
ALG
##Focused
##Cells
Optim
Photos
isBlank
goal
imported
shardId
opsClass
##anyId
someObj
MEDIA
Bar
Normal
Undo
ft
gp
mHandler
##sa
##come
##Cent
##ooper
##Inside
readShort
##Expansion
ByteVector
flatten
##Subset
ctxt
Recipe
##ference
##Movement
##Cancelled
starting
arcBounds
##Decorator
OTHER
##ecessary
##Minutes
arch
fmt
most
sLevel
newList
##ople
writeBytes
##Linear
##Intervals
##Recur
sweep
attrSet
##Signer
##atile
##Quad
Serializer
##losest
##PriceModel
##SplitPane
triangle
Preferences
getDescriptor
coordinates
##ommendation
OS
TARGET
WITH
ignite
negative
##PED
##Ancestor
##2d
##odable
getPassword
addValue
##build
createDocument
##aves
readBytes
##RID
##ModelEvent
destFile
##CommandLine
##Opened
##Highligh
##titude
##DiskCache
FrameBody
estimate
##aussian
2D
Billing
T3
pru
true
##Individual
getBundle
##iry
##ocker
createEntity
keyword
par2
##TextNode
fromJson
rowCount
visibility
ShoppingCart
Vector3D
expanded
##Triple
Insets
CHANGED
mbean
bytesToRead
IJavaElement
getSuperclass
inBufferPos
wsspolicy
EObject
Iss
TW
cer
cuda
marsh
ti
w3
##Frag
##Arch
elt
completion
##Unknown
already
##ieve
div
##Statements
##Markup
stepId
##position
SPACE
coefficients
##Curve
##BOSE
VERBOSE
Sentence
##ipp
newIndex
isV
##FileType
##Attrib
ListIterator
##Compile
##Heartbeat
onDestroy
textField
dateValue
##atern
GL10
##BackgroundColor
##ScanError
isAuto
THRESH
PluginResult
memo
##Lexer
iterations
##Training
ssoToken
ApplicationExceptionBean
CATEG
DONE
EL
PA
bookmark
lm
##sPer
##Modes
##Neighb
getBuffer
##idi
StringSet
##liance
##IntArray
typePath
nextLong
##TextView
instanceId
maxWidth
pathTo
views
##Encodable
LocalDate
signer
openConnection
##Minus
JsonNode
META
Phone
Synapse
ACTIVE
EXTENSION
Breakpoint
VisibleForTesting
THRESHOLD
If
Store
Snapshot
TX
aClass
##Slice
##Bool
##Gatt
##TypeEnum
isSupported
##ValueMap
provide
##ingHints
##KeyPair
prototype
parallel
dead
##Deletion
##Alarm
getDes
getAd
encodeBody
ownerDocument
##IfExists
special
##Terminated
console
MBeanServer
##Adjust
FEATURE
##Tokener
RADI
##umulative
Publish
VARI
broker
feat
hy
rh
##Pipeline
##Mom
##osed
removeAt
generation
##ConfigManager
loaded
recyclerView
##ICK
getRuntime
##Sugg
zzScanError
PROV
httpClient
propName
getOrig
NEWLINE
##Jobs
Help
DIG
IC
RSA
sg
waiting
##gt
##NPC
##rash
getURI
##ndant
##verity
##atar
listIterator
##Hosts
getLink
getMeta
DocumentType
offs
##bserved
tracker
creator
##ENDING
CURRENT
##Allocator
ReilInstruction
JText
TL
XPATH
gson
gts
q1
rt
sent
##Sdk
getProcess
getFileName
choose
nextClean
FileChannel
field2
numerator
cloud
##GroupName
userAgent
HttpResponse
##Versions
##Appro
ports
FormatException
Children
##Parcelable
##osaic
Polynomial
Sem
##VE
##Sentence
##CES
inject
rev
isFirst
setDuration
assertNot
##Hostname
parseDate
getCoordinate
Start
##Extend
##TreeBuilder
##Verbose
##CurrentPos
##Objs
leader
article
strict
##POINT
##Triangle
JCas
NSObject
Console
##aternion
Pan
##Have
ifNull
inline
setHeader
probe
addMessage
hasAttribute
maxLength
##Generated
produces
Compound
asc
##Parents
SEC
authorization
traceJNI
##Tracks
consistency
##SaveDataException
##Issue
CouldntSaveDataException
Mary
SPEC
Wildcard
iMax
layers
##Viol
##xies
##Car
##Bad
Keys
##UME
AnnotationMirror
invert
##versed
##Challenge
##InstanceId
LOW
##ancell
HttpEntity
##SessionAttribute
getRole
statusText
##ickness
##Workbench
channel1
linked
COMMENT
##Facing
##Installed
##Seqno
##Arrow
##Destroyed
##Turnout
DML
Trust
mE
mNext
rpc
way
##aver
##Av
##Img
##enal
##ubscri
##amole
##Experiment
##aps
##Insets
##Construct
ObjectFactory
##Setter
Experiment
fileType
##atory
##acamole
DEVICE
##ActionBar
zzCurrentPos
##Roots
Spring
Expand
getLocale
isSetHeader
RcsGenericException
Prefix
##Keeper
##ounted
##CRYPT
##rinsic
DM
Spec
mn
ranges
##sim
##Ns
##Itr
getFrom
getJava
newValues
isOn
##Conc
##vidence
##ResourceRep
##ResourceBundle
declaration
##lanation
projectName
Disp
ENGL
DIAMETER
##avorite
RPObject
AccessibilityNodeInfo
INode
MOST
Ret
##WARD
##hance
##mpli
isI
isData
isXML
##lies
fieldx
XMLString
tempFile
fullName
##Notifications
Serialization
isInitial
##nalytics
slash
issue
getPackageManager
BytesRef
JBB
OID
boost
kill
l1
meth
##ZIP
##Hot
##rall
instanti
isUser
##Continuous
##ruCache
##Resize
hasChanged
curve
nextLine
arg2
##NotFound
minX
##ProgressBar
##ErrorException
##AndRef
linear
doFinal
srcAndRef
trimTo
##IfAbsent
theCamera
GridCache
ConfigurationError
##ringClass
Animatable
GeneralSecurityException
detailMessage
Quaternion
ConcurrentHashMap
CATEGORY
JBBP
srcAndRefPositions
DP
NBTTagCompound
schemas
tid
##Managers
##Tru
intArray
isDigit
priv
setError
fileSize
paramString
##HostException
ByteOrder
HashEntry
tagId
##imiters
footer
FRAG
FRAME
probability
isApplicable
showMessageDialog
ReentrantLock
##Momentary
ENGLISH
AR
Am
CERT
CUR
DH
Hex
##MI
##TYPE
##ngular
getTotal
##sten
##ilt
integer
fileExt
contexts
sublen
##FieldValue
##General
##strain
prefixes
##Encrypted
Note
##Cls
AMConsole
SAMLUtils
nonce
##Busy
vendorCode
##ungsten
guess
VerifyAssertions
Analyzer
BR
GS
cid
frag
nv
rr
vc
##Lik
##Gateway
##agger
isActivated
##NameException
addContent
##ours
##gression
currentPosition
##CodeNode
##Expire
##ColumnName
##Locks
projectId
lease
getColumnCount
milliseconds
ZipEntry
library
##Journal
globals
##GROUND
AUD
Surface
gs
iae
##urator
##Naming
getTest
##loating
##Promise
##ToEnd
##Envelope
startServer
readLength
##crip
##Comparison
stateVector
##FromString
objectId
viewport
contentLength
intervals
getRandom
servers
MAXIMUM
zzAt
##IfN
notifyDataSetChanged
Scale
callingClass
Dependency
##Corr
##Playing
CHARS
mRotation
SUPPORTED
LAYOUT
AMConsoleException
History
Msg
SW
san
td
##lv
stamp
setIcon
##ToOne
##Streaming
keySpec
##ClassPath
##efaeh
elementType
prec
##CharacterIterator
highest
mCircle
txn
##Called
multiplier
ASN1Encodable
analyze
PUBLIC
AX
BIG
CUtility
Ge
Gson
Rpc
cle
muta
sld
tcp
##s2
##Snap
##CM
newType
setDescription
compose
maxHeight
##LEngine
##Shot
##Recogn
handleException
itf
ConfigException
qualifier
##CoreFormats
##rdung
Quad
previewFormat
##Variant
LocalizedCoreFormats
##iki
##Atomic
purge
NamingException
##efaehrdung
CUtilityFunctions
AF
CASE
Nexus
Url
bom
joint
##MAC
##Wizard
##Saved
##BC
##etrad
##esis
##sem
key1
enume
##OfWeek
##Translucent
##Disable
alt
uris
getNodes
rawName
##Embedded
Conversion
##ORITH
deployable
##OLDER
gravity
Manifest
authenticate
SCHEMA
VolleyLog
createTempFile
RT
RAND
hot
##sf
##Gesture
##Inset
##KeyEvent
getRight
handleButton
addressSpace
SEG
comma
##ExistsException
##Lease
numberOfVariables
terminal
XYSeries
primaryKey
getScroll
##Octet
##rClusterDefinition
accepts
OAuth2
lineEnding
##enalty
HEX
IProject
average
dh
dz
more
mAnimator
pipeline
##Stored
getUn
getExternal
##izing
doubleToLong
file2
messageType
##ClientBuilder
inputs
##OnExit
getLeft
timeSeries
propertySupport
##Dependent
##Advance
fully
TaskStage
##JsonObject
csv
Styled
##NetMessage
declaring
##PrimaryKey
##AuditEvent
Movie
dayOfMonth
##phabet
ALGORITH
propertySupportMap
Face
First
FUN
Magic
dv
dummy
kp
mTarget
mnemonic
rot
tt
##di
##rar
##ras
isLeft
##ircu
##uminance
chrono
##ograph
##StreamParser
createM
compiled
DEC
##ProviderException
propertyChange
##Characteristics
TRACE
ParamChecks
Unsigned
SocketException
isLetter
RegisterOperand
BEGIN
getDisplayName
##QueryResultList
vendorName
##Aggregation
##ORIZED
negate
ArithmeticException
CLEAR
VisitorException
doubleToLongBits
Catalog
ESC
bd
cat
l2
##tte
##ah
##du
##Bulk
readOnly
##CharAt
CollectionUtils
getReference
leave
##Profiles
PRIM
##About
##Exclusive
##Aggregator
aggregate
getDeclaredMethod
guard
MULTI
FRAGMENT
##tterance
each
v3
##Gradient
##dend
##urer
getKind
outOff
##aven
floatValue
testAddress
##areh
NodeType
oldChild
##ILITY
Distance
##olders
##Transactions
##AVE
##Else
AXIS
CMD
DNS
SORT
Sms
bp
##Pow
##sable
##item
##ven
##Pad
##ecraft
getThread
getBean
getOptions
voice
##edian
toast
createImage
readValue
##romos
unescape
##SharedPreferences
##ANG
flat
##ASL
##UTES
##ushback
##ymm
getRender
##Sequences
ASCII
ignoreCase
Train
BUND
getNextSibling
getDeclaringClass
unmodifiableList
InitializationException
svg
softTtl
Lexical
HLEFunction
FREE
iCnt
mT
mMin
pag
##ival
##Utf8
##ancy
##Const
prog
##lood
##ToDelete
createC
readLines
removeChild
##ViewHolder
positive
errorMsg
eventId
firstChild
##Styles
isSuccess
getPropertyName
##HttpResponse
##Instr
badRequests
DragSource
##IfNecessary
NexusStreamParser
CTag
h2
magnitude
##lab
##Sol
##Amt
##Queries
getExtension
getChronology
nullNotPermitted
createItem
##Counters
Problem
stringValue
groupBy
drawImage
headerName
JsonElement
dependencies
##Observers
PLAIN
deregister
Attributed
RenderingHints
TypedValue
##arehouse
dns
ei
wr
##sv
##sBy
##Stor
##Cut
##TS
##bits
##only
getQ
exif
##Fake
##ViewInfo
getSchema
requestId
synapse
receipt
##UTION
##URLs
describe
##ESTAMP
##SSO
##Least
getTimestamp
PdfDictionary
##Visitors
creation
##MXBean
DATAB
##EFINED
RefactoringStatus
DecimalFormat
datum
pObject
qs
sound
##Pk
##Plain
##bXml
##NEL
isTouchEvent
setAuto
##axon
##ElementType
##Demo
##ForType
##Expl
##Repe
getDialog
album
##config
ServiceUtils
propag
getMaximum
Attachment
SecretKeySpec
PKCS
insertion
X500Principal
MAGIC
XPATHErrorResources
##semble
Evalu
SING
cq
mRadius
v0
##names
##Silent
##DR
##Damage
##Billing
##witch
##OPE
##Geo
##onts
getUrl
getZone
##anism
##ittle
isUse
setRequest
##andbox
##ERENCE
startValue
listOf
idpp
checkIf
endOf
fieldValue
sparse
##ConnectionMemo
baseURI
##Verified
DOMAIN
TIMESTAMP
Direction
##CellRenderer
qualified
UIComponent
tenantId
seqno
Synchronized
DOWNLOAD
mTempRect
ASSERT
AnnotatedTypeMirror
Air
WbXml
effective
mName
ses
##Via
##Fix
##Tier
##NER
##fit
getAlgorithm
conv
##DataStream
##unct
##ElementName
##TextColor
subList
##Adder
##ModelException
enclosing
getCap
##SystemName
included
entityName
##Authn
zzLexical
JsonArray
SCREEN
comments
##StopFacility
exportMask
DatabaseCreator
genome
trxName
debugCodeCall
ConstPool
Evolution
##ircuit
BUNDLE
zzLexicalState
GregorianCalendar
JS
NODES
PG
Trie
csn
individual
mD
sf
##Press
##CName
##UV
##ulta
isO
setPreferredSize
classpath
sha
##Compact
onError
ArrayUtils
##GroupNode
##IgnoreReturnValue
passwordEditText
##oving
##HttpRequest
##BindingSet
csq
CanIgnoreReturnValue
configureZone
overScrollBy
##Sketch
getObjectInstance
##JSONArray
##Candidates
ChangeListener
UnknownHostException
DSSourceKind
##v4Address
GREATER
RADIUS
WW
##group
##alUnit
##Paused
##oloc
challenge
##Respon
##FileDescriptor
sizeOf
which
##Outside
demo
synchron
##Priced
##Enclosing
##Handles
LayoutInflater
##Selectable
##Deserializer
##ippet
ALGORITHM
DIST
JK
LAT
Put
QUE
Sage
TYP
Widget
cred
dd
##Waiting
##Crop
##dden
##Jmx
##Am
##ACTION
statistics
##opos
idp
nodeIndex
##itiate
getSecond
testCase
sourceFile
numValues
INVO
unp
##ConnectionException
queryName
getAD
##Controll
increase
fact
GridLayout
MINUTE
GenericEntity
entElement
menuItem
ClusterNode
##Slash
OrderBy
twopos
magic
##Pokemon
##auses
##PerspectiveModel
getLocalizedMessage
Hadoop
fDTD
tex
##gap
##rast
##adoc
##mpts
##aph
##InSeconds
predic
##ENAME
breaker
Compose
codewords
EXEC
##Searchable
visitEnd
threadId
EventType
defStyle
##ExecutorService
CommandLine
jmx
##Article
ACCOUNT
manifest
##UDE
##AllocationPolicy
DrawerBuilder
RANDOM
Any
CAM
WOR
##PK
##ices
##kkit
##Declared
getUri
addEntry
##Standalone
##ToDouble
##viation
classPath
scrap
sourceClass
##AsInt
##OTATION
quit
##Icons
##Proto
EventListener
##Animations
##Presenter
##PartitionValue
getOrg
editable
##Qualified
INDENT
executorService
Encoded
##Decoration
ORI
V1
mAccount
mTotal
nrows
rw
##PException
##bidden
isSub
respon
exponent
IOCase
##Configs
##akeLock
systemID
cleanUp
ensureOpen
clusterName
##ApplicationException
webXml
getItemCount
findByThriftIdOrThrow
##Black
##enchmark
##tiviti
Loco
Scheduled
JTextComponent
SINGLE
PT
front
py
tb
x0
##urity
##Meter
##Moves
##ToUse
ObjectStream
Typeface
startDocument
assertThat
##Compressed
currentChar
deactivate
##ClientException
##Transit
tokenId
srcFile
parameterName
componentName
##DNs
##TimeoutException
EventBean
sampleRate
##ynamics
ARGB
##VirtualPool
globe
##Bracket
sweepAngle
DATABASE
abstract
b4
mItem
##Pod
##uns
##band
##zer
##jb
getTree
addC
toAS
##Promo
createMessage
##Energy
associated
checked
##Charsets
serverContext
scaleFactor
##Upgrade
collapse
##Consist
statements
##Playback
installUI
inside
jmrix
deployer
mViewPager
facet
Topology
ActiveMQR
##Guard
journalWriter
OPERATION
Dictionary
Lifecycle
mutable
sage
##uring
##Wildcard
##mat
##Esc
##ULE
##Once
##astic
toDouble
appender
##ServiceException
##riggers
Bug
##ermediate
##rawl
##AndAdd
DataObject
expectedReturn
Acc
taskInfo
Shell
##Objectives
capture
##Quoted
providerClass
BitmapDrawable
DbConnection
incrementAndGet
Decode
caret
##ubscribe
Krb
MR
RC
lru
mCache
tn
##Palette
##LruCache
##ffinity
##Und
##Btn
##22
getEditor
getDatabase
##edger
setStyle
startPos
readResolve
##Country
##IDD
dev
testConstructor
##LError
##Recycler
##ararg
##EndOf
getLevel
drawString
openStream
insertBefore
getPlayer
ofs
theElements
Scenario
concurrency
COMPONENT
GeneralName
binaryData
##Ticks
Handle
TRANSF
ExampleSet
##4JS
##Inserted
GemFire
Jav
Misc
bf
damage
fw
slo
using
getExpression
isLast
addRow
##andatory
##inter
##INIT
requestFocus
##ForResult
spi
##olicies
fault
projects
##FILE
##Downloader
GL2
##Partitions
STATIC
##ccup
getContentType
interpolate
Guacamole
UNDEFINED
##Directories
##Concurrency
CAction
FB
Patch
false
lista
mEntries
observable
via
x509
##obj
##MR
##Land
##fp
##HS
##X509
getI
getProvider
##array
##NotEmpty
##AndValues
##StatusBar
##Urls
##Matched
##sci
errMsg
Regex
##Stopped
##Unsupported
Transactional
getUserId
innerState
##NativeGuid
moved
LESS
Lua
da
mIn
mWidth
q2
upd
##oap
##Amp
##Reser
##Attempt
##lices
counters
paramTypes
errorHandler
childIndex
closeable
explicit
serverDate
SECTION
UNC
BlockSnapshot
volumes
httpRequest
getContentPane
backgroundColor
getSubject
##imedOut
Connector
createXPATH
##Criterion
copied
EvolutionState
bdr
dash
ta
##Rename
##Slots
##Jvm
##DU
##Arm
##UAL
##USE
##iss
##ubble
getBy
STY
##chieve
AnnotationVisitor
TypeMismatch
##Accep
SystemClock
Bundler
len2
Resolve
##StatusCode
defaults
Statistics
tracer
##pto
##ucene
drawing
containerId
##ensitive
leading
bitLength
##Related
prediction
independenceTest
ELEM
PKIX
Gravity
##Grantor
##atisfied
Focus
Red
RGB
hm
known
mMedia
##Voice
##Vdc
##Cam
##Answer
KeyStroke
getReal
##olate
setF
setTo
setStart
##andra
superclass
##usted
putBoolean
compression
##Logical
##Receipt
sendPacket
getFunction
URLEncoder
EXIST
getPublic
##Diagnostic
phi
lead
cleaner
WindowNo
##WebSafe
getNamespaceContext
##Playlist
legend
SipProvider
RepositoryException
##Small
GZIP
NC
boot
fb
##arat
##Pipe
##Mon
##Less
##OVER
##edObject
setHandler
##StateChanged
IOFileFilter
currency
##ClassType
startNode
nextIndex
getScheme
childData
inputOffset
spans
spinner
team
baseName
Accessible
DrawContext
CertificateFactory
##Trip
getStatusCode
##IZATION
catalogName
elapsedTime
getSignature
SETTINGS
OData
Sound
klass
ul
xid
##v6
review
writeValue
writeLines
putShort
FileDescriptor
compressed
##outh
##Through
Bucket
##ardware
unbind
##LogFile
itemName
stateCount
##Unicode
##UserName
URIQueryResultList
Parsed
totalRead
seen
Alignment
THAN
##allery
carry
##Breakpoint
PlaPointFloat
##argest
JOIN
getListenerList
Tw
Utilities
Wrap
##case
##Norm
##tached
##ised
getTo
reject
setNode
addFlags
dataModel
maxIndex
##Deep
LogMarker
findFirst
##OME
expectedResult
##Team
cacheName
EXCL
isCancel
##Calls
MediaFormat
POSITION
RectangleEdge
small
SCOPE
##Descend
##Correct
CHARSET
##Combin
fixup
##echnicalService
SyntaxTreeBuilder
nearest
Bag
Glow
Knowledge
ans
atan
##Pub
##Mil
##MimeType
##2m
##03
##pell
isCurrent
const
setVersion
indexN1
enumeration
##Configured
obj1
##OnWrite
objectClass
getLatitude
##Visited
baseType
cacheKey
canBe
dateString
##CEPT
InvalidKeySpec
##Scrolling
fireTable
SHA
durationMillis
functionName
commentId
##PartitionValues
Generator
##Unsafe
ImmutableSet
PRIORITY
indicator
##Membership
SIPHeader
TransformerFactory
PEEK
mVideoEditor
##uminanceSource
indexN100
InvalidKeySpecException
Keep
Runn
frames
mutation
nn
sdf
vdc
##SVG
##dentation
setTag
##assandra
maxNum
##ronym
discovery
replica
tables
REAL
LinkProperties
##Ordering
JsonToken
caption
warnings
##Styled
##Comma
##MultiPoint
callbacks
DISABLED
BeanUtil
SUBDIR
##ehavi
trip
rbName
getDrawable
getUniquePrefix
getReturnType
enumerate
##romosome
AirMap
Cancel
DR
TObject
iw
mBuffers
##iring
##Taken
##ListItem
createResponse
outFile
writeFile
paragraph
##Compress
unc
##StatusException
##Aligned
##Prefixes
##Packages
serverName
marked
ServerSocket
InputNode
modification
ImmutableMap
getResourceLocator
Registry
overlay
##ExecutionException
webView
dropTable
WHITE
ALLOWED
##ungstenProperties
zzAtEOF
Det
age
bOut
mX
pull
##db
##ji
##tist
getVariable
newAttr
Annotations
toURI
##FileWriter
##Mapped
readLock
##Activation
numClasses
CompilationUnit
##FilterFactory
deleteIfExists
incInt
##LinkId
Paths
Deleg
resolution
factoryId
##ReturnType
getTaint
##Similarity
TargetApi
GRAN
requires
##Piece
writeQNameAttribute
optimize
MOVE
##oupling
Automaton
Last
NOR
PUSH
RAT
Sum
Safe
jump
mY
ne
vpool
##Adap
##Nested
##21
##work
##ethrow
##reed
##rowse
BORDER
isRe
isLoaded
Consumes
##uman
logDebug
##ocalized
##EntryDN
initialValue
##Configurations
##Longs
##RootPane
##Namespaces
ALP
RESOL
isAlive
getContextClassLoader
Drawing
slider
mediaVideoItem
##cheduling
##Sensitive
redundant
servletContext
PEEKED
IVariable
ML
Population
datastore
mu
router
tint
##P2
##part
##Wallet
##NBT
##etadata
##asy
getRequired
##edValues
setContext
setLabel
setUp
##NodeIndex
protection
general
##ServiceImpl
getSequence
##values
##Party
##Parsing
##OnScreen
initialise
traverse
columnCount
reflect
sortOrder
PROG
NoSuchProviderException
sugg
Encryption
PageException
BitMatrix
candidates
previewCallback
Symbols
CREATED
##ettyPrint
ExecutorService
##ecessor
Flux
##RAW
##oreignKey
Objective
Bayes
Pi
Qual
V2
nat
##Seg
##Try
##Dict
##watch
isValue
prompt
hasValue
resultHandler
##usion
logFile
##abul
startService
##Dirs
encryption
##Recovery
getCluster
showDialog
DocumentEvent
desktop
sessionID
topLeft
Asset
UnManaged
quot
##Passed
SerialMessage
##Rights
EntityPlayer
##UpperBound
dims
QUOTE
bais
##Suites
AsyncResult
DELIMIT
StandardCharsets
##Shards
##echnicalProduct
##Quotes
XmlPullParserException
JDialog
JTextField
Messaging
Pseudo
XS
er
##auth
##ahead
##lines
##uation
##VERS
##Zeros
##ueues
##edValue
isJava
addComponent
##uner
##aches
##rome
onStart
onPause
subStage
numElements
##Filtered
handshake
XML11
reflection
##LOB
JsonParser
##Marketplace
##PLIER
##DisplayName
SAXParser
##MemoryCache
needTo
avg
MySQL
simulate
getComponentType
RcsService
integ
readUnsignedShort
##Likelihood
mCirclePaint
createXPATHMessage
SyntaxTreeBuilderVisitor
Drop
GC
Nbt
Tx
aa
ddl
fence
mPool
zynamics
##atives
##Pid
##lue
##Micros
##Zones
##ableAdapterFactory
##addr
isInterface
ObjectUtilities
createBitmap
shop
##readsheet
endDocument
##NotAvailable
itemPropertyDescriptor
##LineString
translucent
getMeasured
getRed
Shared
##Devices
Alpha
encodedKey
##ncipals
pieces
getRootAdapterFactory
BeanContext
getMinimum
Insn
INSENSITIVE
Deployable
mRootDirectory
createItemPropertyDescriptor
ASSERTION
ComposeableAdapterFactory
itemPropertyDescriptors
Find
IDebugger
MD
PAD
ROW
TungstenProperties
nt
##Pts
##Sn
##ds
##Below
##erri
##ons
KeyFactory
##info
##Consumed
setX
chr
##ectedEdge
##KeyListener
##KeyStore
composite
companyId
##Acceptor
##Outgoing
##STRING
MathContext
versions
targetClass
expiration
deleteFile
Show
GraphNode
beginTransaction
entropy
ActivityManager
##DBIDs
Signer
AUTO
jarFile
##Entropy
ldif
addTaint
prune
Car
WORD
ee
lazy
mBuffer
pseudo
walk
wallet
##Walk
##dt
##Broker
getConstructor
STORE
##imize
##omplete
currentUser
onResume
itemStack
##ServerException
##ICY
##BoundingBox
##ValidationException
clientHandle
drawCircle
Unicode
getAttributeType
buttons
REGION
##255
UTF8
ExecutionException
Descriptor
##Behaviour
IDENTIFIER
AdapterFactory
REMOVED
PriorityQueue
clearance
Case
DIAL
Live
Large
gui
ste
##Persist
##Lite
##Emo
##Grow
##orHT
getPrevious
newcount
##ilar
setNext
setAlpha
##int8
##FileReader
##Enume
dataSize
DSA
requests
numObjs
itemType
##Specifier
##CacheObject
getMain
JSONTokener
##Visit
handleError
##Signific
COND
Charsets
##bserve
storeName
##Regions
ProcessInfo
Registration
SPorHT
escaped
concaten
##visible
rewrite
MARKER
liferay
MISSING
##etoableChangeListener
w3c
mBuffersBy
NORTH
ANT
BIN
HOME
License
NAN
Rap
Section
mLayout
slots
##lash
##Rpc
##FACE
##Major
##dn
##Dat
##Overri
##estic
getFactory
getHttp
newPath
newline
Contain
##ValueTo
setIn
##DataStore
key3
##ATAL
##RIES
##ENC
requestContext
##ModelListener
contentPane
##SessionId
##Difference
pageSize
prepared
references
ipAddress
mCursor
diffs
AMException
creature
##ManagedObject
##Canonical
##BigDecimal
EDGE
getCanonicalName
ACCEPT
ROLE
ELEMNAME
Archive
JAV
Ln
T4
TDouble
mHas
pol
smp
##Fich
##Medi
##Maker
##Joint
##Ob
##rating
##istor
getAccount
##reat
setForeground
messageID
fieldConfig
entryName
DataProvider
Envelope
##PrefixMapping
imageName
sessions
##ParamsDto
Transient
##ositories
##Expressions
capabilities
PROXY
Regular
Scroll
Screen
scrollTo
IMF
corners
overlap
##rypter
##Skill
delayMillis
##Combo
INaviModule
FINISH
##Above
ECField
##Multipart
RUNN
BeforeClass
##sembler
##aims
VNXe
BIND
Ion
fname
fade
gamma
mAnimation
mui
north
sampler
xor
##rep
##etic
##Fn
##nate
##Later
##Coder
getByte
isR
isset
valueTo
##bernate
##OfYear
endOffset
parentComponent
LogMessage
lastChar
getCategory
##ternative
matchIgnoreCase
##Checkpoint
##Backoff
##Associated
##IGH
ResponseHandler
serialized
Authn
ContactId
##FooterView
RestWrapper
caseSensitive
dlg
ParameterizedType
TimeoutException
##ruptible
STYLE
##abulary
SPL
TLong
VAR
crypto
dg
g1
mP
mLock
mActive
tgt
va
v4
##FLOW
##Most
##Limits
##LuminanceSource
##SAX
##Axes
##Hyper
##ILE
##allo
##estions
##root
getInteger
getRecord
throwException
##Inverse
confi
setObject
addEdge
##ListModel
##unication
val1
testClass
numbers
##ClientId
len1
##Particle
expires
copyFrom
visual
getRelation
hosts
statusLine
handles
RequestHandle
##SelectionModel
EXIT
ResourceException
##TabbedPane
##WriteLock
##While
flushBuffer
specification
SAXParseException
StoragePool
subscriber
##Writing
DELETED
##Customer
LINEAR
##Assignments
Modification
##ATEGORIZED
DistributedLog
VolleyError
##MotionListener
TWO
##ymmetric
UNCATEGORIZED
Coder
Eval
TER
pq
##DTM
##err
setDate
written
##Colour
paramName
##ResultException
numRead
numColumns
javaProject
##Produ
tokenize
queryBy
getMedia
orgName
splitPane
FIX
##Identifiers
Scene
##SerialNumber
##FullCopy
redo
Authentic
##Imports
zipFile
MenuItem
launcher
##SACTION
##Coefficient
OPERATOR
isInitialized
Emo
GLOB
IFile
Para
Tr
ang
mAudio
ry
stem
##tas
##Material
##LT
##man
##Tbl
##Dash
##zim
##But
##Immediate
##ores
KeyParameter
##icro
##tribs
##thers
isProcessing
##ToRight
##Reached
createXML
##KeyGroup
##Serie
stm
nextBytes
##RequestContext
##lug
##Translator
##ownloader
getCustom
localAddress
##ServerSocket
roots
DateUtils
locked
##OUS
getPh
InvalidValue
getParentNode
##Monitoring
controls
##EncodedKeySpec
CipherParameters
AudioManager
ZipFile
Locator
ifdId
ThreadLocalRandom
globalsSize
##zimuth
DIM
Flex
Figure
SIM
npt
qty
sizes
suspend
##UB
##Parallel
getDevice
getRegion
getProduct
newElements
setModel
addObject
##ToByteArray
##rayal
createString
##ynchron
energy
##FactoryImpl
defaultCharset
getDuration
deleteDirectory
##ICATE
getMark
##Submit
##obot
##uditor
getFl
##atibility
##Quick
BaseType
SSLEngine
getAttributeValue
centerX
isMutable
cells
STARTED
ARGS
deployment
##Placement
TRANSACTION
Reflection
getLongitude
validators
igfsSecondary
##Escaped
SnmpStatusException
Topic
RETURN
SCHEME
MANAG
daoSession
getDoctype
##Accum
##Lifetime
trimToSize
ObjectiveCName
ACL
Dfp
Full
Rational
Tetrad
fr
##Tex
##Anonymous
##zier
##Iv
##onal
setPosition
setScale
toRadians
##verall
name2
##rtwork
writeEnd
enl
readBuffer
##FieldException
minLength
clamp
##Traversal
Entitlement
initializer
getMillis
Https
getRule
SQLState
encodeBase64
Discovery
quanti
markSupported
##Div
NetworkInfo
##Initialization
##title
getParameterTypes
months
FORWARD
virtualArray
octet
SELECTION
Modbus
underlying
streetAttr
##Prepare
Branch
Day
EP
Lookup
sch
svc
##Ssl
newFile
foreground
association
writeStart
testBug
##ByUuid
msgId
opacity
debugging
lineSeparator
DataBuffer
deleteAll
sendTo
mainLock
Interpreter
##DialogFragment
URLConnection
actualReturn
ComponentName
##Characteristic
##ToolTipText
certAlias
WebSocket
##Formula
Authorization
##DBMS
like
optString
seedBuffer
mSm
##Plane
applicationName
getElementsByTagNameNS
##heap
##Normalized
DisplayMetrics
##Moment
CHANNEL
##parent
Artifact
reserv
CopyOnWrite
SLOT
PcRunner
PROGRESS
enlarge
Book
JFileChooser
ff
ly
ni
npoints
nkeys
psi
##Jav
##wise
##OSE
getFields
STACK
newbuf
##elog
##Execu
toBytes
apps
##ATUR
removeCallbacks
##Nullable
INST
targetType
DoubleVector
##Minor
fillRect
##ControlException
##Protected
ofFloat
ServerException
Groups
##Volatile
replyTo
setLayoutData
bias
noteId
##alityType
BACKGROUND
ClosureParams
XSLTErrorResources
PROVIDER
Clip
Currency
Cordova
Jo
PAN
ax
cookies
lb
mHeight
mPending
p3
solve
vf
##gen
##lon
##pus
##FC
##icres
newBuffer
##OLL
isWindows
readU
##ErrorCode
##NumberArgs
##AndWait
##EntityDecl
does
Aci
Transition
Actions
GraphicsNode
callId
fullPath
NEED
apk
mCamera
StreamResult
dimen
getColumnIndex
partitions
convertToApi
##Successful
SSLContext
Market
getScale
##Excluded
Customer
Conditional
##Aggregate
lookahead
##Wrapped
singletonList
getLayoutParams
PlaPointInt
Sendable
Cached
RANGE
SVN
cname
qos
rdf
##Framework
##Lifecycle
##Closure
##Clusters
##BR
getAnd
getWorld
newEntry
inetAddress
restriction
##ToShow
dataTo
startDate
##riterium
updateUI
myArrayList
##ResourceException
LogWriter
##Interpreter
showError
copyFile
REQUI
##DocumentBuilderFactory
sqlType
##BoxModel
species
fireEvent
Debugger
##yclic
X509CRL
registration
mediaType
credential
binValue
Perl
barcode
startActivityForResult
aggregator
GF2n
##ipple
##ittleEndian
fixupVariables
DURATION
Kernel
clusters
e3
fixture
hidden
mOn
mSelected
queries
rethrow
vv
viol
##Bayes
##odepoint
getOption
newDoc
initiate
rehash
setInterpolator
bug
createLive
Invo
typed
putByte
##EventHandler
##AGES
text1
DataInput
rootDirectory
uriBuilder
mainPanel
visitMethod
rsp
##Termination
isAvailable
domestic
unsubscribe
piece
##RAPH
trusted
##Substitution
##Estimator
Conflict
##chievement
isCancelled
Board
IProgressMonitor
JTree
Pooled
Sys
Super
cand
drive
ga
mNum
mPtr
pf
##pable
##Sym
##Cover
##Tap
##XPath
##elect
isSystem
isPublic
##usti
classType
writeBuffer
charIndex
onStop
DSVerified
##acer
##HostName
op2
finder
findMethod
recomp
##TestSolution
##GraphNode
SYN
AbstractMR
TestUtils
##Registers
##Desktop
waitStatus
ServerTransaction
##eeper
smooth
expressions
getGame
getSystemConnectionMemo
DecoderException
RegisterSpec
Protection
OPTIONS
##ferable
rewind
TransportAddress
truncate
ReplDBMS
MessagingException
Fetch
LS
MIME
Wall
aNode
bag
fq
nfe
sa
##CDATA
##YUV
##ultic
getVariables
##reti
##Invite
setFile
setEntity
##ende
particle
startPosition
putIfAbsent
shrink
checkType
sourceNode
xmlString
##AML
Program
op1
docs
##Precision
##ImageView
##Descriptions
modelPackage
verifier
totalBytes
Append
NameValuePair
errorMessageTemplate
errorMessageArgs
##Needs
fooId
##RESSION
setContentView
##Cleanup
BluetoothDevice
##Hours
##Timing
Relative
genderList
serverTransactionId
plugg
CURSOR
##ivalent
##loodlight
Dig
Easy
IG
b0
hole
mAlpha
machine
pv
xx
##lits
##Datastore
##Actual
##ases
##ins
isZero
isExternal
##phone
compound
getSearch
##Field2
##ErrorResponse
##Entrypoints
recover
explanation
getCre
decomp
##TestSuite
rootElement
LongAdder
hostId
LocalDateTime
signing
parameterList
advice
tabbedPane
Replace
distanceTo
relay
dsl
Worker
toCharset
derive
setLayoutParams
corePoolSize
initiators
tweet
##Deployable
##TERNAL
getPaddingTop
IJavaProject
setLocationRelativeTo
##Bins
##QueryWithExtended
NaviNode
##ollover
##25519
createLiveAnimated
Modifiable
Retry
friend
sav
##num
##dData
##Zk
##DE
newC
##outine
##ocial
isLe
##NamePair
fore
forEncryption
##ToRequest
appName
##ocks
createVertex
val2
##Delegator
##Formatted
findOrCreate
rectangle
getDel
##Specified
IDLE
substit
##uclid
visitInsn
initializeLiveAttributes
##utoff
stylesheet
##Divide
dsde
##Spans
##Aliases
##AILABLE
createElementNS
taxon
CIMObjectPath
notifier
CALLBACK
createCriteriaInternal
lruEntries
##INITIAL
ResponseHandlerInterface
Area
From
Friend
FOLDER
Histogram
IMultiPoint
la
lifecycle
mH
soot
utf8
##V2
##FORM
##Schemas
##block
newVal
##ters
setPaint
##ompatible
keyPair
##abe
stub
##avail
sourceMethod
debugPrint
HttpMethod
offscreen
isSecure
getBottom
##Factories
SHAR
##Credential
multiple
##Initialize
sequenceNumber
##QualifiedName
##BusinessObjectDefinition
accu
keepAlive
EVENTS
setSelectedIndex
##marshal
Creature
getSupport
CONDITION
GLOBAL
Ec
SOUT
ib
kv
nI
##Secure
##Singleton
##AK
##oning
##Past
MethodType
getIdentifier
third
Instr
typeStr
currentValue
getSecurity
maps
##QueryParams
##Expires
namespaces
BooleanQuery
HttpSession
sketch
attrList
XMLConstants
##Inputs
serverSocket
errno
decodeWebSafe
QueryParam
noOf
regionName
ConnectionConfig
##ovariance
##Overlap
upgrade
NotificationManager
getMethodName
feeder
presentation
TRANS
CSN
##Strict
Toolkit
REFERENCE
FAILURE
InputMethodManager
ascending
AFTER
DELIMITER
##ENCY
##uclidean
SOUTH
FONT
LT
Osm
Pres
Plain
Run
Zk
behavi
cdata
dag
facesContext
ignor
##aa
##Sorter
##Canceled
##encer
##ableView
getWriter
getEntries
##Inher
setFocus
addLast
##Proximity
##Activities
parentPath
containsAll
##Prod
##Prepared
##Alternate
destin
##Apply
entityManager
##ChangedEvent
getKeyStroke
marketplace
attrib
jobId
allocated
MODULE
##MgrId
##PixelSize
isLogging
permutation
FORCE
##Breaker
getPaddingLeft
OMGraphicList
##arargs
BUI
Su
Save
Title
Taxon
UID
WB
cScale
gf
href
mApp
motion
will
weak
##match
##bytes
##fa
##Nano
##licts
getSettings
##arch
##izers
setStroke
addData
addChangeListener
valuePoints
##alloc
aci
##Logout
itemId
##Explicit
strb
getComm
rowKey
asString
##Maximum
EXTERNAL
visitType
noa
extractor
TimeSeries
varray
Values
SVGConstants
DateTimeFormatter
PROD
DISC
goTo
##INDEX
##18N
Facet
getRepositoryLocation
exifOut
getOrganization
accuracy
DD
Fake
IMethod
IXML
Ping
Turn
TEN
Vm
ide
median
rtn
##string
##BS
##till
##pearance
getServlet
getChars
##ooKeeper
instrument
isModified
##ValueList
##vitation
##Restart
numEntries
##TableIdentifier
lineNr
DoubleMatrix2D
interpreter
##HashingStrategy
##ISION
##SelectionPolicy
itemsLayout
##Shortcut
modal
##Correlation
##Evaluate
copyOfRange
SymbolTable
moveToNext
##Secs
isNotBlank
CONNECTED
Email
notations
##Synchronizer
CGPoint
RUNNING
##abeled
##available
IBlock
Loader
Side
Wizard
fab
mBackground
y0
##Vital
##navi
##Mobile
##DAT
##IFF
##Gram
##Gaussian
##filer
##allow
getPreferredSize
throttle
isError
isNumeric
setBody
proxies
addRule
fileTo
readHeader
nodeList
##AttributeType
##ForNull
unlink
parseBoolean
##Expiry
production
##ActionListener
outputFolder
##Opcode
resourceType
HttpRequest
##PortTuple
##overable
orElse
##Queued
KEYS
trimmed
traceException
##sToAdd
templates
physical
BlockPos
##Protocols
GenericObject
Direct
AttrContext
mouseClicked
Signal
getSelectedIndex
binnavi
##NamedItem
##ounting
Management
obtainMessage
dynamicQuery
##Derived
Helper
structure
##IGNED
Pull
PBE
SRC
fitness
meter
none
##tra
##ele
##pass
##MT
getInternal
##rem
iso
isPrivate
consumed
addExtension
##enger
toMap
outfile
##opup
associ
##ATree
##Contexts
##INTER
##MethodType
##vely
##Unlock
parseString
spacing
resourceBundle
componentType
##MsgException
percentage
ParametersWith
bitfield
##ECTED
##CONN
mods
Phase
buckets
##PreviewCallback
FSMsgException
Capture
AuthenticationException
m31
isXML11
##Accepted
DIALOG
JRootPane
MG
SN
Ssl
WIFI
autom
dctx
hierarchy
mScroll
nick
oout
walker
xPos
##vable
##DING
##Nick
##erc
##rill
getVal
NUMER
isJ
isNo
isChecked
isLocked
##Inv
setClass
setDaemon
##buff
##FileObject
##ERED
appended
##CountDown
contextNode
subnet
endPos
bufferLength
##Dismiss
DECL
getMem
##Packed
XMLUtils
##UpdateRequest
##Flash
##Doubles
keystore
tabs
animated
##InternalFrame
eviction
TableColumn
##iving
##Been
uses
Multiple
findByUuid
PROPERTIES
##Imported
ServletContext
poi
##RetryCount
getLineNumber
referral
finest
Structured
##Estimate
POLICY
VPlexApi
jmsEx
mFirstPosition
getAdmin
Dispatch
domesticAttr
Cn
ICal
IGame
Tenant
XA
ri
vcenter
##rete
##aught
##Ray
##Ep
##Identi
##3v2
##erical
##inux
##ager
##ocabulary
inString
isAfter
isComplete
##ingType
##builder
##vidend
createQuery
keyMap
par3
parcel
logical
index1
indexed
##TokenException
msgs
DEPT
defaultProvider
LocalTime
##LocalConfiguration
PointF
InvalidAlgorithm
##Incoming
ssa
MatrixBlock
##echar
Blocking
BlockConsistencyGroup
beginIndex
##Temporary
INTENT
menuBar
correlation
getUsername
concrete
##iversal
ECPoint
inflater
##Authenticated
##CapabilityFactory
##aretPosition
ModalityType
##Requirements
Highlight
lstn
##Armor
##ATreeElement
InvalidAlgorithmParameterException
BUS
Dom
DEST
Jvm
JCheckBox
Raster
SEND
alive
browser
egl
fake
jvm
mech
road
spe
##oices
##sers
##Fld
##Mat
##Lun
##hand
##Tint
##IAN
newText
prior
toBe
##IdTo
##KeyValue
ClassFile
until
debugPerspectiveModel
##ookeeper
##Endpoints
trailing
director
##resolved
getRel
##Backward
##SequenceNumber
ToStringBuilder
Sprite
styles
##FocusListener
encodedImage
charsetName
years
LDIF
triple
EXPIR
RuntimeEntrypoints
relativePath
TriggerProcess
WEEK
nanosTimeout
ExportGroup
popupMenu
##Purchase
JNIEnvironment
Publisher
FUNCTION
ESCAPE
redundantOp
quotechar
pluggy
CR
N4
got
lh
lear
letter
mConnection
ndx
w2
ze
##Pol
##War
##WWN
##Cube
##IENT
##racle
##ane
##Injector
createEmpty
##StateMachine
##SizeException
subSignature
##PropertyName
##AndSwap
Sets
flavor
DocumentBuilder
incr
canRead
##IMAL
##SpacePredicate
Defin
##FragmentManager
##Lenient
ResponseBody
SHAPE
scrollRange
##Severity
STATEMENT
ModelControlException
exitCode
SolrQuery
debuggerProvider
completeEdit
BEAN
##Exclude
Vector2f
basicSetup
Capability
Payload
Editable
RULE
##Neurons
StylesheetHandler
setOpaque
fCurrentEntity
RENDER
AWTEvent
QUEUE
GenericEntityException
Be
Faces
H2
IBindingSet
Measure
cover
deferred
mMap
mIcon
##offset
##DY
##67
getPoint
getVisibility
##ada
revalidate
setA
toInputStream
##ersisted
indexName
startup
classification
fileSystem
assertException
##ItemPosition
scene
oldState
lineSep
##OrNull
stringFor
viewGroup
DataFlavor
queryBuilder
##equencer
srcDir
##Matrix3D
addressList
##HelperText
Unique
Price
##USIVE
##Serialize
functions
##Symbolizer
exclusion
##covered
##ProcessingException
EncoderException
boxes
businessObjectDataKey
ConstraintWidget
Plane
##IpAddress
msb
##ConfirmDialog
chatId
Aggregate
succ
aspectRatio
instantiate
Downloader
LIT
bt
bootstrap
did
hdr
xform
##Pc
##ipping
##Wire
##Sys
##Currency
##vShow
##04
##utual
##irection
setFilter
##Tolerance
createRequest
keyFactory
##lips
readRaw
##Discrete
Compare
streams
##CacheEntry
##BlockCipher
filterHelper
LOGIN
##Delim
CONS
verb
##Verification
##SEngine
visitAnnotation
rsrc
##NetworkInfo
centerY
##Caller
getIntrinsic
removeAllElements
##Detection
##Throws
##Abort
JCExpression
TypedArray
CloseableReference
Upload
REMOVE
vertx
Wrapped
KeeperException
foreign
CGraph
JPEG
TT
large
mRetain
##gDemand
##Rad
##RDN
##uario
##LER
##Wifi
##Ct
##Trees
##vl
##Hits
##odo
##tam
injector
rebuild
isExpanded
##ToView
createE
logEvent
##ctet
writeRaw
##ConfigFile
##Bytecode
DET
recent
getCertificate
##TestDocumentBuilderFactory
Part
Texture
##Iso
authn
ActionMapping
##StorageSystem
##CommentQuery
OpMap
##Dragged
symbolTable
##Evict
WHIT
Contacts
##process
##ClasspathEntry
recipients
accumulator
requestor
##Deadband
Users
mHeaderView
statusText1
##NotAvailableException
AWS
CB
Speech
codes
grp
iterate
ldr
mStack
m32
mDrawer
obs
tan
##Peek
##Pivot
##WAY
##Annotated
##ICT
##Decomp
newString
rele
addOption
##Datagram
createAnd
##NodeNS
##most
log2
##TextElement
##Acl
checker
##STOM
numB
##ErrorLogger
##LineNumber
getLower
XMLException
Translation
##Performance
getFeature
ThreadPool
transformed
ImageIO
##ByteArrayOutputStream
POOL
emptySet
modulus
getUserObject
Vec2
declared
pcl
contacts
sipResponse
images
CUSTOM
BluetoothAdapter
publisher
Permissions
Coords
decorator
mailbox
getNewValue
PREFER
RECORD
PARTITION
##reaterThan
EGL14
getMetaData
Evaluation
LargeTest
##alloon
ITER
WIL
et
having
imm
land
mMatrix
mDuration
potential
weighted
##sOf
##Vpool
##Follow
##BIG
##Balance
##Os
##tric
getBackground
three
##olation
isAllowed
setNamespace
setCursor
protein
##igrate
valueCount
##andon
writeHeader
removeEntry
completer
subset
unread
unicode
Review
##EntityID
##Portrayal
attrType
##udi
conversion
getRange
##Signing
temporary
dividend
packets
##BindRequest
Spliterator
tabPane
Matrix3
TokenStream
scrollPane
##Conditional
##ORMATION
SCORE
##arbage
MODIFIED
UPLOAD
##Corners
isMissing
SKIP
Synchron
symbols
ECKey
Snackbar
##Eviction
XMPPException
disco
VOLUME
TRIG
marshal
toASN1
RATIO
ART
Coded
COP
Dummy
EPS
LANG
Pie
Use
Zoom
demand
mTestUtils
pString
tier
##oken
##gui
##def
##Navig
##24
##Observable
##ulian
##inted
getURL
getJob
##ama
##thing
revert
isE
isBefore
toPath
##Probe
##Stale
##ersection
hasPermission
createConnection
park
sourceArray
##Trail
oldEx
urlString
alphabet
streamId
Setup
DataUtils
deleteOnExit
clientgui
replaceFirst
Stmt
##voked
memPtr
NoSuchFieldException
beans
##Subscriptions
screenDensity
scheduled
##rypting
programHandle
##uspended
m30
estimated
##entinel
StopRequest
BrdItem
##Mechanism
DMLRuntimeException
TYPES
Appendable
Bin
GEP
Ignore
Offer
WEST
latch
mExtras
tunnel
vn
##Pdf
##Psi
##sAnd
##Fin
##Lml
##begin
##Ba
##Glass
##ubic
getPre
isAll
toAdd
##DataMap
superClass
##phi
nexts
listen
readBoolean
colour
##AddListener
param1
childElement
##Logs
configName
oldTable
firstValue
##ICS
##Opacity
##Panels
replaced
CONC
propertyValue
##Assist
encodeBytes
##Newline
glVertex
recordException
threadPool
regions
##arture
##pcion
WebElement
Printer
JavaModelException
isAbsolute
##Collapsed
NamedList
packetId
coeff
Subscriber
people
Force
ZoneOffset
unManagedVolume
##Scaling
##Rollback
fatalError
adapt
RpcException
##Instrumentation
GRANTED
FINISHED
Circle
HDS
IGN
PERS
Roster
fg
gray
lag
mDevice
mNotification
mStroke
nBytes
ve
##sub
##cf
##Mb
##Ste
##Sampler
##Drive
##zone
##tab
getOperation
setMinimum
##ingFunction
##defined
createTest
logDir
readOffset
##Comparable
onChanged
checkNot
checkAnd
subEquipment
##luid
##luding
fieldxy
numNodes
userService
always
firstLine
##Bounded
tableId
interp
Interpolator
##azon
cacheDir
##MenuBar
##Projects
##Quit
##dfs
serialNumber
Reply
prepend
GridClient
WebView
characteristics
StyleConstants
##Implement
imag
Commit
MqttService
SortedMap
referent
rdn
isDistinct
createNewFile
UNSAFE
MEMORY
neighbor
retainAll
createAttributeNS
StrBuilder
Issue
##Explorer
##erritory
JAVA
BAR
HIGH
Marsh
Opt
ORG
Sandbox
TFloat
Wire
Wrong
closest
yPos
##Rotate
##FX
##Dense
##Google
getK
getEdge
inSampleSize
##DataService
createNode
TypeElement
##ObjectName
dataStream
fileHandler
removeNode
removeFirst
complex
compatible
testAdd
tooltip
textSize
##vided
##ErrorHandler
##Directive
parseFloat
userData
lineLength
viewId
DataOutput
##UpdateListener
Interface
CharBuffer
##Assigned
Uniform
titleAttr
##overPoint
jsonRequest
levels
getNodeId
DateTimeZone
ShapeTile
##Widgets
playlist
##CSN
SignatureException
##attle
batchSize
KeyStoreException
##Legend
safeSubtree
##ognito
AlertDialog
Splittable
invoice
emote
renew
##Correction
OrderByComparator
CnATreeElement
DEPTH
Gas
MAIN
Pick
TCP
XBL
est
ident
##Policies
##Meas
##Ec
##vy
isText
##Inet
promo
##ruid
toDelete
##Remark
##ObjectType
dataFile
classMethod
comparison
onActivity
endValue
##Scrap
textView
##TokenField
##tivator
attributeSet
##Production
Compress
clearCache
##Species
##Readable
##Reading
expectedSize
dbName
models
Unmodifiable
##Design
m13
BlockObject
getDataLength
committed
##Certs
evaluator
FLAGS
##Implicit
regexp
Mini
##Strip
LatLng
##Notes
MainActivity
variant
DatagramPacket
##RadioButton
getOriginal
SECURI
declaringClass
##SSOToken
MqttServiceConstants
EQ
FTP
MEN
Sec
balance
cli
mProgress
qr
yield
##Pose
##Refactoring
##LIST
##Closing
##HER
##Harv
isType
addMethod
keyBytes
##ERAL
writeln
methodID
removeLast
##ESPACE
##ega
##ListenerClazz
##ForKey
##Prior
##ETYPE
firstTime
drawText
##lobe
##SearchQuery
markers
##IfNot
styled
CONTAIN
getTenant
Selector
##Elt
##Tiles
getPaddingBottom
##ConversionListenerClazz
Simulation
##utator
WINDOWS
SELECTED
INaviViewNode
processingInstruction
outputStackTop
AbstractThrottleImpl
exactCenter
DIRECTORY
LinkedBlockingQueue
##ancellation
SEGMENT
translucentConversionListenerClazz
concatenate
Definition
SplittableRandom
ANN
DLock
HAS
datasource
mCallback
und
##col
##Lost
##Latest
##Watcher
##Sticky
##Tld
##Eff
##Just
##Gain
returnNode
##ToCheck
##IdList
valueList
##ysql
writeBoolean
FileShare
##ManagerImpl
##Compatibility
acronym
findAnd
##Online
oldest
loading
getDB
##Privileged
Stage
##TestHelper
matchers
storagePolicy
rsmd
ENABLE
##Presentation
separatorChar
includeNS
##EqualTo
##FreeChart
transactions
shutdownNow
PsiBuilder
##Business
SUBS
getDeclaredField
ReilHelpers
##ExecuteLogic
getInputFormat
uninstallUI
AdeException
##Ordinal
questname
##SoFar
##Friends
synchronize
REQUIRED
isLoggingEnabled
AG
ACK
JFreeChart
Rx
goto
pix
synth
xOffset
##FG
##Lob
##mn
##etModel
##TypeAnnotations
##terat
##urp
getImplementation
##elected
##ocated
isServer
##InUse
##Conv
##stab
##Configure
##vides
unpack
##Unpack
viewType
##Specs
getLanguage
bytesWritten
clientSecret
ask
##odingException
serviceDetails
Pref
##etails
IntentFilter
##Connectivity
InvalidArgumentException
FloatBuffer
##ChunkSize
##ivation
allocator
lowerCase
ISicres
baseline
Executable
MAPINDEX
getPaddingRight
jsObj
setMaximum
vplexVolume
deepCopy
ExifTag
BindingSet
Upgrade
##Merger
##force
AccessibilityNodeInfoCompat
TrxName
SECURITY
Grammar
SB
VK
iIter
knn
mesh
qb
yAxis
##West
##S3
##Caches
##Too
##junc
##alan
getStream
newComment
##aterm
##Concat
setAttributes
resid
##ToRefresh
##StringValue
Inst
##Enhance
readData
endpoints
##Death
text2
##AllTables
disabled
Chronology
findNext
lastChild
ByteBuf
HttpClient
##ColumnValue
##ADE
##aze
CONV
##Barrier
##NoTransform
ResourceManager
##Varray
storageUnit
theEvent
ENCRYPT
##Advice
domainName
WindowEvent
m23
apiLevel
##CloseOperation
requireArgument
##AdminKey
snapshots
inspector
##LatLng
XMPException
secretKey
JarEntry
writeStringToFile
BoxLayout
##PowerOf
INSERT
MissingResourceException
SingletonRepository
##ControllerException
##Significant
##junctive
##atermark
Feed
FATAL
JMX
LR
Poll
Sector
SID
Watch
mValue
mOffset
moves
nw
sasl
##limit
##Rs
##uals
##iedException
##Formal
##Mult
##Ds
##86
getIntent
##Inactive
chk
ch1
toDate
createB
##enerics
classNames
charArray
onDrawer
##AttributeName
##ofence
sourcePath
uniform
getDigest
spin
queryResult
##BlockInfo
##mplemented
##ColumnNames
##APP
SYNT
Share
Union
Delegator
capital
theClone
moduleName
ALT
multiInstance
related
DBIDs
##Facilities
conflict
GeneralPath
suffixes
##UniqueId
##Ticket
SolrException
##ExportMask
constantName
videoItem
interactive
Bias
SIGNATURE
##ExpirationTime
priceModel
RELATIVE
CompiledST
CryptoException
##IDDEN
smpte
PRODUCT
DownloaderService
SYNTAX
Dto
Es
Fraction
MY
NV
bm
rtp
vp
xAxis
yyc
##Lazy
##tempts
getDistance
getWritable
nullNS
##torable
##essenger
isAlpha
##Instanti
##ValueException
setUI
length2
##Proc
writable
##StateChange
listene
paused
MathHelper
##Interrupted
rootView
editing
topLevel
blockObject
refs
packages
##LOG
CLAMP
FloatMatrix
sms
httpResponse
ClientResponse
##Domains
getSystemClassLoader
##ycled
uptime
##laim
XmlWriter
##Indirect
predecessor
##span
GeoPoint
Parcelable
##Prediction
STOPPED
##DeniedException
BridgeContext
PhoneNumber
AUDIO
ResolveInfo
BINARY
IString
SOL
Scheduler
T5
XString
Year
eigen
histogram
mDrag
pipe
##ibernate
##coin
##hair
##Jump
##Iterate
##84
##fil
getRegister
newItem
inher
isWhiteSpace
setDocument
addError
addMouseListener
##veal
##fferent
createSub
##FileSize
type2
readDouble
##EventImpl
##TextMessage
currentRow
endPoint
endAngle
unmarshal
##RecyclerView
doctype
getDTM
Support
jsonArray
ENCODE
successor
getPropertyValue
##CKET
needed
##ossip
yyp
sections
gcd
Planar
PolicyException
##Allocated
##F2m
##Gravity
MEMBER
pduDataStream
newDocumentBuilder
createCompatibleImage
visitMethodInsn
Instrumentation
WHITESPACE
COPY
##stablish
Categor
FP
Hot
JTable
OPT
Velocity
aNew
mRequest
mApi
rating
vt
##ifo
##ariate
getParams
thickness
setShow
addSource
##ytext
toCopy
##osen
exist
##SetBit
outgoing
##StateNode
startLine
writePaint
##Colon
maxImage
maxLocals
findElement
##Always
getDb
##Opaque
generateKey
searchFor
osName
reqWidth
reqHeight
NoSuchFoo
##csSettings
mousePressed
abb
##roadcaster
##ALLS
nonEmpty
FontMetrics
OutputKeys
animatorY
REGEX
PreferenceManager
FILENAME
certificates
##auge
##Does
##nots
WEB
decoration
##Grab
Credentials
authenticated
VisualItem
getAuthentication
COOK
Usage
ITypeBinding
##ircular
HANDLE
wifiManager
##Milli
NoSuchFooException
Nce
XContent
cutoff
dw
dclass
gt
lsn
mSession
sdk
xr
##Ldap
##Sleep
##Question
##Boost
##Occurrence
##raming
##ulse
getTemplate
getChart
##anes
newObject
setResult
setAddress
addArgument
##ListIterator
length1
byteOffset
TypeRef
##KeyAnd
outBuff
index2
assigned
##RIPT
computed
currentScope
tests
##STORE
paramValue
##derr
##Disconnected
##AndCheck
##Replic
expired
queryParams
getMask
trail
rootCause
doPadding
point1
servicebuilder
Disc
TRACK
ALIGN
ALIAS
UtilValidate
getDefaultToolkit
##csp
MINIMUM
getDataType
LineNumber
blade
Filtered
annotationType
Decomp
BitVector
FINAL
AccountHeader
##Months
##GraphicsNode
setContentType
getStartOffset
##Escapes
neighbors
##Reduce
declareExtensions
##Elevation
OkResponse
yypushback
Bookmark
Cfg
EAST
RATE
VCard
WS
amp
mount
mInput
ram
xl
##rRepository
##und
##Sphere
##Crt
##East
##Nominal
##zen
##titive
##TypeTo
##aste
##asting
##uboid
getCon
STRUCT
isDraw
##very
setter
setUse
toReturn
##ToModel
##abres
indexType
##ArrayType
currentPage
maxD
##Unc
fromStream
##ULAR
##Hashes
##AccessToken
actionManager
##ELLY
##Fling
OutOf
##Fragments
TestSolution
RegExp
getBitmap
evict
accessProfile
Ed25519
bitIndex
Operations
##CertStore
soFar
Extent
lowest
Phrase
overflow
overwrite
##Snapshots
avt
yybegin
##Realtime
##Routes
pairs
perms
restoreState
mbr
##RetryPolicy
entering
##Macro
##Synchronization
Visualization
CharArraySet
DPAD
MULTIPLIER
ALPHA
getAndIncrement
Asn
FRE
mTag
mqtt
palette
rval
vset
yp
##BU
##Hold
##Gradle
##Xpath
setParameters
##ToList
##ToUpdate
##Reuse
##FileManager
curNode
##Indexer
writeData
typeVariable
ship
subDetails
##ResourceName
replay
##ITED
oldData
recovery
IDocument
##UTC
##psilon
##DirectoryPath
RequestEvent
##CommandClass
totalCount
QueryBuilder
##PLATE
##ERTYPE
CLUST
Verification
https
DBUtils
InternalTranslation
ISO
##RDF
sectionNumber
##Reasons
nbytes
facing
AVKey
SoftReference
setOutputProperty
CRLF
OCFile
DIMENSION
##Accumulator
TRIGGER
getWritableDatabase
InternalTranslationException
Final
JP
SPE
Zmat
cim
given
mMenu
mPreview
##Fit
##Mesh
##Mips
##Wind
##Dns
##QUE
##13
##iser
getProxy
getOperator
##search
BODY
isExpired
setPort
addDocument
addMapping
##Statistic
##DataCenter
##ObjectClass
startAnimation
typeface
FileFactory
list1
##Viewport
maxCount
checkRange
##AndClose
clearEvents
bufSize
execCommand
##Subrou
##talic
##TreeModel
##StoreException
taskName
CONF
MessageType
##DoubleMatrix2D
Demo
getPublicKey
applyTo
MatrixUtils
SHADER
emptyMap
ASM
volumeURI
getParameterName
unset
##Structured
DTMIterator
policyName
##ierarchical
##PaymentType
dflt
training
episode
RealMatrix
currentBufferIndex
Matrix4x
ExportMask
AccessibilityEvent
workingDirectory
inserted
##Timeline
##NGramSize
accepted
##ographic
RcsServiceNotAvailableException
SPLIT
##enderable
ISicresAdmin
Asn1
Geom
Poly
Routing
Way
aDiff
b3
hits
ingredient
lf
mFinished
nd
persistence
wwd
##WakeLock
##Css
##height
##Js
##zation
##tient
newHashSet
isClient
isStart
isMulti
isSelectable
setTarget
setFlags
addFile
addRequest
##ToIndex
##ToGC
valueIndex
name1
##TimeMs
readPaint
sharing
##riterion
argAddress
endDate
numVertices
strVal
getDer
viewHolder
##arning
##Subtract
sendResponse
sendBroadcast
##ATIONS
generateRandom
EXAM
##Objective
quota
getPersistence
rawData
PROJECT
bitmapSize
latPoint
##Redo
ATTRIBUTES
QUOT
##Coordinator
CheckPermission
spaceName
semi
autoFocusManager
##EvaluationException
lonPoint
##TickUnit
##Calculation
##16bit
rcv
##AlertMessage
RPAction
##Multiply
AtomicReference
##BufferedReader
getOwnerDocument
##ToggleButton
elevation
bayesNet
##Silently
predicted
mTotalSize
TENANT
Clock
CRC
Do
DF
DIV
Hierarchy
Imp
IFS
JELLY
Public
Ptr
gn
mr
mEnd
nar
observed
wp
xpoints
##tcp
##element
##sFrom
##MM
##Cos
##Bo
##Gc
##Gamma
##YN
##encies
##pection
##ultiv
##ularity
##edBy
##edRegion
##olete
infile
setInline
addEventListener
toShort
##ominated
Install
outHeight
stun
datatype
##Fact
readChar
##EventBus
maxAge
##orkJoin
##Deviation
##Scaled
delimiters
textColor
Chang
Log4j
##PreparedStatement
showConfirmDialog
getMetadata
resourceSet
dbf
baseDir
##ROP
failures
##pedPrice
notifyListeners
##VolumeInfo
DOMImplementation
##OffHeap
mCenter
addrAttr
exclusive
editText
Extra
corr
##Regular
MODAL
SUBSC
Insert
RefType
TransformerImpl
##eterminate
zkClient
##ModificationException
takeIndex
Stopwatch
Allocation
##Criterium
fDocumentHandler
##Integration
OVERFLOW
CertPathValidator
mutate
Journal
substitute
Candidate
DRAW
GO
HA
PW
S3
SQU
Wait
Wallet
cash
ha
mOriginal
wwn
##Lint
##CMap
##NF
##odification
getOr
getController
getPrincipal
getBackend
setIndex
setAdapter
##DataModel
createUser
##Attached
dataIndex
##MessageListener
SystemProperties
elementNode
##ServiceTest
getSort
##ItemId
##LECTION
numF
##Unavailable
breakpoint
findOne
##Replica
loadFrom
attIndex
##otient
timeTo
##RECTION
imageWidth
basePath
hostPort
taskList
getFragment
Stroke
compareAndSwap
stopPreview
PROFILE
##Extract
numberOfObjectives
RESET
StreamSource
##Overwrite
arrange
##Plans
rounded
##Detach
seriesIndex
adjusted
##DiskLruCache
BadRequestException
##goException
SAML2Constants
##CipherSuites
ticks
PostConstruct
##ergency
MARGIN
Matrix4f
##Entered
covariance
sidc
canonicalize
Aggregation
cern
##Suggestions
NCALLS
##P2p
##DATAS
Cim
jGen
mN
marshaller
nx
utterance
yytext
##ev
##VED
##MF
##Cr
##GAL
getInit
##idad
##oops
##charat
setMin
addSub
addVariable
##ogus
##Id2
curChar
startPreview
writeReplace
textEncoding
Logical
##Parsed
##TagManager
transpose
getCenter
##Privilege
alternate
getLe
##CacheKey
contentResolver
##Spliterator
numberFormat
ctrl
makeMeasureSpec
ThreadGroup
painter
##poth
currTime
fullDetail
invokeMethod
OFPort
Windows
isNon
lat2
SecurityContext
DateTimeHandling
MODIFICATION
VOParameter
avPairs
yycharat
getHostAddress
plane
pokemon
FILES
##agnostics
##SortedMap
renameTo
ncol
CouldntLoad
whitespace
##SkipList
isDisposed
##AlreadyExistsException
RELATION
##YUVLuminanceSource
SHARED
##CountDownToGC
##LmlAttribute
PlanarYUVLuminanceSource
IFSConstants
setInlineAlertMessage
2BIG
MAC
Nodes
R1
Return
Tip
course
figure
mLog
navig
press
vlan
##cal
##Mutation
##JS
##Git
##petitive
##rocess
getUpdate
getGraphics
newTransformer
setNum
setToolTipText
##ToMap
##Regression
dataProvider
Expected
writeText
putObject
putChar
putParcelable
##TextSearchable
##ALITY
getScript
delivery
##acon
childValue
React
##ITCase
oldSize
##Delimited
getRoute
serviceRequest
makeImmutable
randomize
##Retrie
searchString
markup
threadName
##InternalError
Indexed
templateToken
SERIAL
SCAN
getGlobal
##Relations
##PrivateCrt
slave
flagConfig
CCAlert
##blig
moment
Diagnostic
fmsg
resultSetType
grab
reserved
##InvokeExpr
isFullTextSearchable
overridden
isShowing
##liding
##uzzle
propagate
concurrencyLevel
##StyledAttributes
PUSHBACK
Asn1Exception
Analysis
BPartner
Cart
Cube
Fail
FAC
GSS
Kafka
Pipeline
Popup
UMSException
drain
fonts
k3
mh
mDataSet
oin
rf
roster
##oa
##Rc
##Misc
##Looper
##Water
##JB
##byte
##Ignored
##epath
##etri
##oday
##tricted
getInfo
getWorkspace
newScale
newItems
##assigned
##omy
hasErrors
##DataChanged
createData
outState
writeLength
envelope
assertXpath
progressBar
ClassWriter
Maps
minIndex
pathname
Revision
##Unix
##Unmarshaller
##ITOR
##Disconnect
##AndType
eventBus
##Exporter
urlConnection
##ANS
##ANDS
stringWriter
HttpHost
##TreeMap
XMLAssert
##Spot
canWrite
AbstractServiceTest
treeModel
totalSize
##PackageFragment
fillIn
##ferred
##Callable
cancelled
Tokenizer
INFORMATION
##Rates
##DBC
rounds
pwd
getShell
Terms
SolrInput
getSubscri
syms
##Propag
ImmutableListMultimap
Capabilities
LoginException
##Participants
TEMP
CoderResult
Actor
Caster
JB
MX
Persistence
Sce
Ssa
eml
fValue
mShow
mChart
ypoints
##Pseudo
##Cq
##Bubble
##2Request
##OOT
##OFF
##Gefaehrdung
retries
getVolume
##attribute
##eller
isString
isFinished
toNode
valueAt
resultBundle
createTextNode
classnames
assume
typeId
##ponential
##RequestHandler
##ARK
parentIndex
userID
userGroup
oldEntry
##Altitude
strs
getCategories
altitude
swipe
initialValues
interest
interceptor
HttpHeaders
baseURL
lockFile
passed
capability
IndexWriter
##Executable
##OffDay
##DayOfWeek
ProcessBuilder
Vec2D
isLeg
##Elim
##Thrown
macro
macAddress
Formatter
vendorOption
##PullRequest
##SigBits
##InnerClass
COMPLETED
GENERIC
BOUNDARY
qualifiedNames
NODESET
TRANSFORM
PADDING
mStrokeInset
##DATASection
Arch
Engine
Ip
Pos
Two
coder
codepoint
frm
migrate
om
qry
slices
##localized
##iff
##core
##Mount
##hib
##Dial
##Here
##fid
##ulo
retString
##initial
getPartition
getEdges
newX
inJust
setT
##Refill
##reated
createKey
outWidth
datagram
writeLine
Exceptions
onClick
checkpoint
checkPermission
unused
##WithVar
inputLen
configs
##StartTrim
##OrUpdate
firstChar
IDP
Activation
searchControl
##cles
totalLength
transformation
getKeyCode
NotSupport
ActionForm
##ScrollListener
elemContext
getBit
##Usb
queueName
##FullPath
##OneShot
SessionNode
blk
MODIFY
yystate
PsiFile
DISCONN
##SendId
##tributor
shards
clipboard
placeholder
ProtocolVersion
##DecodeBounds
##parsed
##RenderingInfo
##Reduction
tipo
fallbackClassName
##eterministic
ConversationStates
Corner
##Again
LOWER
saniti
ORIENT
LocoNetMessage
ProcessInfoParameter
Raptor
PullToRefresh
inJustDecodeBounds
NotSupportMsg
BRO
CAL
JPopupMenu
Merge
Mosaic
Socks
cst
mInfo
mib
mBase
mDefault
mRenderer
our
penalty
watcher
zones
##oVital
##Fns
##Tube
##EE
##UC
##Hole
MethodHandle
getArg
getArgument
getPeriod
newSet
##irew
setRotation
addSeparator
##ListNoTransform
toSet
toMillis
##ayed
st20
dataTag
##ATK
nextValue
whole
##right
heartbeat
stateMachine
objArray
NodePortTuple
##Distinct
inputPtr
findIndex
userContext
strLen
##context
##ServerAddress
##Subt
HttpConnection
imageUrl
##ConfigurationError
##SessionManager
XMLSignature
##Documents
Recur
graphWrapper
AttributeKey
##SearchRequest
ServiceDocument
ColorSpace
containerName
##Conversation
SimpleType
ENUM
resolveInfo
NetworkParameters
windowSize
##SeriesRenderer
getTimeInMillis
SearchFilter
##Baseline
##Operands
m03
characterdata
getColumnName
VOPriced
VirtualArray
INaviFunction
gcTrace
spannable
feedUrl
infos
##Effects
S2Cell
cardinality
##Examples
BusinessObjectDefinition
getFontMetrics
m33
##params
PeriodType
##Insensitive
Amazon
AttributedCharacterIterator
atan2
CLUSTER
CouldntLoadDataException
st2067
EOL
FN
Filename
HIST
MC
Sasl
lin
mEndTrim
nNodes
##efined
##Pv
##PI
##las
##llel
##Lear
##Sip
##Take
##Era
##Your
##4f
##oney
##Decls
##tar
##Declarations
getControl
##ameter
##ana
##essian
isRequired
setB
setBit
addEvent
addPoint
addLine
addTab
##React
IOF
dataStore
##ClassID
compilationUnit
maxLatitude
checkJNI
ArrayDeque
getStore
getSender
testValidity
opc
##Blocked
##ReadLock
##equential
##Reflection
srcPos
##OUSE
##LoadFactor
initializeAll
##Ifd
AppsFor
##echa
##tically
smallest
##Swatch
GenericEntry
##DBID
##WaitFor
Physical
##rustum
convertToUp
Encrypted
nativeGuid
##nswers
sipProvider
SSLSocket
##PriorityQueue
CONFIGURATION
getViewBean
preserve
Ordered
moveToFirst
Executors
aggregation
TransformerConfigurationException
BluetoothGatt
##Highlights
Realm
getDimensionPixelSize
##ximation
dayOfWeek
LatLonPoint
mStartTrim
typ
Small
Deflater
ucrop
ShoppingCartItem
##Responses
##Descendant
integrity
##Mediator
TERMIN
Parallel
SIMPLE
seedBufferOut
##Baud
MENU
##YourDomain
checkJNICountDownToGC
AppsForYourDomain
Dex
GE
GRAPH
NL
Weighted
aes
aWriter
dyn
e4
gr
gradient
h1
mDownload
observ
##Slo
##Sorting
##TAG
##Tls
##Terrain
##DO
##Aw
##Queues
##IOR
##orum
getPanel
getWord
newY
newDate
isAccessible
##InMemory
sets
setPath
setPriority
setCompletion
addClass
resBundle
toURL
##NodeList
Inte
Init
logs
fileList
testIs
##ronExpression
deliver
minLatitude
INCL
##ARS
objJREF
##Unchecked
opId
##Travel
attributeNames
Intersection
formatString
translator
##ContentView
##shader
##TestData
getMember
getActual
columnKey
asMap
assemble
conversation
includes
getStringValue
handleGet
Parent
ctl
RecoverPoint
Graphic
zzUnpack
glGen
glTex
identityHashCode
workers
NumberVector
##oomFilter
selectedIndex
ENTER
##bership
bottomLeft
entReference
Line2D
JAXBContext
##SQLException
jobs
sipRequest
##Movie
##LDIF
getRowDimension
ANIM
##Branches
getTableName
VERIFY
##Substring
APPRO
stdout
IDENTITY
declareNS
invoker
IoBuffer
Legion
participants
##uris
FrameBodyT
##Stores
Flexible
SSLEngineResult
NUMERIC
##udience
##terative
zzUnpackCMap
Cst
Length
N4JS
Stored
arity
bank
dark
fingerprint
mField
vy
##iere
##Varargs
##caled
##Caret
##Tac
##An
##Grain
##enance
##Typed
##blems
getQueue
getWrite
setLevel
setReason
lengths
##server
doubles
nextFloat
nextSibling
##MessageType
DSS
Classification
xmlReader
Chain
userDN
getClean
clearSelection
##ULD
getLoad
outputs
##RowCount
URIUtil
incLong
connectionFactory
entityId
##OutputFormat
SEQU
##SearchBar
Spinner
specific
COLLECTION
TaskList
##Processors
renderingMode
bitMatrix
##Physical
##Swipe
getGreen
UriUtils
SearchRequest
##aintenance
downloadId
stride
ConstraintParser
getRequestContext
MBeanException
lookAhead
Gitlab
##Legion
Flags
denom
twoheap
authorize
CharArrayBuffer
Alloc
variation
##Requestor
approx
LinkedBlockingDeque
cloudlet
insertionIndex
AlphaComposite
queryByConstraint
PERSIST
Cbus
IAddress
MIR
Nond
bld
cdf
dial
identi
kml
mg
mass
mId
mScale
odd
picture
tang
vx
xp
##rer
##Pg
##sQuery
##Ren
##Void
##Mass
##Sid
##Cookies
##Eng
##AJ
##HL
##raf
BasicStroke
getVertex
##thRate
##ouTube
in1
isRemote
setLine
setInteger
setPassword
##ingPlan
##ListAdapter
tot
##ends
##ToService
##IdValue
##StringTo
##oser
##ObjectIdentifier
sharedPreferences
maxStack
maxLongitude
DST
fieldNumber
numData
inputString
##OnDisk
getCoord
getCell
executable
queryParam
localized
getLoc
outputDir
##Subnet
HttpException
stopped
quiet
useDefault
backing
##USED
ServerApi
getDefaultSharedPreferences
collapsed
NetworkPanel
cpu
JavaScript
HEAD
##ATHER
optLong
##Basis
reportError
getColumnDimension
gridName
##Operators
autoFocus
downloadInfo
NotificationCompat
##Sections
permitted
##RelativePath
Business
##LDAP
ConcurrentModificationException
restWrapper
OnWheel
##ValidateableView
TOPIC
##FractionDigits
getTokenType
##Originals
ssoe
##IBR
setTimeZone
ABSTR
CompletionStatus
##Copied
mStartingRotation
mStartingEndTrim
mStartingStartTrim
timeline
##alculate
RENDERTYPE
##Violation
LexicalUnits
##Adaptor
##Ficha
FIXED
ignorable
AccountHeaderBuilder
##irewall
ABSTRACT
More
Month
Palette
hook
iAttribute
je
jsp
mCount
nodel
occurrence
stor
xCoord
##ek
##VetoableChangeListener
##Flip
##Fatal
##Mix
##CSS
##DER
##za
##OAP
##ortion
##utDown
indentation
BOp
isName
isClass
isDirect
privilege
principals
addAndGet
##IdEnum
##vies
createInstance
createSession
##AtLeast
##lib
##ackson
##IntHashMap
hashed
##phan
computer
getSe
testData
minLongitude
configManager
translated
##StatusEntity
loaders
fromKey
lineStart
exptype
explain
Comparison
getCl
getComment
spawn
getMenu
numberString
Producer
statusMessage
getFS
Partial
authTokenType
stopwords
##DoubleHashMap
FieldVector
AppConstants
EventHandler
##DeleteException
TokenTypes
##FloatBuffer
getGeneric
optBoolean
##WaitTime
SecurityManager
registers
##Programmer
monitoring
imports
mockTestSolution
businessObjectDataEntity
srv
animatorX
mMat
##Building
enums
##Updatable
WHEN
##parency
REMOTE
snackbar
businessObjectFormatEntity
##Underlying
##MD5
supplierData
getResponseCode
COMPLEX
equation
##Clipboard
Headers
VARIABLE
ASN1EncodableVector
isLetterOr
updater
DispatchContext
COOKIE
EXAMPLE
mockTestSolutionHandler
CP
DEN
MO
MimeType
Sl
Sam
hr
just
timedOut
##oTimeout
##aGlass
##Pooled
##uages
##Seek
##15
##lee
returnObj
getHandler
##anc
inventory
isGroup
addFilter
##ingPolicy
##aybe
##Datatype
tryTo
##FileInfo
startTag
assoc
putFloat
##OfType
FileChooser
readable
oname
who
checkIs
##CodePoint
getSocket
##LEVEL
countTokens
clause
##ModelImpl
##LengthException
##Interpol
Intros
##StartIndex
getMsg
buildUri
getRotation
##cycles
getFloat
verification
##OUCH
insertElement
getKeys
rawValue
isCell
##StorageUnit
getBlue
successful
##umption
rangeAxis
plugins
vmAllocationPolicy
getParameterAsInt
##FailureException
CheckBox
monthOfYear
players
##AINT
importNode
dpid
ticker
assertions
NewBatch
Coordinator
LockSupport
WebXmlUtils
removeElementAt
RVMMethod
interpolated
setElementAt
SeaGlass
##MBOL
##PECTED
##OctetString
EncodedImage
appendedChild
lstnrs
nextsib
CONTAINER
Alias
CAR
Crawl
Fits
IL
Inner
SEM
TvShow
Wrapper
dml
lun
mAction
malformed
mDiskLruCache
ncycles
others
pod
wtf
xPath
##atic
##so
##nularity
##Sampling
##Crypto
##EEP
##Eye
##Automaton
##17
##Given
##orph
##etes
##TypeParameter
##ExceptionHandler
##ados
isEnd
constrain
##verti
setLocal
proceed
addText
##IdConstraint
elim
byteValue
hasChild
Inf
FilePath
readAhead
floatToInt
nodeMap
##mplitude
getSegment
scr
##ForCamera
##utex
nums
numEC
##Park
recommendation
##Startup
responseBody
HashUtilities
##Opts
JSONWriter
substitution
##OperationResult
design
##PropertiesFile
SYMBOL
validated
zzRefill
ResourceType
glAttach
##IfNotNull
##Modifiable
notEmpty
##Indication
ScriptException
resultSetConcurrency
manage
getEndOffset
ProtocolException
isReadable
Consistency
merger
elapsedRealtime
##Cases
##Synchronous
getFullPath
Abort
Placeholder
HANDLER
##sembly
PowerManager
recursion
TEMPLATE
FieldConfigBase
##TrainingData
TLC
WORK
Javac
REALM
MGRS
##etrized
initializeAllLiveAttributes
isLetterOrDigit
glAttachShader
Aw
Gen
Half
JComboBox
RMI
Utf8
hos
laf
lbl
mMessage
mThread
naming
slow
##Pitch
##Picture
##sr
##FP
##Fmt
##Floor
##Loss
##CQ
##DA
##Analyz
##frame
##Qty
##Bg
##GING
MethodVisitor
getDir
getRef
getCollection
getWeb
getInner
intLen
##ars
##irs
priced
toHex
##OfMonth
FileUtil
##TextUnit
##ContextException
##ORS
##reement
paramIndex
##FieldElement
##ModelList
##QueryString
encrypting
inputBuffer
userLogin
objectType
fromDegrees
##EntityId
##TestBase
##CacheImpl
initialization
##ASCII
filterElement
contentEquals
clientConnection
getAvailable
REPE
baseObj
srcWebXml
sessionFactory
##rouped
##Removal
##OptionsMenu
Unary
glEnable
getTypeName
##Diag
pageNumber
queueSize
##Loco
selectionStart
EntityManager
##rateInterpolator
timeoutMillis
dimensionality
isNative
##Accounts
getTimeZone
getFileHandler
relations
Vec3D
##Committed
##Placeholder
virtualPool
SparseArray
CouldntDeleteException
##AbsolutePath
##Anno
IFD
XSLTElement
getCanonicalPath
GENERAL
##lined
SearchResultEntry
BitsUtil
both
previewFormatString
##aphore
HttpsURLConnection
##Ctrl
##TextElementBuilder
AES
Browser
Clear
Dsn
NGram
Saa
Vcenter
YY
aEvent
c0
ground
iParent
mNode
mUrl
nvalues
pitch
sName
song
wake
yOffset
##ura
##Look
##Weak
##Wrong
##Sail
##ball
##vec
##Knowledge
##ascript
##urb
getStatement
getTransform
newConfig
##olon
setProgress
setEnd
addTag
##ToSend
##DataObject
logp
##abbit
ListView
put12
##PathIterator
removeView
##RequestMessage
updates
##ServiceFactory
subType
containers
##Unregister
##TableNames
##Tracing
##LineSegment
configured
##CTED
Resolved
getCamera
##CacheDir
imageHeight
sendPrivate
locks
##Associ
StateMachine
##ymbolic
ServiceResultException
caps
##TopLevel
ActionType
ActionErrors
ItemPropertyDescriptor
##Prototype
##DocValues
styleFactory
Utility
templateName
phrase
##DeleteListener
redraw
##Offline
collectionName
NameNotFoundException
shapes
optInt
USAGE
consider
THE
partner
##Coroutine
protocols
WriterException
GeneralNames
pt2
lexState
OutputNode
getLastChild
getScope
allocateDirect
ConditionOperand
##DistributedSystem
setDefaultCloseOperation
mScrollerX
KeyPairGenerator
Deserialization
PRIMARY
CAMPO
ASSERTIONS
BUILD
onActivityResult
ORIENTATION
floatToIntBits
SaaS
EAR
IStructured
JTextArea
JSplitPane
Mech
NEXT
Perm
PENDING
Room
Redis
Tcp
WR
brd
eye
fk
hspan
tk
win
##rx
##SASL
##Hover
##rapping
##ernal
ReferenceQueue
MethodNode
##urve
##roken
getMethods
##thon
isCon
setBase
setActive
addOperation
addMarker
appId
keyId
ListBuffer
writeFloat
enm
enforce
type1
putEntry
readed
##TextFile
onSuccess
##BufferSum
getSQL
getSwitch
param2
endTag
##ResourceType
Reactive
##Transitions
transient
##Pretty
strValue
##ifs
##ServerId
getLeg
deleteCharAt
swagger
timeUnit
##Subtype
doors
##SessionMap
LocalVariable
##Appended
DEFIN
cacheSize
quoted
ColorModel
saveAs
##Feeder
backoff
documents
getBas
waiter
layoutParams
##MultiVari
##Networks
##BitmapDrawable
##MemoryError
##OneToOne
Author
blend
lat1
##Nonce
domObj
##Periodic
protocolVersion
##Players
SocketAddress
pendingNodes
##Older
profiles
Minecraft
SIPRequest
addAttributeProcessor
##Deployer
AUTHENT
##ultimedia
AttributesFactory
IdentityHashMap
setSizeParameters
##Sepa
##Granted
##Skipped
namednode
ArgumentException
##Octets
COMPLETE
LdapException
Money
##Persons
TransitStopFacility
businessObjectDefinitionName
knowledgeBoxModel
##etoableChange
##ScheduledFuture
filledBufferSum
affected
campo
##Adjustment
##avorites
##cripts
DECIMAL
getTaintInt
LnConstants
debugPrintln
numECCodewords
##MultiVariate
namednodemap
14
Dot
Iv
IPoint
MORE
OLD
PSP
Vcs
aab
fPosition
implementation
mPosition
##V1
##LittleEndian
##Stem
##Sock
##Crl
##Cred
##Triggers
##DOWN
##kip
##Knots
##Groovy
##olver
##imals
setWrite
probs
##ToValue
##Stable
hasText
hasRemaining
readTimeout
##Textures
updateObject
DSAP
activities
num1
##ByType
##ModelSelector
##Interior
findById
##Tagged
DEP
##CaseSensitive
getLock
##bsim
##Deltas
connectionSource
Paragraph
##DNOperation
QueryResult
storagePort
##CharacterStream
factoryClassName
getBig
installed
MediaItem
linkId
CONTIN
##eets
NEAR
NetworkInterface
mCrop
JavaCore
Processor
##Printable
vmSelectionPolicy
clusterId
IgniteCache
transactionId
TeX
BUF
HeaderCard
mCurrentSize
##spot
Isilon
Delta
RunnableScheduledFuture
getComponentCount
##SelfLink
##SelfPermission
##Squares
Tuple2
bsm
AVAILABLE
JarFile
Destination
##Notice
notice
authenticationInfo
CompletionProposal
##Taxon
PDFObject
##TrustManager
##Peers
mColorIndex
respond
##Reserved
EXCLUSIVE
SHA1
Authenticator
PANEL
mPtrIndicator
PREFERRED
toASN1Primitive
ignorableWhitespace
sendPrivateText
Closed
CDATA
Dcc
IBinder
MUT
Migration
Occur
PAY
POW
Tom
affine
lit
mIndex
mMode
nominal
##tone
##a256
##Roster
##Living
##Wwn
##Slow
##EQ
##Upto
##raries
##taint
getHash
getDebug
getAlpha
getBusinessObjectFormat
newInputStream
isToken
##InRange
##ValueExpression
setDirty
##ToObject
##reamble
appData
createFilter
keywords
##OfLine
readFloat
nodeValue
##Compiled
maxIterations
pos1
arrayType
Compilation
bufOff
viewName
DataStore
LOGS
DocumentNGram
Vector2D
##ABILITY
Configurable
##SettingsFactory
icons
COMPARATOR
DOMSource
##ACKET
CacheConfiguration
##RandomAccess
##BitSet
##Embed
##pathId
getGeometry
getSystemType
IMqtt
AccessToken
##IALIAS
##Regs
Decoder
Team
INaviCodeNode
##requencies
##Variation
##DrawerItem
DIRECTION
##Exclusion
preset
AtomicLong
Forward
operands
WEIGHT
EditText
ExifInterface
##ehicles
Mono
screenResolutionForCamera
##DCARD
Deserializer
##Highlighter
consistencyGroup
mBuffersBySize
Clipboard
ANNOTATION
Nondominated
Autom
BAS
Cassandra
Docker
HEL
Im
I18N
MI
Navigation
SPAR
cumulative
echo
fStart
gateway
jwt
mant
nth
question
rng
station
speech
##Fence
##Lo
##North
##Bmp
##Occ
##Gl
##jax
##Parametrized
getPolicy
getByName
getTheme
STAND
intermediate
##utch
isDefined
setJ
toAppend
##ToDecode
TypeMirror
appendDetail
sto
##emy
##avors
onEvent
##itives
##ALog
testB
##ForException
##acent
uni
NodeSet
##AndPort
fromFile
##ANK
line1
firstItem
Datatype
ID3v2
##HashTable
inclusive
##Spawn
handleIOException
refChild
##Framebuffer
##SearchResult
##VarName
UserHandle
systemURI
jsonString
isSync
##MemberValue
callVisitors
TableModelEvent
ContentType
##PaddingException
shapeData
##titu
##CategoryDataset
engineGenerate
VOID
ASN1Exception
##POS
MutableDouble
##heel
SSLException
getHostName
##Builders
majorVersion
focused
wildcards
eclipse
CIMArgument
RETRY
tvShow
licenseInfo
##FaultException
##WhereClause
glBindTexture
AfterClass
##888
##Scalar
##olocSharing
##JmxImpl
SafeVarargs
ANTIALIAS
Turnout
RENDERING
aNewDoc
IOFSwitch
Ap
Co
Dash
Gama
Identi
Pol
T6
axes
dat
f0
mStatus
npe
omit
pressed
terrain
##Veto
##Mt
##Cat
##Nail
##zung
##Bot
##junction
##eploy
##eful
getIs
getDistribution
thr
##utter
inverted
##InBits
setConnection
##omes
##ToS
ElementCreator
appContext
createP
keyAt
##unit
logWarning
##setzung
startScroll
writeUTF
fileTransfer
nextTo
nextSetBit
##MessageContent
##MessageFormatter
printError
##AttributeTable
##IDP
subclass
##ItemStack
##LEGAL
objName
##LineInt
oldl
oldTimeout
##Alternative
clearAll
rowId
decision
##chemes
DataLengthException
getMatrix
##TaskState
actionBar
division
RequestParams
##CommandTag
HashMapEntry
authInfo
useTrainingData
var1
wordRelation
##Packets
httpContext
##Sampled
SAMPLE
JavaFileObject
##Equality
##DictionaryChunk
detector
##MouseEvent
annotate
sslContext
fmb
ChangeEvent
plotArea
restClient
placement
reduced
##128
Postg
obtainStyledAttributes
interaction
SIGNAL
Mailbox
CANCELLED
setOnClickListener
ResourceBundleUtil
Fluent
PlotRenderingInfo
Joiner
glGetProgram
##Cpu
SQLError
ObjectStreamException
##Escaper
##asticsearch
##Immediately
##ynchronous
isLeap
CompressFormat
PullToRefreshBase
ILLEGAL
Codec
ITranslation
JMS
MB
MAT
Pub
Rich
bOp
g0
hdfs
jndi
mTrans
mCall
mListView
observe
pooled
race
tls
##Puzzle
##AKE
##Analytics
##Um
##Bootstrap
##Ground
##orrect
##icolon
##arios
getLogin
isUpdate
##Initi
addOpcode
toJSONArray
##osity
ObjectNotFoundException
##SetName
logPrefix
longBits
startIdx
list2
##ators
currentContext
maxTime
maxMemory
checkArguments
deletion
getSql
##Then
INC
childView
unload
##TableMeta
parseWebXml
##Status1
loadData
loadFile
loadImage
##Starts
initFrom
localPort
##ServerTransaction
##ibrate
tempDir
##MaxY
openFile
##ObjCounter
dependent
keyspace
##Heading
AppContext
isComm
##ConstraintException
tabId
contrast
##Algorithms
##to4
##Presence
LineString
getSystemName
uiMgr
##CookieException
##ACHED
##Slave
implies
ACTIV
Handshake
##Simulation
minorVersion
S2LatLng
SEVERITY
auditService
byteArrayTo
COMMIT
##JNIRef
finer
##ProjectionExpression
reserve
##READY
Deployment
getSupplier
createEntityReference
##Javadoc
##tamos
SandboxBody
##Enhancement
uptimeMillis
OutOfMemoryError
handleGetObject
##uristic
8888
Bot
CProject
ForkJoin
OWN
Porter
SEN
Speed
Weight
ag
bulk
cordova
drill
east
justi
mPlayer
mTouch
nav
pj
sse
sampling
wrong
##actor
##Rating
##Mixed
##Datum
##Bluetooth
##eno
##ened
##tig
##tials
##allowed
Keyboard
##asa
getRead
getEngine
getPayload
invite
isFor
isLong
isAnnotation
##rusted
##ership
##NodeCount
##gressor
nextPage
##MessageID
removeIndex
removeEventListener
currentFile
onNew
##BufferException
##AttributeInfo
checkBox
entryCount
xmlenc
parentElement
##LabelGenerator
distrib
reps
transitions
##ActionPerformed
expl
##Ended
##RowChange
##ThreadFactory
DoubleMatrix1D
copyLarge
runLen
##Deletes
srcOffset
Acl
actionName
##Lockout
##izationPlan
Precision
statusBar
TextEdit
##ouseh
passPg
glUse
paintComponent
##Topics
getBegin
skipWhitespace
##Factors
##Collections
templateFile
Alternate
##Returned
##aunay
ClientException
##OCSP
TIMER
InputEvent
LEG
consist
IgniteException
needNew
Phaser
DatabaseException
fsb
##MediaItem
getSharedPreferences
lon2
##CSSEngine
CANT
ParserException
##FTP
programLog
legal
##sInUse
OpenSte
##Superclass
WorkflowStep
Backend
##Legacy
FormObject
caught
SCHED
##ClearBits
DurationFieldType
##Substit
Credential
grantResults
FOCUSED
Library
##uzzy
Playlist
Panel
##Combination
DRAG
TetradMatrix
EntitlementException
LITERAL
interpret
ORGAN
WireFormat
isLegal
NEAREST
##tainty
##tituent
passPgSessionMap
glUseProgram
HMAC
Indices
LA
Manager
Mobile
Purity
Ring
S1
SAVE
ZONE
gzip
ite
km
math
mPos
mController
mColors
mStartTime
nread
t0
##oVO
##arams
##gage
##Fee
##nah
##Mutator
##BAR
##Bee
##KT
##II
getReader
getEndpoint
getUnits
getUuid
getOrCreate
isService
isInternal
isNetwork
##InBackground
##ryo
setHorizontal
##omponent
createPath
##FileFormat
##liers
Injector
##ObjectHashMap
writeDouble
printWriter
##INAL
SystemMember
testChar
requestLine
numMoved
##ErrorDialog
##LogEntry
##ITCH
##PropertyDefinition
##LineAnnotation
strBuf
trap
builders
imagePath
XMLUtil
##UpdateMask
LocalRegion
executeCommand
cacheManager
##FunctionGroup
Recogn
##Recorder
##RootElement
##OrderList
Assign
JsonProperty
TOO
TestSubscriber
QueryResponse
CHIL
var2
ordering
UNRE
ALREADY
callable
TaskResourceRep
redis
isInside
mCell
unitTo
AMSearch
accountName
##Closeable
relationName
ISVN
flagForException
Checksum
vec3
HeaderUtil
GeneralPropertySet
##ENDED
##PrimitiveType
peerAddress
FrameLayout
##Varint
interfaceClass
EXPRESSION
##SortedSet
Article
thumbNail
covMatrix
##Goals
##Apk
overriding
getUIMgrSafe
graphicUpdateMask
truncated
##Integrity
handleButton2Request
Twitter
SAXParserFactory
##allocate
##NamedItemNS
WILDCARD
LANGU
safeSubtreeMatch
Secured
ASM5
##OneShotPreviewCallback
DEFINITION
BT
Effect
Gradient
Horizontal
Jedis
XBoolean
city
jl
jCas
medi
pom
wave
##qp
##impli
##Vote
##FORE
##Filled
##night
##M2m
##bly
##Affinity
##wM2m
##pel
getVirtual
thisAuthenticator
invisible
isEditable
Continuous
setDisplay
##ToTop
##pposite
##atches
createField
keyValue
##AtIndex
appendTo
##StateList
startRow
##MessageImpl
iditer
argb
onBack
onSave
checkExist
mapTo
dispos
##Ship
##ResourceLoader
replic
##GroupBy
##Charge
Compile
travel
##ColumnIndex
##ELL
##ELER
propertyNames
##rolled
Supported
color1
##OUN
##Animate
##Mini
##FeedUrl
getPlatform
storageData
isCanceled
SerialPort
CacheServer
encodedData
changeEvent
##sively
PREV
SessionID
SCRIPT
hexChars
PdfObject
DateTimeUtils
##Indeterminate
Vec3
##JSONString
whereClause
##Elems
##CRET
mRcsSettings
AdsGet
BEFORE
ticket
##KeepAlive
DistributionManager
##echnicalInformation
Embedded
##BEAN
##Coeff
FolderToken
DBIDUtil
emoji
CloudSim
StunException
Timber
RESTRI
transitRoute
DIGITS
writeValueAsString
##Executing
capitalize
Esri
SEQUENCE
##ParametrizedType
needNewBuffer
DL
Equipment
GRID
IElementType
JList
Pixel
Slice
SLD
Vcf
WF
Warning
gain
how
immediate
sibling
##Plug
##Messaging
##SB
##dest
##Dpi
##Kill
##eness
##TypeExpression
##init
getStat
thresh
##arti
##Exceed
##olated
isDestroyed
##InDB
addDefault
##oman
##DataListener
##ERE
##lite
##ertz
dataLength
longVal
starts
assertArray
##RIX
##Thickness
##ards
clas
claims
discount
##ClientTransaction
parseXML
initData
showToast
##Subclass
HttpServer
columnNumber
RELE
##Beans
callee
topRight
taskService
##LocalName
##ISO
canSet
generateDerived
entityID
diagnostic
projectTree
quotient
getPdf
playerName
pageId
##NamespaceAuthorization
accessor
COMB
WebResource
##Lead
##RandomData
ASPECT
PREPAR
##ProtocolOp
getOld
optDouble
BuildException
##Products
Animated
##Detected
##SendUtility
OBJ
##Successor
PARAMET
##Elapsed
Quick
TRANSL
membership
simpli
PacketSendUtility
##RUPT
##COME
WAITING
Bytecode
centroid
mScrollerY
Pooling
##Provisioner
##CompileException
deadline
##Avatar
PGP
GF2nPolynomial
Invoker
ReplDBMSEvent
GasStack
SaslException
WRONG
testBogus
Atl
Cast
CAddress
GV
Hy
NOM
bA
dex
immutable
nod
rid
vehicle
yCoord
##rum
##PING
##Fun
##Wall
##Sy
##Ce
##dBorder
##fficient
##Uint8
##KEY
##Gif
##etched
##once
KeyNamePair
##ParameterName
##isk
##rozen
getEmail
newColumn
##elcome
##iltin
isId
isView
isDirty
isRegistered
##version
toKey
##ToByte
##ToPixel
##ounter
##DataItem
TypeDeclaration
longest
##Heal
argName
onMessage
##RequestControl
##RequestParamsDto
testDo
sourceDataTag
##Directed
##Unused
formatMessage
##Repositories
DECODE
docFragment
line2
##plevel
getMulti
columnOffsets
sendEmpty
sendNotification
##ADATA
##InputDialog
##Perform
AttributeInfo
tmpFile
locationMetadata
Discrete
postProcess
##CopyUID
##NamespaceURI
SHUT
MediaFile
MediaProperties
contract
isInRange
##pectrum
packageManager
isSetStore
SessionException
activePlayer
cp1
excMsg
isNominal
AccessController
unscaled
##RawMatch
Visor
about
ASN1ObjectIdentifier
pendingIntent
mockAudit
annotated
Scriptable
tileEntity
##Places
getErrorString
videoId
ConcurrentSkipList
##unge
Collada
##Blur
WorldWind
WebXmlIo
RETRIES
blacklist
##CalculatorMultiVariate
GF2Polynomial
bufferedReader
##FileTransferRequestParamsDto
reconnect
PLAYER
Software
##ruptibly
REGISTER
QUESTION
##attery
##ircuitBreaker
RESOLUTION
DistributedLogClientBuilder
IBlockState
videoItemFilename
LineNumberReader
HISTORY
getCleanFile
nodelist
NondominatedPopulation
##Umsetzung
Atlas
Av
MUST
Pur
TOT
Vendor
ble
e5
fft
mParams
sched
##uck
##hd
##Duff
##3to4
##Yes
##80
##ern
##ormalized
##icTac
##asper
##url
getHome
StringRes
newLen
intVal
##chant
##olid
BOM
BOTH
##InView
##InCurrent
##ValueExp
setWidth
setErrorMessage
addButton
addFirst
##ingIterator
chosen
TypePath
##Attempts
startColumn
##phrase
##PathComponent
##ronti
errorType
##HandlerException
MathRuntimeException
inputFolder
Series
decrypted
filterBy
buildParametrizedType
##ThreadCount
sendEvent
cal1
cal2
cacheObject
##Matchers
generateCode
codeword
heading
##QueueSize
encode3to4
##Market
Deque
##Loaders
##Serialized
SSID
filesystem
##NotificationListener
ErrorMessage
optionArg
PARTY
txNum
domains
buttonList
##Preserve
defs
##FeatureNotSupportedException
Decision
##Subscribe
##Corner
relational
ENDPOINT
##Cardinality
##Tuples
PIX
getElementType
getMinY
ZipOutputStream
pojo
EXPONENT
##LaunchConfiguration
isReady
##BOX
BusinessObjectFormat
animateProperty
BoundingBox
NEGATED
##Guess
FEED
##UniformLocation
weka
DTN
##Requirement
decrementAndGet
addParameterToRequest
##Triples
##Trusted
receiptHeader
BayesNet
##ulticast
getSecurityManager
resourceBundleName
listenee
lsnr
##pothesis
getSubscription
ORGANIZATION
TOTAL
An
Bulk
Euclidean
GUID
HDR
IQ
IEntry
Individual
JUnit
MAJ
Rotation
Router
Tail
TLS
TOUCH
ZooKeeper
gif
kafka
mSearch
tun
wall
xstream
yaml
##Runs
##Mnemonic
##Marshaller
##Win
##Sup
##men
##Crypter
##yz
##EPL
##Deferred
##Autom
##Broadcaster
##Href
##Histor
##Occur
##ependent
##istance
##ino
getHeaders
getPrivate
getTagName
thesh
##anent
##uedo
reversed
continuous
##ValueType
setY
setNumber
addUser
toExternal
appWidget
outBuffer
hashingStrategy
putLock
nextBoolean
readlimit
testCon
##ItemSelected
ClassReader
contained
errorAcceptor
LogUtils
##Discard
formatDate
oldName
strength
##aran
##bsocket
##reset
##AsBytes
REV
##StorePath
SQLFeatureNotSupportedException
##BaseType
dateStr
##SequenceId
RequestType
authType
offline
binder
##sumers
##EditorPane
osm
##StorageException
##Calling
##RegionQueue
cancelAll
SSH
##ivative
rangeCheck
bitstream
httpPort
##Validators
commentNode
isAbstract
##losable
OperationTypeEnum
SAMLConstants
vmId
##Timestamps
SPAC
##Corpus
PRES
MyCertificate
setAttributeNS
MalformedCookieException
getShape
ACCELER
##CameraParameters
mockTextElementBuilder
Protos
USERNAME
facade
##Seeds
##PLEMENT
businessObjectFormatVersion
CONNECTIVITY
MULTIP
BiFunction
notif
##DOMException
glBindBuffer
##Letters
TileEntity
StylesheetRoot
##Centers
##Neighbors
Helpers
flatMap
IXMLElement
acronymList
##BUFFER
Log4jLogger
SQUARE
SceKernel
theshold
20
KEEP
Territory
daemon
iTotal
mBytes
mLength
mParent
mListeners
mDb
tld
wm
xo
x3
##Pru
##Fil
##Fab
##centi
##Sav
##SAML
##Cg
##Cli
##ba
##Dup
##AA
##Ne
##Ignor
##Implemented
##GS
##etries
##TypeMap
##ariant
##ntology
returnBuf
getSt
getOpen
getVm
getInterfaces
##edMap
##ster
inFile
isAllow
setRoot
byteTo
##DataNode
createList
createDirectory
keyLength
dataBuffer
dataWrapper
##TimeTo
putDouble
##ATIC
##egan
online
##Configurable
##ServiceInfo
requestLifetime
##Logged
##inker
##ITUDE
##Prices
DatapathId
timeMillis
doTest
##Delimiters
connectionManager
canGet
RequestContext
getIdUrl
projectPath
FieldIdEnum
totalTime
##olding
saveFile
##Tabla
CHAT
##queda
isSingle
emrClusterDefinition
##ScrollOffset
DefaultRetryPolicy
UNIX
bitsPer
MediaPlayer
##rategies
layoutManager
##IPOP
##endents
CONTACT
bodyA
##Phi
extensionId
deviceKey
##Collision
clsName
##PlayServices
vecs
XYPlot
fetchSize
##Splitter
##Containing
animators
PlaLineInt
sensorManager
ReilOperand
defined
AuthenticationInfo
##DefsKeys
removeElementFrom
addHeaderView
IndependenceTest
##Duplicates
Weather
instrumentation
##Referral
##Nearest
Retain
##groups
unpark
ActiveMQRALog
DecodeException
GemFireCacheImpl
##scii
##scious
SYNCH
errnoException
HDSConstants
yyclose
##bligation
AppsForYourDomainException
REPEAT
MATRIX
PorterDuff
toExternalForm
ActiveMQRALogger
Dao
IE
IView
Impl
IComment
LOLL
Marshaller
Off
P2
TPointer
Und
VIDE
eng
evidence
ejb
illegal
kbuff
mDisplay
mPrevious
ny
oma
sess
##Ram
##Cumulative
##Effective
##Nas
##TypeDecl
##TypeException
##ableEdit
##tamo
getDirectory
getBits
getVertical
getUpperBound
##rel
##edFile
##ilestone
inset
isFrom
isSource
isPrimary
toBoolean
##ppable
##Rejected
##Bugs
ObjectIdentifier
resultList
parties
##KeyId
fileChannel
nextState
nextWaiter
methodCall
listView
readUTF
##Accele
currentOffset
checkRandomData
getSlot
testRandom
##ForInstance
Prop
##Disposition
##PropertyValue
findField
loadProperties
prettyPrint
otherMatrix
bufpos
rowNumber
firstRow
##cont
bytesPer
getMod
BooleanClause
buildPatch
buildNPC
##SubType
rootDir
uriSpec
##antom
##LocalContainer
##ISIBLE
##ILON
TextBuilder
##MaxSize
ServiceSchema
visitParameter
tabSize
##SSP
##Scrollable
IndexSearcher
##IPAddress
ErrorType
##SampleModel
deviceName
IMPORT
##Whitelist
SAMLException
##Facets
X509EncodedKeySpec
getAbsoluteFile
Decl
allows
SourceLocator
VOSubscription
##Reports
means
##Sku
getShared
MutableBigInteger
getNumRows
##tribut
folderName
present
##Acceptable
##ecedence
ParcelFileDescriptor
readUnsignedByte
signedData
subplot
ShardRouting
##Provisioning
BillingIntegration
cidr
##Recognizer
##Repeating
Runner
##Enumerated
getFlags
##ovarianceMatrix
behavior
redundantOpCount
abbre
aabb
Postgre
onBackPressed
testBogusArguments
optionArgDefs
LOLLIPOP
Dock
Dominator
IDatabase
Jm
Na
N0
Rename
TS
hop
iMin
kids
mRow
mLocal
pem
sroot
vh
vPool
##uel
##Vehicle
##Mu
##SER
##Synth
##TLS
##yk
##ASON
##05
##test
getBuilder
getOrder
newPos
newPassword
##elet
##step
##add
isCompatible
##Inverted
##Continue
##ToRaw
##Chromosome
ElementType
##alsa
##ONY
##FileChannel
keyTable
##NodeSet
indexFor
##open
fileExtension
messageFactory
nextOffset
##lyw
##ContextMenu
onAction
maxRows
arrayLength
getSpec
fieldNames
requestFactory
##NotAllowed
numThreads
replicator
##Discover
##GroupChat
findClass
objectClasses
produ
fromInt
responseContents
rowOffsets
##EMail
##Reads
clients
registerMetadata
##BackStack
handled
##CommandResult
##DefaultValue
##MinY
TestUtil
workload
attribs
displayType
##IRT
##Synapse
METADATA
mouseReleased
gridx
yyreset
BinaryBitmap
ivSize
DISK
ASN1Primitive
XYDataset
INTERFACE
similar
routes
derived
spanX
spanY
ReadOnly
manual
observers
SnmpOid
SVGOMF
PlatformUser
cxn
Size2D
MetadataRegistry
Triangle
VarNode
Ellipse
equiv
Leaf
##Reconnect
##Authorities
##Bands
##chars
Bindings
##ollout
setPageSessionAttribute
getDestination
fullyQualified
Piece
getRelationship
exifOutFileName
mHeaderViewInfos
EPSILON
IGNORE
##lidingMenu
insertElementAt
YYINITIAL
ITranslationEnvironment
LANGUAGE
PoolingByteArrayOutputStream
MAJOR
Blob
Deferred
Hive
Ice
ICC
Js
Lambda
LwM2m
Multiv
Noti
PC
TicTac
VOT
ant
aComponent
dKey
docker
fBuffer
holds
il
measured
nio
zookeeper
##Pie
##Pwd
##Penalty
##Rational
##urant
##Folders
##Mib
##Make
##Watermark
##DL
##Dst
##AUT
##wap
##Observed
##Parameteri
##Decoded
##ableTo
##taurant
getOut
getArguments
getVideo
newId
##ado
##ads
in2
isImage
isBound
isSelf
##Cond
setResponse
setRow
setTimeout
##Toe
##StringMap
hasOption
##usable
createId
##liest
##move
##KeyPrefix
##ackException
##TimePeriod
assertEqual
charLength
onFailure
onTouchEvent
##alling
testI
health
parentDir
##rawler
##Unload
opType
IntList
IntIterator
##Exported
##Repl
lastTime
##Algo
##atrices
##umerator
responseCallback
DataPoint
DataTag
##ColorModel
outputFormat
dirName
DoubleArrayList
getAxis
##INGER
##Portal
##ucers
deselect
actionToDecode
drawRect
##PLIC
extracted
ResultProducer
selectedNodes
##Workers
bitCount
CacheEntry
highligh
jobName
##ACTIVE
tracks
JavaClass
remoteAddress
##Clusterer
##ampa
mouseX
mouseY
realmName
spaces
mCurrentTimeoutMs
triggerProcess
BorderFactory
##MediaPlayer
replyMarkup
hourOfDay
RPEntity
##Cleaner
xsd
Newsf
MoveStep
SwingConstants
##CatalogId
radio
workingDir
accumulate
##Scores
genderNode
underline
##VendorName
DBIDIter
Increment
##CatchBlock
THREADS
attacker
VOServiceDetails
NANOSE
##WAYS
getPredefined
residual
##ramingRect
CbusConstants
ReactiveSeq
longBitsToDouble
getPdfObject
sendEmptyMessage
##rontier
PIXEL
Newsfeed
Age
Anonymous
DLS
GWT
GPS
HIER
Jimple
Nl
ROTATION
SR
XM
eff
gh
istream
mResult
mEntry
mSource
mUri
mDatabase
mFooterView
od
oper
sentinel
ttype
wkt
##PV
##Rfid
##LES
##Saver
##Crash
##TV
##TLE
##Tries
##zie
##Hardware
getValid
getRows
getSeries
getPrime
##arql
##aping
##StringBuffer
##stado
ObjectType
hasFocus
createShader
##FileShare
hashIndex
##MessageHeader
charSequence
##RIPTION
##Composed
arraySize
scores
##Deleg
##FieldNames
acs
itemstack
pathList
Requ
##Transmit
##Trade
##Lengths
##Recover
##Reps
docBuilder
##StatusListener
DataFormatException
flash
copyInto
clientType
sendError
ascent
##Perf
entityClass
SEED
Unix
totalWeight
markAs
actualBusinessObjectData
useCase
##UpTo
backward
##Editors
perClass
##CCpp
InvalidProtocol
descr
##Uses
skipBytes
ALWAYS
WebApplicationException
getTile
LISTEN
SearchScope
IgniteUuid
dtd
categoryId
cipherText
CCSprite
Positionable
##BucketName
identifiers
MutableString
SSLSession
##Slide
##CipherText
##Authenticate
XMPNode
rmi
shareName
unmodifiableSet
Desktop
absoluteAccuracy
ATOM
##IBILITY
RVMClass
UNSPEC
##Optimization
DESCRIPT
weapon
EDIT
CSVParser
GPU
dateTimeUnit
Pokemon
sceKernel
REPLY
AdminException
##HostnameVerifier
SAMLUtilsCommon
natural
getMeasuredWidth
suspendEncoding
DETAIL
CBUS
##DoesNot
JBoss
Tomcat
removeElementFromRegistry
TicTacToe
HIERARCH
##RfidProtocol
UNSPECIFIED
ARE
CD
Free
FORE
JIP
Jamp
MIC
QL
Seek
Tick
Week
eth
ips
mBlock
mBean
meas
mWebView
ori
tVector
vi
##tm
##emp
##p4
##None
##Obs
##IED
##Good
##fice
##esTo
##roler
getPos
getEncoding
newClass
newPosition
newlen
##ndancy
isPlaying
addImage
addSimple
##ingular
ElementKey
comps
currentPos
##INK
getSk
testCreate
testEncoding
errorIn
closeSilently
distributed
##LogWriter
##Unexpected
##QueryException
targetAspectRatio
##OnChange
##TagId
Restore
lastRow
bufLen
previousState
fling
initialSize
dirs
##ibration
doPrivileged
uriString
baseOffset
Accept
##Applet
Stub
codeNode
Receipt
combo
date2
ValueExp
passwd
##Clauses
threadFactory
##sToRemove
descend
networkId
activityToken
MediaCodec
Tasks
bitSet
bodyB
##Distances
cleaned
StreamTokenizer
##Limiter
shouldThrow
##DomainName
PdfDocument
UriBuilder
transactionID
##ApplicationContext
SPIN
worldObj
##SLD
NamedRelated
avatar
securityContext
failedProperties
##MediaType
Delphi
AccountManager
EXTRAS
saxParser
##IllegalStateException
equalTo
EXPAND
cgName
ConstantPool
##Even
ApiOperation
Matches
##project
workspaceId
snmp
##Intersect
getEventType
prodCatalogId
##Invalidated
glGetUniformLocation
PHASE
getStackLogger
futures
waypoint
GZIPInputStream
isJavaIdentifier
##SAXParser
quantile
TRANSPAR
SUBSCRIPTION
##initialize
isCellEditable
codewordBytes
DTNHost
NANOSECONDS
JampackException
Canceled
Draft
Equals
Gradle
IPackageFragment
JInternalFrame
Mean
RB
Roll
TException
TStream
benchmark
dont
determin
hyper
iStream
mL
mI
mArray
mname
rlen
wizard
##ault
##ials
##Vocabulary
##Critical
##br
##Azimuth
##BED
##ortance
##rait
##denvy
getFiles
getReplication
##edEvent
isRes
isolate
toJSONObject
createService
createClient
##ERA
startPrefixMapping
##TimeSeries
##TimeNs
fileFilter
removeHeader
charCount
##ViewId
##ManagerException
instanceOf
printSummary
currentSize
##Outbound
updateAll
##Configurer
scroller
paramType
toolBar
toolkit
fieldValues
##Three
xmlFile
mapName
##ErrorEvent
##LineWidth
##TagException
userIds
recycler
##otif
str2
##ActionButton
ByteCode
localPath
outputToFile
tableSize
HttpPost
columnModel
##ChangeRecord
XMLReader
##ecutive
##InputListener
##ELDS
ValueNull
shortcut
SuppressLint
ServiceConfig
paintBorder
##CTIONARY
isSorted
theClass
insts
MediaStore
##Advisor
sampleModel
##Terminate
##echild
##Creature
referenceSet
CacheException
##Clickable
httpMethod
getTechnicalInformation
JavaType
apiKey
##WaitStatus
##ossib
UPPER
##Downloads
getMaxY
HeaderView
Delaunay
DICTIONARY
getMinX
EXPORT
tcx
retryPolicy
##Issues
cnfe
servletText
compareAndSetWaitStatus
##DynamicGroup
projectionIn
Trip
##Scorer
##Cloudlet
getPageSessionAttribute
DatagramSocket
##Weapon
REPLACE
##Succeeded
##Midnight
TestCaseUtils
PhotosGet
getExternalStorage
##Solver
DISTANCE
Krb5
mMediaPlayer
Detector
MANAGER
PBEKeySpec
associate
##TintEnabled
##Measures
getDerValue
Tipo
fillInStackTrace
sanitize
##Subtrees
APPROVE
getSupplierAdminKey
unscaledValue
BillingIntegrationTestBase
GPUImage
Aem
ES
Iteration
MOUSE
PUR
Race
Schedul
SAV
UTM
fout
hlist
ma
mbs
mInitial
nu
ro
sift
wc
##RON
##cion
##Ln
##TL
##Ty
##kov
##Bw
##Boot
##Balan
##Hdr
##GG
##tice
##Decele
getTags
getPointer
##aturation
##exp
isCompleted
isSigned
##InList
setD
setFeature
proposal
addPath
forDigit
exiting
##ays
##ongo
applet
createR
createTask
tryAcquire
logMsg
IOUtil
classloader
readCount
nodeTo
##Compaction
onKey
##aily
maxCounter
testDivide
progressDialog
ClassPath
mini
unmap
itemView
##ByKey
##PropertyList
getDictionary
##Priv
firstWaiter
getLookAndFeel
##Dates
##SubStage
groupCount
doNot
##Deliver
ContextCompat
REQ
##Accessed
hostAddress
##ROY
Shader
##lobals
makeNode
Configure
##Noise
OptionHandler
workbench
getPlan
flushBase64
##AttrName
isSimple
embedded
##ameditem
getBorder
##CallBack
##Usuario
queued
##NetworkId
notFull
usr
##Converters
bbox
TransactionOutput
getUserName
stmtPattern
##Detached
##MouseMotionListener
INaviInstruction
getClientId
getInsets
presenter
notes
retryCount
auditEvent
llp
MqttException
Background
awaitTermination
writeToParcel
additionalCharacteristics
connectedUserId
createdNode
CIMInstance
Copycat
##SpecificPart
wrappedKey
setBackgroundColor
fldName
equipmentId
mWifi
HeapOperand
adaptor
##CacheSizeInBytes
PROCESSING
##raskov
isLeftToRight
UnsignedInteger
AttachmentPoint
##aphone
hmac
violation
ParametersWithIV
PayloadException
##ctetString
Matrix3f
##ancellationSignal
ISicresAdminDefsKeys
##ancial
N0Parameter
BK
Coverage
Hop
Hessian
ICompilationUnit
RA
XNumber
k4
largest
mWindow
vic
##lep
##lective
##sTable
##sRepository
##ipper
##Foreign
##ForeignKey
##Largest
##Ear
##Eigen
##OULD
##orb
##eylon
getColumns
newKey
newStatus
newCp
##attribut
isState
isIs
isWrite
isUpperCase
isWritable
isEnable
isRaster
isForce
setQuery
setColumn
appView
##DataPage
keyStroke
TypeToken
##KeyMap
logged
dataFor
writeExternal
fileNames
putAttribute
nextFilter
lists
readExternal
##ByteChannel
##Acct
maxLen
checkField
getSupported
##FactoryClass
numSamples
minSize
clauses
closeStart
##Prem
targetId
targetSize
IntBuffer
pretty
fromNode
expansion
getCore
HashCode
Setting
deleteFiles
##URIException
processors
imageType
expectedValue
##SessionContext
##UpdateTime
serviceClass
organisation
##Changing
Recon
CharSet
Shutdown
##Writes
propertiesFile
documentHandler
absent
waitTime
SHOULD
##MetaChunk
regionMatches
##PreferenceStore
##Tooltip
##Chunked
##Scopes
##Defn
numberOfElements
##Offers
jobDefinition
directoryServer
ExpressionOwner
getYear
tracking
propValue
getSelf
##Stops
enableOutput
Membership
Packed
THRO
SecurityFunctions
digestOID
screenSize
bucketId
PRESS
##Detect
EdgeType
MalformedURIException
BitArray
##Disks
mockSSP
sslConfig
dotProduct
getClientProperty
getInactive
Marketplace
##OSUser
planetModel
probabilities
ApiResponse
GitHub
CertStore
AVT
decorate
PROTECTED
##MatchingRule
##BasicBlock
ActiveMQRA
##Optimized
interpolation
##Swapped
bgColor
FixedViewInfo
persistentAuditEvent
invocationContext
##ThreadPoolExecutor
##Invoice
##Neighbor
GsonBuilder
##Consistent
Recurrence
PARAMETERS
PostgreSQL
##AUTH
getPredefinedCursor
HIERARCHY
mockSSPHandler
Letter
Success
Sorting
Strict
jedis
loops
mips
nz
nse
pck
rrd
rtf
##tlement
##ivo
##ca
##Listing
##dig
##Eq
##fol
##BOM
##rature
##eron
##fir
##peaker
##Painted
##Typeface
##TypeArguments
##rit
getButton
getPriority
newVisibility
into
##edImage
isp
isElement
setRendering
toType
##Reorder
##stand
createServer
createPost
dataList
fileManager
removeEdge
currentBlock
onReceived
checkSelfPermission
##ServiceProvider
getSite
##AddViewBean
##ForRegion
errorMessages
minimize
INCR
##ARM
Proto
##Unary
LogFile
targetWidth
strong
algo
prefixLength
##ContentHandler
tagValue
IDX
HttpParams
iterators
dbConnection
##MemAllocator
##ColumnEntity
##InputSource
modelToView
##ROID
Parsable
refType
within
TextField
##DefaultValues
failTask
##DownLatch
getPlay
getPeer
getPerson
accessibility
ClientConnection
SVGCSSEngine
memberId
conditional
Multipart
notifications
notificationManager
PRINT
##Libraries
SPAN
exitValue
IdRepo
DISPO
Metal
boxed
##UNIT
loan
##CLASS
##RefreshComplete
quoteChar
##PaymentInfo
CarbonUtil
crs
granted
##Notebook
IdentityScope
COMMA
AuditEvent
isHeld
##Relationships
##ommendations
Lease
shaderHandle
JOB
##ircraft
thenReturn
effects
##ToolTipGenerator
WifiP2p
CannotCompileException
TrustManagerFactory
Facebook
##X509Certificate
MD5
##Produced
SysProperties
getSupportFragmentManager
Eclipse
ideal
getLowerBound
##Subroutine
Changelog
ANIMATION
IStructuredSelection
isLeapYear
AlternateIdConstraint
Cq
CORE
Cuboid
EST
Frequency
Gif
Guid
IClasspathEntry
Lang
ais
closing
coupling
dow
fToken
fSeverity
harv
mLabel
mounted
oOperation
xm
xh
yMax
##coder
##LRU
##Ledger
##Sms
##haus
##vs
##dename
##rompt
getBuf
NullColumnValue
##aged
##seq
isSp
isStarted
##verser
addInput
##ssence
##ToSet
hasTag
doubleToString
createDto
writing
##StateListener
IOne
writeLog
##cribe
comparable
##ManagerListener
nodeData
currentSegment
maxZ
updateView
getSu
endVisit
##Deactivate
##Shrink
Chrome
lastName
spot
spatial
splits
rowStride
IDS
##ASession
processName
REPORT
REASON
ViewFactory
getMessageKey
getRGB
LocalDispatcher
validateState
##MinMax
OptionUtils
identityScope
##Registrar
##CHANGE
##EditorKit
SimpleString
extraData
InvalidParameterException
##otator
moduleId
##sToBe
pageToken
NEVER
suit
volumeId
volumeURIs
roleName
##ProtocolException
##SymbolTable
getSystemId
##ycling
ignoreCallback
THIS
##RelationDefinition
Photo
ENDIAN
SocketChannel
Beans
XYMultiple
addToPath
##Contained
lon1
##Importer
implicit
deserialized
OUTER
##IterationCount
getLocationOnScreen
MBeanUtil
CountDownLatch
##NamedQuery
TraceObject
decodedKey
getSelectionModel
ManagedObject
Triple
BodyDecl
Skin
##Crosshair
isNewMapping
mBluetoothGatt
Temporal
CTRL
INVISIBLE
##Agreement
##Advanced
TrieNode
getMeasuredHeight
LogMessageIdentifier
##BayesIm
##thRateParameter
Inflater
NullColumnValueGetter
Amount
Anchor
CARD
Datasource
HS
I2
JDK
LookAndFeel
Lucene
Png
TOM
Zero
ctor
civ
iLen
loss
mTime
mDrawable
mContact
overall
ssh
ww
##RM
##MAP
##LV
##TO
##Tst
##Talk
##Jdbc
##Aff
##Artwork
##QN
##env
##ritten
getUnit
getVisible
thrift
inorder
isUrl
##irth
setMethod
setValues
setTransaction
chan
chronology
toInsert
Elements
hasAttributes
##FileLocation
logic
##ctr
##StateManager
IOObject
##ClassDef
##ElementList
classify
##TimeDeadband
##phen
readFields
shutDown
##TextSize
nodeID
ExceptionUtil
##INSTAN
##izedException
deque
subj
subtree
getSyn
##Nulls
##LET
fieldSet
##ProgressDialog
parentType
unparsed
Provides
##Recycled
##UserAgent
streamName
DataFile
queryId
##ServerPort
##Threaded
##Heights
##Assembler
RECE
asn
Activiti
attrValues
XMLElement
XMLParseException
DateValue
blockIndex
exceptionHandler
##mtoken
ServiceUtil
FIELDS
visitAttribute
TreeModelEvent
fillPaint
InvalidNameException
##Incomplete
Score
PropertyHandler
PropertyValuesHolder
TokenType
notModified
MINUTES
Streaming
windows
rects
Generate
ModelMBean
X509Cert
characteristic
##Shapes
##SnapshotSession
##TouchMode
featureId
fetchBy
NotificationType
nativeOrder
##ntiAlias
READY
##RelativeError
bytecode
##desc
badge
Toolbar
##Legal
downloader
BLUE
Selectable
googleApiClient
##Announce
VisualTable
##LinkedList
PlotOrientation
retained
overrides
##MismatchException
##Purpose
ReplicationServer
velocityX
Defs
XACMLConstants
Matsim
##Recipients
operationsLogger
lessThan
GuiButton
x509Certificate
getRequiredFeature
getServletContext
##trace
FacesMessage
CONCU
numFolds
S2CellId
FieldVector3D
PlaceholderFragment
WorkflowStepCompleter
onSaveInstanceState
testConstr
VIDEO
##orbis
dataForSearchBar
##first
DYN
IMessage
Machine
Next
Push
PNG
Pushback
RSyntax
Sun
Soap
TE
formal
fit
fDepth
ia
ler
mZoom
wl
xc
##Vs
##Fingerprint
##Fonts
##Will
##Ts
##NaN
##Beta
##OIDs
##Gas
##entric
##fidence
getTh
getTrace
getRegistry
getComponents
getDirection
getJNIRef
newTime
##otations
##exec
reuse
isIP
##InHierarchy
setReturn
setEndpoint
addTest
toXml
##verag
##ationale
##Proof
##ToRead
##ValuePairs
createV
##SetListener
##ertype
fileObject
##OfF
##EventListeners
id2
instanceName
##InfoMap
maxDepth
##accept
##AMIC
itemCount
stateChanged
##ByTag
##Grouping
##FromJson
DECRYPT
objectInstanceId
previousSibling
firstName
tagType
getManaged
buildClassifier
##DateValue
DocumentList
REVERS
##UpdateParam
getRun
getNotification
replaceWith
handleMessage
##BaseDN
##LocalVariable
lockName
ValueAxis
##adio
##DoubleValue
Association
ServiceType
getPermission
storagePool
##PLY
utility
documentSelfLink
##Includes
activityInfo
phaser
setTextColor
Already
##ives
##Leader
callbackContext
RESIZE
ContentHandler
getTurn
memberName
zoneName
StatusLine
##CategoryId
Convert
THL
applicationId
subscriptions
SourceDataTag
scaling
tsym
PsiMethod
##OURCES
##ProcessingTime
##Conflicts
##DFS
DirectoryReader
##UNCH
algorithmName
announce
jarPath
UpdateRequest
##LatLon
fmi
FeatureImpl
enumType
##Costs
##RoundTrip
businessObjectFormatUsage
AnimationUtils
GoogleBase
##OkTst
##Beginning
RESULTS
UNSIGNED
##Optimizer
stdDev
##Pieces
setMessageKey
exportGroupURI
MetaData
casFeatCode
##Reconfig
discovered
##GRAM
featOkTst
generationId
ARCH
##cripting
##reedom
confidence
CordovaPlugin
RelativeLayout
##utualInfo
AGENT
getBasic
getRequiredFeatureDE
CE
DIP
DCCpp
IRI
ILineSegment
KNN
Right
SIDE
Terrain
aut
bull
between
ck
coverage
dfs
erase
fLength
lx
mRemote
rtype
sData
##PM
##call
##Meth
##Mqtt
##hoc
##bank
##Auditor
##Udp
##Gsm
##Gallery
##enne
##riction
##riented
##ici
##urm
##roCallback
getCol
getPrimary
newMatrix
newBufferSize
isNumber
isMatch
isGlobal
setP
setField
addIndex
toByte
##ToNext
##ToRun
##ersenne
createEntry
createCache
startpos
writeToFile
preProcessor
readNext
shif
##Compilation
ExceptionHandler
##Contextual
onItem
##reeting
##ipmap
updateStatus
ArrayType
testNext
served
toolTip
##Scratch
##FieldRef
activiti
numNew
offsetShift
This
##Tracep
##FromResource
debugState
##otiation
str1
getDrop
spreadsheet
##ContentProvider
CollectionConstants
##arness
queryIntent
widthMeasureSpec
LOGLEVEL
##ACY
srcIndex
attrMap
attrNames
##LayoutComponent
##LayoutParams
##LongHashMap
serviceInfo
TAGS
connectionInfo
Particle
ValueExpression
ValueLob
##SelectionEvent
authToken
##CreateParam
insertRow
SUCH
##Passive
containerPath
NoInline
Username
envVar
##LastModified
CharacterIterator
PropertyInfo
POP
certPath
ErrorMessages
DOMTestDocumentBuilderFactory
propsFile
distances
StorageUnit
fragmentName
Directed
JavaRDD
isAny
NameValuesHolder
##VertexAttrib
artist
AMIdentity
notificationId
##Descending
Declaration
innerMessage
innerDescription
screenshot
slide
##dingday
suppress
INSTANCES
pt1
MutableInt
VolumeDescriptor
Quota
isBig
nbatches
getScreen
##Breakpoints
hsb
Collector
CategoryDataset
getResultCode
cfml
negated
heapify
authenticator
pubKey
thumbnail
plaintext
RawHeaders
##ALFORM
weeks
##NavigationBar
toIntArray
getBodyDecl
CompiledMethod
DTD
Overlay
InlineQueryResultCached
##Stdout
DriverManager
PAUSED
mEGL
rpclass
GSER
INVOK
CActionProxy
DeployableType
##ratingSystem
setDateFactory
recompose
EasyMock
savepoint
nickname
DECLAR
##Episode
glVertex2d
IvParameterSpec
##GroovyMethods
##omponents
Tailer
testIResponse
XMLError
MICRO
DYNAMIC
##acceptable
##VertexAttribArray
CView
Csv
Datastore
FML
Hierarchical
JToolBar
LIGHT
Maven
Nio
Pivot
Rat
TM
TC
iy
modes
mTitle
mPlay
paste
ru
sas
vr
xb
##oper
##PRO
##Road
##cade
##Mag
##Warehouse
##Cle
##Tv
##Air
##HTTP
##Honey
##Gray
##X2
##erry
##ordinate
getInitial
getBusinessObjectData
newInfo
newLocal
##InPlace
setN
setCache
addUndo
valueString
createType
createRegion
dataDir
writeByteArray
predictor
hashes
removeMessages
##Compil
onUpdate
##iparti
updateRow
checkValid
dequeue
##ConfigElement
##Configurator
requestFileName
Mapper
INNER
distribute
Rejected
targetNode
findNode
##Replicator
lastNode
loadAll
recalculate
##ActionEvent
getCatalog
decay
##connection
##ServerConnection
JSONParser
door
HttpDelete
##Ask
srcL
##LayoutManager
drawArc
Viewer
registerChildren
SYM
handleRequest
cacheInMemory
propertyDescriptors
##Flight
encodeToString
##CurrentThread
Services
workList
usePrevious
postInvalidate
theSet
applyDimension
waitUntil
cancelButton
##artment
phys
wordSize
scrollable
reasons
getLocalHost
##Temporal
domainAxis
OFMessage
poolName
##CellEditor
getOrientation
variableName
ImmutableSortedMap
Vector3d
unsupported
cmdLine
syncManager
engineInit
QUALITY
setAttributeNodeNS
##Administ
webSite
cmyk
getLastPathComponent
HostAddress
##TileEntity
##LeafNode
getErrorMessage
getErrorCode
##ikes
retryAfter
##Probabilities
CAPT
##links
projected
getBlockSize
ProgressListener
unmodifiableMap
##ximate
setImageResource
purchase
##Installment
##rban
ComputeState
##Twister
Guard
SecretKeyFactory
CertPathBuilder
##AlbumQuery
Timeline
nbtTags
DescriptionId
OptimizationPlan
##Highlighted
getCoordinates
CERTIF
CAMERA
##Meters
Delegation
QualifiedName
CopyOnWriteArrayList
AbstractMRMessage
##ruidQuery
SUBSUB
UpgradeException
OpenStegoException
LAUNCH
getStatTime
lerp
##ersenneTwister
##ipartite
Arc
ACI
Affinity
BOLD
CConnection
Drm
Federation
HIDE
IContainer
JToggleButton
Limit
Ora
RM
Snap
Signed
VOR
Wiki
bold
eType
fed
hor
ios
lTemp
mess
mSocket
mConnected
mWidget
mLoading
social
xIndex
##POL
##Rsp
##uting
##V4
##Vat
##Fut
##Sage
##Schemes
##mi
##hter
##JPEG
##fers
##Nio
##GRE
##Grp
##jang
##4x
##rapp
##erved
KeyValue
##Decay
##inite
getBind
getVar
getWeight
getPreview
##iding
StringLjava
##Exceeded
isProtected
##InParent
provision
addEntity
toObject
##owel
##DataElement
createT
createIndex
createChild
createHorizontal
TypeDecl
parsing
fileShare
putByteArray
##phas
nextId
FileType
currentLine
currentFrame
##Heuristic
onView
SystemConfiguration
pos2
testEquals
##ForUser
##ForUrl
accele
num2
minDistance
##TokenStream
pathName
##ModelData
##UnManaged
##LineBreak
targetName
targetUri
##AddressAttribute
oldKeys
loadUrl
firstNode
viewColumn
##EndIndex
DataFilter
tableTo
columnStride
##Asc
##DocumentImpl
topics
topVer
blocking
Interruptible
statuses
getFinal
Recovery
##voir
RequestParam
##eason
##LOC
##NewLine
decodeFile
secondRational
frameNumber
useFilter
ofKind
IndexType
remember
Align
Allow
referenced
dstPos
getXIndex
##AfterFailed
weightx
HEAL
##Emulator
isNegative
csp
IMPLEMENT
PdfException
AttrSet
isMac
BinaryRaw
##Comb
basis
##Literals
##Normalize
AsyncMessageHeader
Readonly
RecordHistogram
ArgValidator
Flash
##Conversions
EndToEnd
Arff
IPv4Address
BASE64
PasswordEditText
desiredWidth
##Cycles
getExceptionMessage
Elasticsearch
SCROLLBAR
keyTyped
lifetime
ReadableInstant
recurse
##Equation
BigdataSail
CFG
abstractValidateableView
slop
indexN1004
Running
##NumberArgsException
relayState
getMemory
WrongNumberArgsException
clientSecrets
mOriginalValues
ForkJoinPool
SHUTDOWN
##lywheel
Ellipse2D
SUBSUBDIR
EndToEndTestUtils
Ascii
Course
Deterministic
Eip
Jasper
LC
Mk
Maybe
Mp4
Notify
NATUR
Orientation
Scheme
Sabres
TIP
din
eras
iCur
mSelection
mPackage
mInterpolator
mPrev
mBackgroundColor
testing
uint8
yMin
##gu
##pers
##Faces
##Moving
##South
##Coded
##Caching
##yy
##IOD
##Ingredient
##fili
##Paired
MethodInfo
returnVal
getParam
getUid
newHeight
##edMessage
##olt
isShutdown
isPaused
##quare
setService
setHost
setMode
settlement
promise
addState
addTable
##ToMove
##osable
createParser
##FileOperation
outcome
longs
##TimeSerie
##ViewTo
##Texts
wheel
IllegalBlock
subString
getSum
##Scra
minZ
unmarshaller
##She
##LogSegment
MathUtil
##AndNext
##FromWindow
findFragment
ResBundle
BigFraction
stringArray
sprint
##WidthDp
tran
##Readers
rootPath
##Caps
edited
##Metaphone
heightMeasureSpec
##SessionListener
##Systems
cacheFile
AttributeValue
openInputStream
PathImpl
Priced
QuerySpecification
rawType
computeLocal
##Uploader
InvalidTagException
COLON
##Masks
Transformation
SerialTrafficController
RandomGenerator
ContentUris
shouldPark
##Reload
products
connectTimeout
AddressImpl
Visibility
netId
BinarySearch
##ASTER
##Arri
getShow
GeoTimeSerie
ccfg
ADDED
UpdateResponse
Diag
CarbonDictionary
operators
##Classifiers
##Superior
##Incremental
stripped
iterationCount
businessObjectFormatFileType
SMSEntry
##LoggingEvent
##NCName
AuditLog
##RUCTION
horizontalSpan
primitiveArray
customerOrder
JMenuBar
numericCount
photoId
Sketch
##Means
owning
GUILD
##PersistentStorageException
##SoftInput
getSpan
##Middle
SQF
filepath
##Recursively
certainty
getScrollX
unescaped
##Repeated
ActiveMQRASession
slope
UnManagedVolume
typedArray
visitTypeAnnotation
SNAP
##Harvest
CONFL
getInitParameter
SolrInputDocument
interpolatedTime
STANDARD
thumbNailBmp
addSimpleElement
NamedRelatedResourceRep
TRANSPARENT
##AfterFailedAcquire
NATURAL
ResBundleUtils
shouldParkAfterFailedAcquire
Ann
CV
CMS
Criterion
HON
I1
ITreeNode
Jetty
LF
MersenneTwister
NAV
Of
Spell
XBee
achievement
cot
easing
far
fps
gather
jb
kNN
lu
mButton
mBar
music
ngroups
ow
pole
perspective
robot
wi
w1
warehouse
zos
##gmt
##ita
##Fp
##Fade
##cl
##mega
##Act
##HE
##23
##rich
##odies
##ether
getAdd
getParser
getExtra
getUse
getVM
getProtection
StringIndexOutOfBoundsException
##ticYear
information
isInteger
##ValueOf
setE
setHeight
setOption
prolep
##Listening
##ToPx
##nsi
##StreamId
parsers
outside
##llable
##ObjectId
dataInput
##IndexEntry
enu
##OfHour
FileTransfer
removeChangeListener
##aky
updateState
getSingle
MapBean
numWords
objective
opaque
inputLocals
##Intern
##Replay
stringPredictor
##lacement
##ETIME
processBlock
##RowSet
##ThreadLocal
##Capt
runCommand
##LayoutSize
##ADO
##Hello
DEFSupported
SMTP
MESSAGES
portal
Recycling
dates
datePredictor
ValueNode
##SelectionChanged
glCreate
##CHARS
noise
postDelayed
##FFIC
theConverter
varNode
##EditQuery
##Including
getBot
providerId
##Extraction
networkInfo
##mgr
calls
##posals
regular
isInverted
RectangleConstraint
Verlet
NetworkException
DBSessionManager
JavaPair
##Angles
optJSONObject
##Collapse
bundleName
##NonZero
applicationContext
ApplicationInfo
bucketIndex
##Organisation
isLogical
##Years
indentFactor
##AsyncTask
lexical
businessObjectDataVersion
##Expandable
setSoTimeout
obb
##UnsignedInt
##InsertRow
hsv
DELIM
cards
##eleport
##SCREEN
##DebuggerProvider
pointerId
secretKeys
definitions
##AnimatedLength
growthRateParameter
isHidden
pkgName
raise
getStylesheet
polyline
PartitionedRegion
socks
horizontalAlignment
CharArrayWriter
##Areas
artifactId
##Goal
numericPredictor
DBIDRef
OneShe
Legend
ROLES
TransitRoute
velocityY
##LexicalHandler
X500Name
MimeMessage
CallableStatement
quickSort
##Fetcher
rho
##hanced
albumId
defStyleAttr
##StandaloneLocalConfiguration
ORIGIN
##Campo
##Productor
lyp
setFocusable
##EvaluatesTo
verbosity
##rRepositoryDefinition
Polyline
assertXpathEvaluatesTo
nominalPredictor
isAnnotationPresent
ChecksumException
relationalPredictor
##folio
prolepticYear
RecyclingBitmapDrawable
OneSheeld
Catch
COT
FC
Floating
ISS
IInstruction
Mutation
Ob
Ontology
PTR
Saml
Slog
T0
TMember
VOU
amplitude
dip
fx
federation
jn
jdk
mDiskCache
nal
pen
s0
sticky
tol
tau
##iom
##itance
##cale
##Mime
##Music
##Ware
##WAR
##host
##Aux
##59
##Ing
##dentiality
##alAPI
##urr
##inating
getCharacter
getReason
getExtended
getEntities
getProjection
thing
newB
##ticon
##OLON
inactive
setFunction
setHead
setEditable
addD
addG
addException
addHandler
addOn
addRelationship
##iga
##ationClient
##Reject
##start
byteOrder
tryLock
parker
log10
ListNode
fileReader
messageDigest
assertSize
id3
onRequest
entryList
##Shares
##LogLikelihood
Require
eventTime
doc2
oldVals
##StartElement
getCached
##OrNumber
decrease
outputOffset
traces
LOGGING
rootPane
##Portrait
imageUri
REPLICATION
##PropertiesPanel
serviceId
##PoolEntry
##Define
temp2
##Iterators
propertyType
cannot
##scale
##Assets
opened
##MinX
Privileged
ServiceFaultException
filename1
filename2
boundingBox
rawdata
##IfPossible
atype
##Desired
loco
getBoard
##InternalException
IndexReader
segmentIndex
Errors
##Scoped
##roids
##Swing
ExpressionNode
DBMS
separatorsTo
savedState
##Reducer
##Cores
COMPUTE
bestchild
##UniqueIdentifier
fetchByUuid
SUBJECT
ServletRequest
INDEXED
VersionNumber
UTC
REGULAR
Reflect
##Forwards
miCalc
##ExampleSet
##SerializationException
orderByClause
SampleModel
ITEMS
bigInt
dtoFactory
dtoInterface
##Coefficients
LazyNode
software
##Inspector
bufferedImage
Blaze
Where
filler
getterType
ConnectException
getDesktop
##Trunc
##LessThan
mVideoEditorHelper
##reatCircle
ECFieldF2m
getCommon
DESTROY
##Decomposition
##DriveClient
##filter
##CertStoreParameters
stunStack
##OOTH
##FatalError
2016
##eleton
errorInStatus1
IOneDriveClient
##jangson
isLogicalFunction
CircuitBreaker
IDebug
Jsp
Lag
Lop
Multimap
MALFORM
Pure
Saved
autor
e6
fText
gallery
limits
mNotify
pis
pkt
ptypes
rop
sRes
tem
upto
##Portion
##pend
##Fluid
##nting
##Maintenance
##dId
##dif
##Agg
##HTree
##Occup
##jk
##06
##raken
##ParameterList
getStep
getActions
getWorkbench
newHashMap
isObject
##imetype
setItem
setOrientation
##ingFile
##ingParams
tos
toDegrees
##Proxies
##stamp
hasUser
Invoke
Inventory
##KeyIdentifier
appendField
appendWhere
##MapEntry
strat
stash
dataOut
ListAdapter
classMissing
writeNumber
##pdy
readBlock
printMessage
nodeAddress
##Computer
colt
##Activator
currentEvent
deleg
##ConfigImpl
##ItemRenderer
##NullValue
scm
##Scsi
xmlOutput
childIndices
pathSeparator
Required
##TableColumn
##WithContext
##Recommendation
##SourceDataTag
getDN
getDownload
getDetails
getCursor
stringWidth
tokenItem
directed
getRetry
##Parenth
##BeanManager
serverAddress
CONST
entityType
URLClassLoader
Shop
RequestBuilder
RequestHandler
TextArea
##EYCOM
##SelectionManager
##Objeto
errCode
JsonResponse
ServiceManager
Dev
##Claims
atLeast
notifyItem
##EditViewBean
PropertyUtils
EventID
channelId
cancelAcquire
resolveClass
EntityQuery
##aunched
##Sever
##ScanResult
metaAlias
##DBEntity
##Summ
shouldShow
PdfCanvas
Self
fontSize
mSend
##Agents
Swagger
CommandException
getMaxX
##TouchPoint
audioTrack
##LoginException
gameState
emailAddress
##MBeanName
barrier
bye
RcsPersistentStorageException
##UDP
lookUp
##ndividuals
Tools
getDeclaredFields
MatchResult
getImageIcon
cuC
employeeList
##ComboBoxModel
costInline
AuditService
##Poi
VERTEX
Related
ANDROID
mGarbage
textureCoordinates
Lexer
densityDpi
formattedMsg
ZWaveNode
BloomFilter
Pojo
sceNet
money
##Authorized
unsafeParam
##People
Barcode
Dispatcher
##ContinuousLayout
getScrollY
EXISTS
MySQLPacket
getCustomer
AWTEventMonitor
mRetained
XBLOM
146
MIRR
##ExceededException
##YesNo
Jmri
HONEYCOM
MALFORMED
HONEYCOMB
CNT
Coap
Dn
Epp
EgDemand
FD
Gateway
MAIL
Netty
OD
RDN
UCrop
aOutput
azimuth
bout
cce
fType
fName
jid
mw
mNative
mShadow
misc
mysql
nCol
nStack
nRow
past
rq
sInstance
um
u1
wt
wf
xa
##rv
##sType
##px
##Mi
##Md
##CENT
##Clob
##Txt
##bases
##ZED
##BK
##4Address
##onas
##level
##ableElement
returnValues
getTrack
getIdentity
##UMS
newContext
##ili
##itud
isNode
isKey
isAttribute
isWrapper
isOne
isOwner
isPositive
isInclude
isTransient
isTerminated
##NameTo
setSpan
##loser
##lobs
addAnnotation
reseller
##Probs
##ToType
##ToArray
##rayIcon
valueName
valueTable
createDialog
createSocket
##ointment
hashMap
typeInfo
##MessageBuilder
charVal
##ContextType
onPost
checkMatrix
checkIdentifier
##ConfigException
subKey
endPosition
ClassPool
##FieldValues
errorLine
closeSession
exts
unacceptable
itemIndex
targetIndex
##Internet
findBest
defaultList
##Precedence
recorder
fromValue
getClip
viewRow
##UserData
DataTypes
teCalc
##ColorChooser
getLayer
##mapper
##Capable
groupDN
imageRequest
DocumentFragment
##LongClickListener
connectivityManager
##Spill
Internet
parameterMap
canUndo
##UnitTest
color2
ValueFactory
ValueNumber
##CommandStation
##LOCK
JsonProcessingException
ServiceRepository
SURR
TestHelper
bounding
##TransactionManager
ActionBar
threadLocal
InterruptedIOException
wordsInUse
setTextSize
##IntervalMillis
smh
##RoleType
encodedValue
encodedPath
##Failover
NetworkManager
directoryName
ContentProvider
##TempFile
joined
proxyHost
##Emitter
blur
andReturn
evaluation
startIndexInclusive
getObjectId
TermQuery
OutputFormat
ScriptEngine
businessObjectDataAttribute
Ads
OUTCOME
##MathContext
##Interactive
mMargin
ExtensionProfile
RcsIllegalArgumentException
virtualVolume
OnClickListener
predicates
Dialogue
mSizeLimit
BACKOFF
ncomponents
DownloadManager
Mobsim
GRAY
##PhoneNumber
DERSequence
mimeTypes
earliest
mBluetoothAdapter
SpannableStringBuilder
legionMember
getDeploy
##Glyphs
##interruptible
##RemarkService
inherit
##rafting
autoFocusCallback
##uedoVar
stmtPatternWithVar
ParsableByteArray
Broker
CTableNames
Ftp
IGraph
IPlugin
LU
Labeled
T7
XNet
ZO
amt
emp
fGrammar
hold
mQueue
mMemoryCache
ocsp
pce
rRoot
tell
udp
xmt
##oPose
##CASE
##hcp
##dim
##brain
##Dark
##kes
##3x
##XObject
##odified
##tarray
returnCode
getPattern
getUpper
getAccessible
isDouble
isHigh
Confirm
consumes
setPrevious
addService
addBody
##ToH
##Built
##DataFile
##DataTypes
supertype
##StreamReader
createJ
createTag
createContainer
##Attributed
stderr
dataMap
##Indexing
Exchange
putClient
readUI
readBits
sheet
##EventManager
currentItem
onBind
subConfig
##illage
ClassDescriptor
##ForName
activation
myProject
minecraft
district
disconnected
Requested
##ClientInfo
##StackTop
inputMap
##Parms
attributeMap
targetFile
##ResponseMessage
transmit
##Statuses
fromRadians
lineCol
LOOK
##ActionF
##StartPadding
##CharArray
##ETIC
processInstance
filterMap
LOGTAG
interior
copyInline
doFallback
getAr
getAnim
REACHED
asin
XMLParser
##InputException
point2
serviceType
##Suppressed
cloneNode
getFeed
rights
withAppended
##RangeQuery
TextAttribute
##PageSize
##CallbackHandler
bindArgs
insertPoint
saveTo
ImageType
workQueue
rsa
##LastUse
emr
tabPlacement
##StorageManager
ENV
##PermissionDeniedException
Scal
PropertyDescriptor
TRUST
Events
contour
getDefaultDisplay
##Being
encodedPublicKey
changeSupport
getLocalPort
fragments
getAttributeNS
ClientMessage
bottomRight
extensionValue
##EnumSet
Streams
##Overview
##Emit
RemoteOperationResult
IMM
incremental
ApplicationRuntimeException
Swap
engineGet
##100
partitionKeyGroup
mediaPlayer
##Cards
##Locators
XPathExpression
rotateAngle
Performance
Divider
SignatureVisitor
getFieldName
##APIException
ConcurrentLog
WHERE
VISITED
setCaretPosition
uniqueId
AVList
BoundType
persistObject
##BufferedImage
##Ranking
##UiThread
POLY
getAnnotations
MANY
mTabModelSelector
distributionForInstance
replicationServer
##Offering
Indicator
##Ownership
discreti
XACMLSDKUtils
StdDraw
OkHttpClient
##Avg
privKey
AUDIT
SWF
mAccountHeader
uncomp
Delegating
##WalletModelData
simulateMethod
UnicodeBlock
##Obb
FriendsGet
getIntrinsicWidth
##PrivateCrtKeySpec
PopupMenu
##phanum
getCloud
FitsException
getLegion
ConcurrentSkipListMap
fieldSetFlags
tableToJoin
NAVIG
Abs
CNode
COUN
Estim
FV
FHTree
GAME
Midi
RW
aInput
blank
bounce
esc
establish
fEnd
gid
kb
limited
mPadding
mRunning
navigation
rack
symb
sdp
tries
xmp
zy
zCoord
##lists
##LAY
##mode
##CV
##TA
##balance
##Durable
##BIDDEN
##IA
##Decoding
MethodInvocation
##rof
getHandle
getDelegator
newRow
##edName
isHttp
isWhite
isVerbose
##ddev
##Valued
setView
setConfig
setEntry
setRead
setLink
setEnable
prov
addGenerator
toAddress
##ToEmpty
##Chance
nameId
hasAccess
createGraphics
##liff
##MapKey
curState
startPattern
methodSig
##Complet
##ithub
onPage
arrayToString
##ServiceBrowser
endPrefixMapping
requestBody
sourceId
##LabelProvider
unf
Provision
reporter
##FromList
targetMethod
formats
##Edits
lastDot
getCalendar
clearOut
prefixResolver
initListeners
DataWrapper
deleteOld
deleteRecursive
IDFF
runFilter
expectedBusinessObjectData
baseUri
mainTab
getInstanceLjava
##Signatures
combin
AbstractButton
##SelectionIndex
##Retention
titles
decodeBase64
communication
ImageRequest
storageFile
Applet
##Dept
##Deprecated
embed
##FirstLine
##Incompatible
##Incognito
Matrix3d
##PasswordField
even
ServerConfig
getTimer
ExpressionType
masked
csr
AMAdmin
midVal
FunctionNode
BuildConfig
##MonitorStateException
COLUMNS
findByField2
##Structural
configureManagers
partitioner
VOUser
MyException
invalidated
##ReplyMessage
REQUESTED
isLow
Delayed
##CSV
processorId
oids
FORBIDDEN
TupleSet
setContentPane
getErrorListener
##MBeanServer
cgURI
CLIOutput
getResultList
snippet
##ecessors
desiredHeight
##Smart
Initialization
weekday
shuffleCount
recipeClass
IoSession
HGHandle
##RecordingService
atomic
##Soap
topologyName
Correlation
mContentView
outlinePaint
FRAMEBUFFER
SWITCH
Training
PKCS8
##PubKey
NbtTag
PooledConnection
GSSException
##ossibly
isRasterFormat
INCREMENT
srcLctr
JavaPairRDD
##dentialityKey
putClientProperty
FHTreeStateNode
Angular
Cop
I18n
LIC
Looper
Mesh
PP
PM
War
WALL
XT
aLine
bq
bill
era
eat
fun
fbo
mEvent
mLogger
mTexture
mSharedPreferences
nutch
polynomial
surrogate
wav
xPosition
y3
##Pem
##Pdu
##Fdr
##comb
##Limited
##Satisfied
##mware
##CF
##Trie
##DAY
##Nibble
##KB
##X500
##icular
##ury
##trip
retCode
getXml
getPacket
getSerialNumber
getenv
##idirection
##Exited
inet
reopen
isX
isConstant
isBinary
isPopup
isReverse
##NameID
##irmware
setTerm
setCharAt
proximity
addLog
toX
toFloat
toEvict
hasData
hasBeen
##Classification
##ransmission
startGrid
fileId
fileChooser
typeArguments
##ATES
nextTarget
readers
nodeCount
##INATION
onRestore
##AttributeException
##OutParameter
IllegalMonitorStateException
testBit
javac
ClassSymbol
fieldID
requestHeaders
sourceType
sourceName
numA
##TokenTypes
parentName
##DirPath
childType
##LabelPosition
disps
repositories
##PropertySource
##Traverse
##FromSystemName
##Parsers
javaClass
##ResponseControl
##OnError
transparent
##StartPosition
alliance
initViews
##ASED
##BlockSize
##ibrator
uriInfo
imageRes
##ultip
sendSelf
XMLSchema
##implemented
modelEntity
##Spy
getForm
generateCertificate
encodeHex
##NDI
searchOperation
treeNode
paintBackground
TreeModelListener
getPc
##StorageScheme
##sToMillis
getChildText
##Usable
TRAIL
calling
callAttrs
selectAll
SerialNode
optionID
Vertical
##BitVector
FastStringBuffer
mCustom
EMAIL
OFAction
isAnonymous
proxyPort
accounts
getFileSystem
mouseMoved
forceDelete
Dimensional
##DestDir
formula
##SeqNumber
sqle
OFFlow
supply
##SecurityManager
strike
FRACTION
isDurable
##AVT
SolrServerException
factories
businessObjectDataStatus
##Modulus
JCCompilationUnit
##VirtualArray
widgets
Ordering
RcsPermissionDeniedException
zoomIn
SpanQuery
seekTo
tickLabel
SecretKeys
##DiscoveryReport
getActiveNetworkInfo
areEqual
##Relevance
ABS
geometryFactory
TimerTask
##Orders
BrdTracep
getNativeGuid
BOUNDS
##Insertion
ReasonEnum
##Polyline
##WorkingDirectory
early
##Requester
StunDiscoveryReport
KindName
DriverTask
PrefixResolver
SerializationHandler
##unctuation
getCapacity
codewordsInts
AnyM
BugInstance
Redirect
setNodeValue
setContextClassLoader
##handled
readRawByte
ThreadPoolExecutor
Installed
CornerStyle
getDistributionManager
RESTRICTED
InvokerHelper
NaElement
SAVED
asn1
CONFLICT
##pendicular
##Severe
Ast
Duplicate
Fill
FLOW
JDBC
Nested
RG
Rand
Seed
SASL
TAIL
TechnicalService
ey
fts
gb
jet
mth
mOut
mClient
mDraw
mandatory
tor
tre
triggers
xf
z2
##sLike
##MIT
##MATCH
##Ldr
##Ldc
##Slices
##dma
##Echo
##king
##erber
##ordward
getProgress
getHead
getConnected
getPreferred
getQualifiedName
newVersion
newSAXParser
##Except
ini
revoke
isItem
##Invitation
##tereo
##ValueChanged
setW
setProperties
addList
addVertex
choices
##Proper
##ToNode
##ToColor
##Reil
exn
ex2
nameOf
hasActive
##DataOutputStream
keyTo
##NodeData
Instrument
##oton
##KeyBits
##ClassRegistry
classObject
Exit
writeExif
assertPing
##InfoLog
currentEntry
currentVersion
##Handled
arrayList
subtitle
countOf
progressListener
##ForLength
myTracks
##ITIVE
targetHost
IntArrayList
##ResponseCode
##Reporting
recogn
##Alphanum
otherObj
getCall
##OrEqual
algs
initParams
subscr
runState
getAmount
##OperationInfo
Accele
Vector4
getRadius
##Spline
##Splits
getFeatures
handleX
temporal
##FrameLayout
##MaxX
##OptionsItemSelected
##Verb
scaleType
##Newer
##PolicyManager
JsonParseException
transformTo
##RuleSet
ColorInt
operate
ImageSource
secondValue
prevision
actualValue
isSuper
validBaud
##Doctype
moduleSize
##StorageEngine
##DisplayEvent
EventBus
Album
ADS
EntityLiving
ExpressionException
JAXP
##EmrClusterDefinition
##Emergency
##PartitionAttributes
IMG
consulta
connectPort
##Collected
fontName
mSync
slack
CommandResult
GroupsGet
delayed
Metrics
##Ellipse
##ExtendedRequest
getStartTime
legacy
MenuSelectionManager
launchIntent
minimumCapacity
ll1
metricName
##Evt
getActivityOptions
##AndFire
signalAll
##ningRate
getActionCommand
undoStack
vplexURI
phaseY
Simbrain
##ZipFile
notationName
##Sounds
genericDecl
MailAddress
MILLISECOND
standardDeviation
tblName
attachments
##istant
##Weather
XACMLException
##OuterClass
##NotPermittedException
KMLAbstract
##ippets
##Friendly
business
DIGEST
vcl
##Blacklist
MiscType
GZIPOutputStream
mBuffersByLastUse
RegularTimePeriod
ProtectionSystem
##loodlightModule
lhi
writeRawByte
findAndInit
##PowerOfTwo
narrow
Extractor
getFragmentManager
observations
JavaScriptObject
MUTABLE
SYNCHRON
##IRTUAL
ChangelogException
##INSTANCE
setReturnActionF
##ipartiteGraph
##igaSpace
##jkstra
LICEN
##erberos
setReturnActionFordward
Analytics
Cas
CAS
CIP
Ecu
Fact
Gestion
JRadioButton
Left
NB
Pdu
Radio
SENT
YouTube
aName
beg
browse
cbc
covered
dsc
eh
hn
lpi
mind
mPackageName
ostream
pValue
rcs
tbs
yaw
##lg
##land
##sRef
##ident
##VTimer
##FormalParameter
##FUL
##Fish
##Some
##Epsilon
##va
##kelihood
##1Request
##wl
##IOM
##onus
##Pagin
getChange
getDisk
getProp
##atural
voObj
stages
##itCard
infer
##apses
isTerminal
isWithin
##InetAddress
##term
setArray
setEvent
setRole
setPadding
setSummary
addAlias
addUpdateListener
forced
##Rebuild
##StringLiteral
valueMap
valueRequired
resultLen
superType
createParam
createStep
createFolder
createParseException
createConsumer
outOf
stale
writeU
fileWriter
putInteger
removeItem
removeAttributes
##egree
contextPath
onDraw
updateMsg
##lux
ClassInfo
INACTIVE
closeAll
##MethodCall
##Bye
repres
Regression
##ClientConnection
##Stacks
oldPosition
fromIterable
lineCount
##StartOffset
alter
rowData
tagManager
##Boundaries
processId
##REAK
##ACION
[...]
