{
  "version": "1.0",
  "truncation": null,
  "padding": null,
  "added_tokens": [
    {
      "id": 0,
      "special": true,
      "content": "[PAD]",
      "single_word": false,
      "lstrip": false,
      "rstrip": false,
      "normalized": false
    },
    {
      "id": 1,
      "special": true,
      "content": "[UNK]",
      "single_word": false,
      "lstrip": false,
      "rstrip": false,
      "normalized": false
    },
    {
      "id": 2,
      "special": true,
      "content": "[CLS]",
      "single_word": false,
      "lstrip": false,
      "rstrip": false,
      "normalized": false
    },
    {
      "id": 3,
      "special": true,
      "content": "[SEP]",
      "single_word": false,
      "lstrip": false,
      "rstrip": false,
      "normalized": false
    },
    {
      "id": 4,
      "special": true,
      "content": "[MASK]",
      "single_word": false,
      "lstrip": false,
      "rstrip": false,
      "normalized": false
    }
  ],
  "normalizer": {
    "type": "BertNormalizer",
    "clean_text": true,
    "handle_chinese_chars": true,
    "strip_accents": false,
    "lowercase": false
  },
  "pre_tokenizer": {
    "type": "BertPreTokenizer"
  },
  "post_processor": null,
  "decoder": {
    "type": "WordPiece",
    "prefix": "##",
    "cleanup": true
  },
  "model": {
    "type": "WordPiece",
    "unk_token": "[UNK]",
    "continuing_subword_prefix": "##",
    "max_input_chars_per_word": 100,
    "vocab": {
      "[PAD]": 0,
      "[UNK]": 1,
      "[CLS]": 2,
      "[SEP]": 3,
      "[MASK]": 4,
      "!": 5,
      "$": 6,
      "%": 7,
      "&": 8,
      "(": 9,
      ")": 10,
      "*": 11,
      "+": 12,
      ",": 13,
      "-": 14,
      ".": 15,
      "/": 16,
      "0": 17,
      "1": 18,
      "2": 19,
      "3": 20,
      "4": 21,
      "5": 22,
      "6": 23,
      "7": 24,
      "8": 25,
      "9": 26,
      ":": 27,
      ";": 28,
      "<": 29,
      "=": 30,
      ">": 31,
      "?": 32,
      "@": 33,
      "A": 34,
      "B": 35,
      "C": 36,
      "D": 37,
      "E": 38,
      "F": 39,
      "G": 40,
      "H": 41,
      "I": 42,
      "J": 43,
      "K": 44,
      "L": 45,
      "M": 46,
      "N": 47,
      "O": 48,
      "P": 49,
      "Q": 50,
      "R": 51,
      "S": 52,
      "T": 53,
      "U": 54,
      "V": 55,
      "W": 56,
      "X": 57,
      "Y": 58,
      "Z": 59,
      "[": 60,
      "]": 61,
      "^": 62,
      "_": 63,
      "a": 64,
      "b": 65,
      "c": 66,
      "d": 67,
      "e": 68,
      "f": 69,
      "g": 70,
      "h": 71,
      "i": 72,
      "j": 73,
      "k": 74,
      "l": 75,
      "m": 76,
      "n": 77,
      "o": 78,
      "p": 79,
      "q": 80,
      "r": 81,
      "s": 82,
      "t": 83,
      "u": 84,
      "v": 85,
      "w": 86,
      "x": 87,
      "y": 88,
      "z": 89,
      "{": 90,
      "|": 91,
      "}": 92,
      "~": 93,
      "##t": 94,
      "##o": 95,
      "##r": 96,
      "##a": 97,
      "##g": 98,
      "##e": 99,
      "##P": 100,
      "##l": 101,
      "##s": 102,
      "##R": 103,
      "##q": 104,
      "##u": 105,
      "##i": 106,
      "##V": 107,
      "##p": 108,
      "##x": 109,
      "##F": 110,
      "##c": 111,
      "##n": 112,
      "##M": 113,
      "##L": 114,
      "##W": 115,
      "##S": 116,
      "##m": 117,
      "##C": 118,
      "##h": 119,
      "##d": 120,
      "##T": 121,
      "##y": 122,
      "##E": 123,
      "##J": 124,
      "##b": 125,
      "##v": 126,
      "##Z": 127,
      "##D": 128,
      "##A": 129,
      "##f": 130,
      "##U": 131,
      "##N": 132,
      "##Q": 133,
      "##z": 134,
      "##k": 135,
      "##1": 136,
      "##B": 137,
      "##H": 138,
      "##5": 139,
      "##2": 140,
      "##w": 141,
      "##O": 142,
      "##K": 143,
      "##I": 144,
      "##G": 145,
      "##3": 146,
      "##j": 147,
      "##X": 148,
      "##Y": 149,
      "##4": 150,
      "##0": 151,
      "##6": 152,
      "##8": 153,
      "##7": 154,
      "##9": 155,
      "##or": 156,
      "##ra": 157,
      "##rat": 158,
      "##rator": 159,
      "##arator": 160,
      "##ep": 161,
      "##eparator": 162,
      "Separator": 163,
      "##er": 164,
      "##en": 165,
      "##ti": 166,
      "##fi": 167,
      "##fier": 168,
      "##den": 169,
      "##denti": 170,
      "##dentifier": 171,
      "Identifier": 172,
      "##pe": 173,
      "##et": 174,
      "##al": 175,
      "Ope": 176,
      "Operator": 177,
      "##on": 178,
      "##Pa": 179,
      "##ey": 180,
      "##ord": 181,
      "##ram": 182,
      "##word": 183,
      "Key": 184,
      "Keyword": 185,
      "##eter": 186,
      "##Param": 187,
      "##orm": 188,
      "##Parameter": 189,
      "##ormal": 190,
      "##ormalParameter": 191,
      "FormalParameter": 192,
      "##ec": 193,
      "##ype": 194,
      "##od": 195,
      "##Type": 196,
      "##ri": 197,
      "##le": 198,
      "##Dec": 199,
      "##Decl": 200,
      "##ce": 201,
      "##ef": 202,
      "##ic": 203,
      "##ence": 204,
      "##efer": 205,
      "##eference": 206,
      "Reference": 207,
      "ReferenceType": 208,
      "##as": 209,
      "##ble": 210,
      "##ion": 211,
      "##te": 212,
      "##odi": 213,
      "##odifier": 214,
      "Modifier": 215,
      "##able": 216,
      "##ration": 217,
      "##ta": 218,
      "##Decla": 219,
      "##Declaration": 220,
      "##tion": 221,
      "##eth": 222,
      "##ethod": 223,
      "##ari": 224,
      "##ariable": 225,
      "Variable": 226,
      "VariableDecl": 227,
      "VariableDeclarator": 228,
      "##es": 229,
      "##ul": 230,
      "Method": 231,
      "MethodDeclaration": 232,
      "##ng": 233,
      "##ur": 234,
      "##nt": 235,
      "Bas": 236,
      "Basic": 237,
      "BasicType": 238,
      "##ull": 239,
      "##is": 240,
      "##ub": 241,
      "##tri": 242,
      "##lic": 243,
      "##ro": 244,
      "##ublic": 245,
      "public": 246,
      "##ent": 247,
      "ret": 248,
      "##urn": 249,
      "return": 250,
      "##in": 251,
      "##tring": 252,
      "get": 253,
      "ST": 254,
      "##UM": 255,
      "NUM": 256,
      "STR": 257,
      "th": 258,
      "##ew": 259,
      "if": 260,
      "##am": 261,
      "##an": 262,
      "##id": 263,
      "String": 264,
      "new": 265,
      "##re": 266,
      "int": 267,
      "##at": 268,
      "##ate": 269,
      "##ar": 270,
      "##ut": 271,
      "Null": 272,
      "null": 273,
      "##el": 274,
      "##Ex": 275,
      "##ue": 276,
      "vo": 277,
      "##tor": 278,
      "##cep": 279,
      "##ment": 280,
      "##oo": 281,
      "void": 282,
      "##ed": 283,
      "##ception": 284,
      "##ame": 285,
      "##ag": 286,
      "this": 287,
      "##nn": 288,
      "##tation": 289,
      "##ist": 290,
      "##th": 291,
      "sta": 292,
      "##st": 293,
      "##otation": 294,
      "##nnotation": 295,
      "##nd": 296,
      "##ex": 297,
      "##ch": 298,
      "##il": 299,
      "##alue": 300,
      "##ou": 301,
      "Annotation": 302,
      "##Exception": 303,
      "##se": 304,
      "##ess": 305,
      "##row": 306,
      "##ad": 307,
      "##it": 308,
      "##inal": 309,
      "throw": 310,
      "##oc": 311,
      "##mp": 312,
      "##ect": 313,
      "##ode": 314,
      "final": 315,
      "##ile": 316,
      "##tic": 317,
      "##OL": 318,
      "##lean": 319,
      "##ol": 320,
      "##iz": 321,
      "##oolean": 322,
      "in": 323,
      "##bj": 324,
      "BO": 325,
      "re": 326,
      "BOOL": 327,
      "##ap": 328,
      "is": 329,
      "##dd": 330,
      "##age": 331,
      "##In": 332,
      "##ter": 333,
      "static": 334,
      "boolean": 335,
      "##ctor": 336,
      "##Con": 337,
      "Con": 338,
      "##qu": 339,
      "##Name": 340,
      "##ir": 341,
      "##up": 342,
      "##um": 343,
      "##lement": 344,
      "con": 345,
      "pri": 346,
      "##bject": 347,
      "##Value": 348,
      "##ry": 349,
      "##est": 350,
      "##ver": 351,
      "##ata": 352,
      "##im": 353,
      "set": 354,
      "pro": 355,
      "##ff": 356,
      "##ult": 357,
      "##ru": 358,
      "##ass": 359,
      "##lo": 360,
      "add": 361,
      "res": 362,
      "##ing": 363,
      "##ig": 364,
      "##eng": 365,
      "##ength": 366,
      "##List": 367,
      "##ted": 368,
      "##ss": 369,
      "##ext": 370,
      "throws": 371,
      "ch": 372,
      "##stru": 373,
      "##lass": 374,
      "##yte": 375,
      "to": 376,
      "##end": 377,
      "##Sta": 378,
      "##ty": 379,
      "##og": 380,
      "##ve": 381,
      "##ize": 382,
      "##ild": 383,
      "##structor": 384,
      "Constructor": 385,
      "ConstructorDeclaration": 386,
      "##ation": 387,
      "##vate": 388,
      "for": 389,
      "##xt": 390,
      "##om": 391,
      "length": 392,
      "##Pro": 393,
      "##ck": 394,
      "##tem": 395,
      "private": 396,
      "##To": 397,
      "##Id": 398,
      "##ress": 399,
      "##ndex": 400,
      "##ray": 401,
      "##rray": 402,
      "##pp": 403,
      "##Re": 404,
      "##put": 405,
      "##atch": 406,
      "##String": 407,
      "##bu": 408,
      "##ow": 409,
      "el": 410,
      "else": 411,
      "##os": 412,
      "value": 413,
      "##St": 414,
      "##our": 415,
      "##and": 416,
      "##sta": 417,
      "##omp": 418,
      "##rg": 419,
      "##essage": 420,
      "##ouble": 421,
      "##Ch": 422,
      "##ase": 423,
      "##Bu": 424,
      "##ers": 425,
      "##ource": 426,
      "##vi": 427,
      "ex": 428,
      "##ream": 429,
      "##int": 430,
      "##Res": 431,
      "##nce": 432,
      "##text": 433,
      "Object": 434,
      "##ection": 435,
      "bu": 436,
      "##ount": 437,
      "##ay": 438,
      "##ns": 439,
      "name": 440,
      "Element": 441,
      "##rt": 442,
      "##ong": 443,
      "byte": 444,
      "has": 445,
      "##de": 446,
      "##reate": 447,
      "##ser": 448,
      "##ction": 449,
      "##als": 450,
      "##ffer": 451,
      "result": 452,
      "##ger": 453,
      "##Pair": 454,
      "double": 455,
      "##per": 456,
      "sup": 457,
      "app": 458,
      "##Data": 459,
      "##stance": 460,
      "##ort": 461,
      "##ected": 462,
      "##ock": 463,
      "##ace": 464,
      "##ime": 465,
      "##tribu": 466,
      "##ader": 467,
      "##ON": 468,
      "##ValuePair": 469,
      "super": 470,
      "##Stream": 471,
      "##us": 472,
      "##quest": 473,
      "create": 474,
      "##ument": 475,
      "ElementValuePair": 476,
      "try": 477,
      "##Set": 478,
      "##File": 479,
      "##rr": 480,
      "##vent": 481,
      "key": 482,
      "Type": 483,
      "##At": 484,
      "##un": 485,
      "##Node": 486,
      "##ER": 487,
      "##iew": 488,
      "##li": 489,
      "##mo": 490,
      "##quals": 491,
      "In": 492,
      "##ine": 493,
      "catch": 494,
      "par": 495,
      "##tribute": 496,
      "##ang": 497,
      "##ene": 498,
      "##ot": 499,
      "##verri": 500,
      "##eld": 501,
      "##ax": 502,
      "##ert": 503,
      "##verride": 504,
      "##Key": 505,
      "##ind": 506,
      "##ield": 507,
      "##ener": 508,
      "wri": 509,
      "Override": 510,
      "##ys": 511,
      "size": 512,
      "out": 513,
      "##Ser": 514,
      "##ity": 515,
      "##igh": 516,
      "##ilder": 517,
      "##rent": 518,
      "##fig": 519,
      "log": 520,
      "##ntry": 521,
      "append": 522,
      "##ath": 523,
      "##fo": 524,
      "##Map": 525,
      "##ab": 526,
      "st": 527,
      "##vice": 528,
      "##ll": 529,
      "##ct": 530,
      "##ition": 531,
      "##En": 532,
      "##State": 533,
      "##oint": 534,
      "index": 535,
      "##Object": 536,
      "##gress": 537,
      "IO": 538,
      "##op": 539,
      "##rror": 540,
      "##ystem": 541,
      "data": 542,
      "##cess": 543,
      "##ure": 544,
      "##set": 545,
      "prot": 546,
      "cur": 547,
      "##Class": 548,
      "##ber": 549,
      "##Index": 550,
      "long": 551,
      "##ack": 552,
      "##til": 553,
      "##ost": 554,
      "##Int": 555,
      "##rans": 556,
      "IOException": 557,
      "##Element": 558,
      "TypeParameter": 559,
      "start": 560,
      "##ector": 561,
      "##ight": 562,
      "protected": 563,
      "List": 564,
      "##ption": 565,
      "##ool": 566,
      "class": 567,
      "Ex": 568,
      "ass": 569,
      "##em": 570,
      "##yn": 571,
      "write": 572,
      "val": 573,
      "remo": 574,
      "##av": 575,
      "##pd": 576,
      "##putStream": 577,
      "pre": 578,
      "equals": 579,
      "##Size": 580,
      "en": 581,
      "##Time": 582,
      "##loat": 583,
      "##eck": 584,
      "file": 585,
      "##Array": 586,
      "hash": 587,
      "##anag": 588,
      "type": 589,
      "put": 590,
      "##pdate": 591,
      "##ken": 592,
      "##tt": 593,
      "toString": 594,
      "##Of": 595,
      "##AT": 596,
      "##ph": 597,
      "message": 598,
      "##ormat": 599,
      "next": 600,
      "##uer": 601,
      "##Fa": 602,
      "File": 603,
      "##pon": 604,
      "method": 605,
      "list": 606,
      "read": 607,
      "##Path": 608,
      "##Arg": 609,
      "##Message": 610,
      "assert": 611,
      "remove": 612,
      "sh": 613,
      "##uery": 614,
      "##ffset": 615,
      "char": 616,
      "##ound": 617,
      "##leg": 618,
      "##Event": 619,
      "##ach": 620,
      "##anager": 621,
      "##ES": 622,
      "##Util": 623,
      "##ast": 624,
      "pa": 625,
      "##ponse": 626,
      "##eg": 627,
      "##rom": 628,
      "##ames": 629,
      "##Builder": 630,
      "##RI": 631,
      "##teger": 632,
      "##tain": 633,
      "##View": 634,
      "##ler": 635,
      "##cri": 636,
      "##Listener": 637,
      "##Col": 638,
      "##ues": 639,
      "##ml": 640,
      "##ak": 641,
      "comp": 642,
      "##umber": 643,
      "id": 644,
      "##Text": 645,
      "##lient": 646,
      "##Manager": 647,
      "##ge": 648,
      "instance": 649,
      "##ocal": 650,
      "##pace": 651,
      "##Info": 652,
      "##ator": 653,
      "##Count": 654,
      "##Byte": 655,
      "float": 656,
      "##Val": 657,
      "print": 658,
      "node": 659,
      "##riter": 660,
      "gene": 661,
      "##Comp": 662,
      "col": 663,
      "##efa": 664,
      "case": 665,
      "##Ac": 666,
      "current": 667,
      "Exception": 668,
      "##ith": 669,
      "##ign": 670,
      "##ial": 671,
      "##out": 672,
      "##pec": 673,
      "##ly": 674,
      "##abel": 675,
      "##Context": 676,
      "context": 677,
      "##He": 678,
      "##IN": 679,
      "arg": 680,
      "on": 681,
      "##iti": 682,
      "##legal": 683,
      "##roup": 684,
      "##llegal": 685,
      "##get": 686,
      "##efault": 687,
      "##Buffer": 688,
      "generat": 689,
      "##odel": 690,
      "##Attribute": 691,
      "System": 692,
      "##ID": 693,
      "##mpl": 694,
      "wh": 695,
      "##ctory": 696,
      "##ail": 697,
      "##perty": 698,
      "##ask": 699,
      "##Argument": 700,
      "##ersion": 701,
      "##mage": 702,
      "##Out": 703,
      "##OR": 704,
      "##ized": 705,
      "##ree": 706,
      "Illegal": 707,
      "##all": 708,
      "##ilter": 709,
      "##Request": 710,
      "max": 711,
      "##lock": 712,
      "##ip": 713,
      "update": 714,
      "##sion": 715,
      "check": 716,
      "##ain": 717,
      "##tent": 718,
      "##Code": 719,
      "##fix": 720,
      "##EN": 721,
      "de": 722,
      "pos": 723,
      "##Config": 724,
      "##ange": 725,
      "##rl": 726,
      "Array": 727,
      "##of": 728,
      "##AL": 729,
      "##Hand": 730,
      "element": 731,
      "DS": 732,
      "##tus": 733,
      "##ash": 734,
      "array": 735,
      "##Service": 736,
      "sub": 737,
      "getS": 738,
      "##terator": 739,
      "##lu": 740,
      "##ache": 741,
      "##val": 742,
      "##arget": 743,
      "##bug": 744,
      "##omm": 745,
      "##nection": 746,
      "test": 747,
      "##ocument": 748,
      "##Add": 749,
      "ser": 750,
      "##ore": 751,
      "##rig": 752,
      "##ron": 753,
      "##ill": 754,
      "##tity": 755,
      "##read": 756,
      "##ST": 757,
      "##ule": 758,
      "##one": 759,
      "##ting": 760,
      "##lay": 761,
      "##Item": 762,
      "##form": 763,
      "##itor": 764,
      "##Null": 765,
      "while": 766,
      "##LE": 767,
      "##raph": 768,
      "##idth": 769,
      "##Point": 770,
      "count": 771,
      "##are": 772,
      "he": 773,
      "sc": 774,
      "param": 775,
      "jav": 776,
      "##Instance": 777,
      "##Factory": 778,
      "end": 779,
      "##tive": 780,
      "##sg": 781,
      "##ION": 782,
      "##ld": 783,
      "##ork": 784,
      "progress": 785,
      "##lose": 786,
      "tool": 787,
      "##De": 788,
      "##uration": 789,
      "##Writer": 790,
      "##der": 791,
      "##Sc": 792,
      "##ttribute": 793,
      "instanceof": 794,
      "Class": 795,
      "##AG": 796,
      "field": 797,
      "##Utils": 798,
      "##Pos": 799,
      "##ession": 800,
      "request": 801,
      "buffer": 802,
      "syn": 803,
      "##onent": 804,
      "##oot": 805,
      "##ArgumentException": 806,
      "del": 807,
      "##fic": 808,
      "##For": 809,
      "##Th": 810,
      "##ties": 811,
      "text": 812,
      "generated": 813,
      "contain": 814,
      "##Field": 815,
      "ac": 816,
      "source": 817,
      "##oad": 818,
      "##ac": 819,
      "##ute": 820,
      "##All": 821,
      "##opy": 822,
      "##Not": 823,
      "error": 824,
      "##mpty": 825,
      "my": 826,
      "entry": 827,
      "##ear": 828,
      "##ocation": 829,
      "##Host": 830,
      "Integer": 831,
      "Map": 832,
      "##Result": 833,
      "num": 834,
      "min": 835,
      "##ete": 836,
      "Col": 837,
      "IN": 838,
      "##nel": 839,
      "IllegalArgumentException": 840,
      "##AR": 841,
      "Bu": 842,
      "##chron": 843,
      "##ard": 844,
      "##Progress": 845,
      "xml": 846,
      "##vid": 847,
      "##umn": 848,
      "##Token": 849,
      "parent": 850,
      "map": 851,
      "##Error": 852,
      "args": 853,
      "cl": 854,
      "##Dir": 855,
      "offset": 856,
      "child": 857,
      "close": 858,
      "##ite": 859,
      "##Label": 860,
      "ext": 861,
      "##lection": 862,
      "##escri": 863,
      "##reak": 864,
      "##irst": 865,
      "dis": 866,
      "un": 867,
      "##Sh": 868,
      "##Bytes": 869,
      "##AM": 870,
      "##Log": 871,
      "##ink": 872,
      "##chronized": 873,
      "##erm": 874,
      "##Entry": 875,
      "##amespace": 876,
      "##Handler": 877,
      "##upp": 878,
      "##ary": 879,
      "##Format": 880,
      "##ject": 881,
      "##ED": 882,
      "item": 883,
      "path": 884,
      "state": 885,
      "Pro": 886,
      "synchronized": 887,
      "##Method": 888,
      "##Number": 889,
      "##By": 890,
      "Th": 891,
      "obj": 892,
      "Node": 893,
      "##Resource": 894,
      "Math": 895,
      "##vel": 896,
      "rep": 897,
      "Re": 898,
      "Ch": 899,
      "##Client": 900,
      "##gist": 901,
      "##raw": 902,
      "##Model": 903,
      "orig": 904,
      "##Un": 905,
      "##Trans": 906,
      "msg": 907,
      "##Pre": 908,
      "op": 909,
      "##Table": 910,
      "Log": 911,
      "##IT": 912,
      "##ual": 913,
      "##Empty": 914,
      "break": 915,
      "parse": 916,
      "##Dis": 917,
      "##Gene": 918,
      "##With": 919,
      "##back": 920,
      "sb": 921,
      "##Query": 922,
      "ArrayList": 923,
      "##ous": 924,
      "##tore": 925,
      "##Stack": 926,
      "##ln": 927,
      "##nal": 928,
      "##Property": 929,
      "##stant": 930,
      "enc": 931,
      "##Child": 932,
      "##Tra": 933,
      "version": 934,
      "##stra": 935,
      "##And": 936,
      "##vider": 937,
      "##uth": 938,
      "##tiv": 939,
      "len": 940,
      "values": 941,
      "input": 942,
      "##perties": 943,
      "##Group": 944,
      "##Line": 945,
      "##From": 946,
      "##Par": 947,
      "sel": 948,
      "attribute": 949,
      "##Length": 950,
      "java": 951,
      "target": 952,
      "##Inter": 953,
      "##Rec": 954,
      "find": 955,
      "Int": 956,
      "debug": 957,
      "##evel": 958,
      "##Response": 959,
      "##ther": 960,
      "config": 961,
      "##its": 962,
      "println": 963,
      "contains": 964,
      "##abled": 965,
      "##Sel": 966,
      "##ttp": 967,
      "##ire": 968,
      "event": 969,
      "##ension": 970,
      "##tim": 971,
      "##ML": 972,
      "##On": 973,
      "format": 974,
      "##Exp": 975,
      "##Tag": 976,
      "##CT": 977,
      "##ayout": 978,
      "##ean": 979,
      "##Rep": 980,
      "DE": 981,
      "Res": 982,
      "trans": 983,
      "user": 984,
      "getName": 985,
      "##own": 986,
      "##Address": 987,
      "doc": 988,
      "##son": 989,
      "##itial": 990,
      "old": 991,
      "##ark": 992,
      "info": 993,
      "##Status": 994,
      "##Generator": 995,
      "##lear": 996,
      "default": 997,
      "##Ed": 998,
      "object": 999,
      "##roll": 1000,
      "##Impl": 1001,
      "last": 1002,
      "load": 1003,
      "pr": 1004,
      "url": 1005,
      "##Pr": 1006,
      "##RL": 1007,
      "rec": 1008,
      "att": 1009,
      "from": 1010,
      "##oti": 1011,
      "##AN": 1012,
      "previ": 1013,
      "##Al": 1014,
      "line": 1015,
      "str": 1016,
      "LO": 1017,
      "##Source": 1018,
      "original": 1019,
      "##Action": 1020,
      "other": 1021,
      "##tivity": 1022,
      "##rag": 1023,
      "##earch": 1024,
      "##Start": 1025,
      "myHost": 1026,
      "##atri": 1027,
      "##Next": 1028,
      "getD": 1029,
      "##atrix": 1030,
      "Ser": 1031,
      "exp": 1032,
      "##eed": 1033,
      "##Char": 1034,
      "Comp": 1035,
      "##ook": 1036,
      "##Ope": 1037,
      "##low": 1038,
      "##Equals": 1039,
      "##ple": 1040,
      "getC": 1041,
      "clear": 1042,
      "##if": 1043,
      "##Pri": 1044,
      "##Filter": 1045,
      "buf": 1046,
      "##UL": 1047,
      "##ptions": 1048,
      "##Enabled": 1049,
      "##ond": 1050,
      "##Or": 1051,
      "##ume": 1052,
      "##name": 1053,
      "##rame": 1054,
      "##AX": 1055,
      "##idate": 1056,
      "hand": 1057,
      "##ara": 1058,
      "Sta": 1059,
      "##Values": 1060,
      "logger": 1061,
      "##ature": 1062,
      "##ommand": 1063,
      "Big": 1064,
      "##ts": 1065,
      "previous": 1066,
      "string": 1067,
      "##lace": 1068,
      "al": 1069,
      "##ENT": 1070,
      "##ia": 1071,
      "isEmpty": 1072,
      "##ner": 1073,
      "##Image": 1074,
      "sp": 1075,
      "##let": 1076,
      "##rc": 1077,
      "##Offset": 1078,
      "##Reader": 1079,
      "##Connection": 1080,
      "##gor": 1081,
      "prefix": 1082,
      "##unction": 1083,
      "##econd": 1084,
      "##ET": 1085,
      "##ender": 1086,
      "StringBuilder": 1087,
      "##Entity": 1088,
      "response": 1089,
      "row": 1090,
      "first": 1091,
      "dec": 1092,
      "init": 1093,
      "##eft": 1094,
      "##torage": 1095,
      "##odes": 1096,
      "view": 1097,
      "Byte": 1098,
      "##use": 1099,
      "##ale": 1100,
      "##ression": 1101,
      "##End": 1102,
      "##Content": 1103,
      "##orted": 1104,
      "##gn": 1105,
      "##OM": 1106,
      "##nim": 1107,
      "##SON": 1108,
      "##User": 1109,
      "##andom": 1110,
      "stream": 1111,
      "##OD": 1112,
      "Collection": 1113,
      "##arn": 1114,
      "##chem": 1115,
      "namespace": 1116,
      "##ance": 1117,
      "Hash": 1118,
      "assertEquals": 1119,
      "Set": 1120,
      "exec": 1121,
      "##Header": 1122,
      "token": 1123,
      "Data": 1124,
      "##con": 1125,
      "query": 1126,
      "te": 1127,
      "##af": 1128,
      "##Color": 1129,
      "local": 1130,
      "##Case": 1131,
      "##Spec": 1132,
      "##tern": 1133,
      "##rowable": 1134,
      "##Server": 1135,
      "tag": 1136,
      "##fin": 1137,
      "##sh": 1138,
      "getL": 1139,
      "output": 1140,
      "##ton": 1141,
      "show": 1142,
      "##ueue": 1143,
      "delete": 1144,
      "sw": 1145,
      "##Test": 1146,
      "##tin": 1147,
      "fl": 1148,
      "##Component": 1149,
      "##Width": 1150,
      "##utton": 1151,
      "##Cache": 1152,
      "##Position": 1153,
      "##URI": 1154,
      "bytes": 1155,
      "##pected": 1156,
      "ID": 1157,
      "##dap": 1158,
      "##ESS": 1159,
      "##tyle": 1160,
      "##time": 1161,
      "##IC": 1162,
      "##etw": 1163,
      "listener": 1164,
      "##ies": 1165,
      "##EM": 1166,
      "##InputStream": 1167,
      "##ectory": 1168,
      "En": 1169,
      "initial": 1170,
      "match": 1171,
      "time": 1172,
      "##Op": 1173,
      "##Descri": 1174,
      "##AS": 1175,
      "##UT": 1176,
      "Throwable": 1177,
      "##PE": 1178,
      "##gister": 1179,
      "##sor": 1180,
      "##map": 1181,
      "##Block": 1182,
      "getM": 1183,
      "##fication": 1184,
      "##OutputStream": 1185,
      "##Bound": 1186,
      "##ated": 1187,
      "##ialog": 1188,
      "##stants": 1189,
      "process": 1190,
      "width": 1191,
      "##Integer": 1192,
      "##RE": 1193,
      "##older": 1194,
      "filter": 1195,
      "tra": 1196,
      "##bs": 1197,
      "Boolean": 1198,
      "##Ext": 1199,
      "##pper": 1200,
      "##Read": 1201,
      "LOG": 1202,
      "build": 1203,
      "##Date": 1204,
      "##acity": 1205,
      "##etwork": 1206,
      "##Sub": 1207,
      "##indow": 1208,
      "##Row": 1209,
      "DSGenerator": 1210,
      "##Mode": 1211,
      "table": 1212,
      "##ample": 1213,
      "##Thread": 1214,
      "content": 1215,
      "##Provider": 1216,
      "##urrent": 1217,
      "##AC": 1218,
      "##ause": 1219,
      "dir": 1220,
      "resource": 1221,
      "##allback": 1222,
      "root": 1223,
      "Double": 1224,
      "##cter": 1225,
      "##ib": 1226,
      "JSON": 1227,
      "subs": 1228,
      "##aracter": 1229,
      "##equ": 1230,
      "##QL": 1231,
      "inter": 1232,
      "copy": 1233,
      "##Cap": 1234,
      "##Valid": 1235,
      "##ren": 1236,
      "##ole": 1237,
      "client": 1238,
      "run": 1239,
      "group": 1240,
      "##Vis": 1241,
      "##pt": 1242,
      "##illis": 1243,
      "##itch": 1244,
      "##Ref": 1245,
      "##RR": 1246,
      "##Height": 1247,
      "params": 1248,
      "do": 1249,
      "##ave": 1250,
      "getA": 1251,
      "Http": 1252,
      "##AGE": 1253,
      "ed": 1254,
      "##mple": 1255,
      "##Met": 1256,
      "##Operation": 1257,
      "##AME": 1258,
      "##equence": 1259,
      "##ngle": 1260,
      "sk": 1261,
      "##ible": 1262,
      "##oader": 1263,
      "##Version": 1264,
      "##ke": 1265,
      "##ings": 1266,
      "##ING": 1267,
      "height": 1268,
      "##Prefix": 1269,
      "##annel": 1270,
      "uri": 1271,
      "##ox": 1272,
      "iterator": 1273,
      "##Port": 1274,
      "writer": 1275,
      "image": 1276,
      "expected": 1277,
      "column": 1278,
      "##Change": 1279,
      "##enu": 1280,
      "##Trace": 1281,
      "previousProgress": 1282,
      "##uc": 1283,
      "##omment": 1284,
      "position": 1285,
      "##Del": 1286,
      "Document": 1287,
      "extend": 1288,
      "##izer": 1289,
      "vis": 1290,
      "##ape": 1291,
      "Context": 1292,
      "##action": 1293,
      "##ush": 1294,
      "##mplate": 1295,
      "##untime": 1296,
      "##tal": 1297,
      "##itmap": 1298,
      "##ake": 1299,
      "##Enc": 1300,
      "##load": 1301,
      "##rid": 1302,
      "##Task": 1303,
      "##Names": 1304,
      "builder": 1305,
      "##Configuration": 1306,
      "##itle": 1307,
      "##dapter": 1308,
      "##res": 1309,
      "##As": 1310,
      "RE": 1311,
      "##layer": 1312,
      "db": 1313,
      "##ix": 1314,
      "##olic": 1315,
      "##Cont": 1316,
      "##ulti": 1317,
      "send": 1318,
      "##ide": 1319,
      "##Tree": 1320,
      "##Process": 1321,
      "##aw": 1322,
      "##odule": 1323,
      "lang": 1324,
      "##sed": 1325,
      "as": 1326,
      "##ant": 1327,
      "base": 1328,
      "##Hash": 1329,
      "##ptor": 1330,
      "##ob": 1331,
      "##pi": 1332,
      "##UE": 1333,
      "##Panel": 1334,
      "src": 1335,
      "Ac": 1336,
      "##Url": 1337,
      "attr": 1338,
      "##tr": 1339,
      "##gin": 1340,
      "##ved": 1341,
      "##ocket": 1342,
      "##ragment": 1343,
      "##ud": 1344,
      "##Layout": 1345,
      "Long": 1346,
      "URI": 1347,
      "##Long": 1348,
      "##chema": 1349,
      "##Access": 1350,
      "des": 1351,
      "##oord": 1352,
      "##Pack": 1353,
      "##ative": 1354,
      "session": 1355,
      "finally": 1356,
      "##Session": 1357,
      "stack": 1358,
      "##OT": 1359,
      "getClass": 1360,
      "XML": 1361,
      "##unn": 1362,
      "action": 1363,
      "##play": 1364,
      "##Update": 1365,
      "##oding": 1366,
      "##erException": 1367,
      "##ive": 1368,
      "draw": 1369,
      "##System": 1370,
      "##lication": 1371,
      "Date": 1372,
      "##Mem": 1373,
      "##ULT": 1374,
      "##olicy": 1375,
      "View": 1376,
      "getMessage": 1377,
      "extends": 1378,
      "##Properties": 1379,
      "##Graph": 1380,
      "##ym": 1381,
      "##ody": 1382,
      "##egment": 1383,
      "##ecu": 1384,
      "##Column": 1385,
      "##ndle": 1386,
      "##ename": 1387,
      "##Store": 1388,
      "##AD": 1389,
      "##face": 1390,
      "Vector": 1391,
      "##imple": 1392,
      "##Params": 1393,
      "##erti": 1394,
      "Trans": 1395,
      "##Document": 1396,
      "##Lock": 1397,
      "##Input": 1398,
      "##Location": 1399,
      "conver": 1400,
      "point": 1401,
      "##YPE": 1402,
      "getR": 1403,
      "service": 1404,
      "##Millis": 1405,
      "##Parent": 1406,
      "##Attributes": 1407,
      "##imit": 1408,
      "##Hel": 1409,
      "##ization": 1410,
      "host": 1411,
      "conn": 1412,
      "##cy": 1413,
      "model": 1414,
      "##tings": 1415,
      "##ne": 1416,
      "TAG": 1417,
      "org": 1418,
      "##Constants": 1419,
      "##Check": 1420,
      "##ission": 1421,
      "getValue": 1422,
      "##Button": 1423,
      "Local": 1424,
      "Entry": 1425,
      "##Supp": 1426,
      "##straint": 1427,
      "##Chang": 1428,
      "left": 1429,
      "inc": 1430,
      "##Bean": 1431,
      "main": 1432,
      "##ists": 1433,
      "##ps": 1434,
      "##NotNull": 1435,
      "cal": 1436,
      "##rue": 1437,
      "getString": 1438,
      "##imension": 1439,
      "##fy": 1440,
      "##Sp": 1441,
      "##base": 1442,
      "InputStream": 1443,
      "##Pool": 1444,
      "register": 1445,
      "##ell": 1446,
      "reader": 1447,
      "getN": 1448,
      "top": 1449,
      "##ee": 1450,
      "##Te": 1451,
      "connection": 1452,
      "fa": 1453,
      "xmlWriter": 1454,
      "number": 1455,
      "##rite": 1456,
      "##Back": 1457,
      "##tainer": 1458,
      "##AP": 1459,
      "##UI": 1460,
      "##ility": 1461,
      "##Reference": 1462,
      "##RO": 1463,
      "##Vector": 1464,
      "##Parser": 1465,
      "execute": 1466,
      "block": 1467,
      "##ql": 1468,
      "Inter": 1469,
      "Pr": 1470,
      "##gnore": 1471,
      "replace": 1472,
      "SQL": 1473,
      "##ove": 1474,
      "##App": 1475,
      "label": 1476,
      "dest": 1477,
      "DEF": 1478,
      "##Per": 1479,
      "##ries": 1480,
      "server": 1481,
      "status": 1482,
      "SY": 1483,
      "##Loader": 1484,
      "task": 1485,
      "##Variable": 1486,
      "##point": 1487,
      "##ust": 1488,
      "##ATE": 1489,
      "clone": 1490,
      "hasNext": 1491,
      "##edia": 1492,
      "substring": 1493,
      "getF": 1494,
      "BigInteger": 1495,
      "handle": 1496,
      "##lit": 1497,
      "getInstance": 1498,
      "reset": 1499,
      "##Defin": 1500,
      "##Base": 1501,
      "##ower": 1502,
      "##imes": 1503,
      "##gion": 1504,
      "##ral": 1505,
      "VAL": 1506,
      "##az": 1507,
      "cache": 1508,
      "##True": 1509,
      "##Match": 1510,
      "##eners": 1511,
      "##rim": 1512,
      "##ait": 1513,
      "switch": 1514,
      "##Sign": 1515,
      "##Local": 1516,
      "##ATION": 1517,
      "##untimeException": 1518,
      "##Target": 1519,
      "##ages": 1520,
      "##quire": 1521,
      "##bstra": 1522,
      "##odu": 1523,
      "##2D": 1524,
      "right": 1525,
      "sign": 1526,
      "temp": 1527,
      "##ermission": 1528,
      "##ie": 1529,
      "CON": 1530,
      "##ope": 1531,
      "##eb": 1532,
      "##Get": 1533,
      "parameter": 1534,
      "Pa": 1535,
      "##line": 1536,
      "##ics": 1537,
      "##bstract": 1538,
      "##Level": 1539,
      "##Capacity": 1540,
      "TYPE": 1541,
      "##IS": 1542,
      "##Iterator": 1543,
      "##wner": 1544,
      "charAt": 1545,
      "##lugin": 1546,
      "##ish": 1547,
      "##AULT": 1548,
      "SM": 1549,
      "##vlet": 1550,
      "StringBuffer": 1551,
      "##EL": 1552,
      "##rou": 1553,
      "updateProgress": 1554,
      "##dentity": 1555,
      "property": 1556,
      "##Elements": 1557,
      "Buffer": 1558,
      "Iterator": 1559,
      "MESS": 1560,
      "##IL": 1561,
      "port": 1562,
      "DEFAULT": 1563,
      "can": 1564,
      "##otification": 1565,
      "ERR": 1566,
      "Par": 1567,
      "##ategor": 1568,
      "##ont": 1569,
      "##Function": 1570,
      "##IM": 1571,
      "MESSAGE": 1572,
      "##file": 1573,
      "##sWith": 1574,
      "progressLabel": 1575,
      "St": 1576,
      "##Directory": 1577,
      "ref": 1578,
      "ct": 1579,
      "generate": 1580,
      "it": 1581,
      "##Dialog": 1582,
      "##ilename": 1583,
      "##Activity": 1584,
      "##Types": 1585,
      "##count": 1586,
      "code": 1587,
      "##ertific": 1588,
      "##imal": 1589,
      "##ertificate": 1590,
      "##Descriptor": 1591,
      "##xy": 1592,
      "##Bounds": 1593,
      "##Found": 1594,
      "##Warn": 1595,
      "ver": 1596,
      "##rol": 1597,
      "Rec": 1598,
      "##PT": 1599,
      "##URL": 1600,
      "entity": 1601,
      "##led": 1602,
      "##Remo": 1603,
      "##ati": 1604,
      "com": 1605,
      "hashCode": 1606,
      "compare": 1607,
      "cause": 1608,
      "##valid": 1609,
      "NAME": 1610,
      "##Matrix": 1611,
      "##Pane": 1612,
      "all": 1613,
      "##vo": 1614,
      "##rity": 1615,
      "##Definition": 1616,
      "date": 1617,
      "##red": 1618,
      "##Frame": 1619,
      "##tance": 1620,
      "##Auth": 1621,
      "##StackTrace": 1622,
      "##Record": 1623,
      "##lem": 1624,
      "##ags": 1625,
      "##resh": 1626,
      "##ping": 1627,
      "##Sequence": 1628,
      "address": 1629,
      "##unk": 1630,
      "##fied": 1631,
      "##ync": 1632,
      "DSC": 1633,
      "##Fl": 1634,
      "##Helper": 1635,
      "##lust": 1636,
      "##AB": 1637,
      "SI": 1638,
      "##sert": 1639,
      "Char": 1640,
      "##afe": 1641,
      "##Unit": 1642,
      "with": 1643,
      "Supp": 1644,
      "##ick": 1645,
      "##ric": 1646,
      "lock": 1647,
      "met": 1648,
      "Builder": 1649,
      "color": 1650,
      "javax": 1651,
      "or": 1652,
      "##rup": 1653,
      "##attern": 1654,
      "MAX": 1655,
      "##lan": 1656,
      "convert": 1657,
      "di": 1658,
      "##Range": 1659,
      "URL": 1660,
      "##Su": 1661,
      "Sh": 1662,
      "assertTrue": 1663,
      "pack": 1664,
      "validate": 1665,
      "Request": 1666,
      "##cript": 1667,
      "##rapper": 1668,
      "##etail": 1669,
      "##utable": 1670,
      "Graph": 1671,
      "##xis": 1672,
      "##Output": 1673,
      "##ntries": 1674,
      "##STEM": 1675,
      "##roller": 1676,
      "valueOf": 1677,
      "io": 1678,
      "RuntimeException": 1679,
      "##ces": 1680,
      "Text": 1681,
      "##Changed": 1682,
      "##tom": 1683,
      "head": 1684,
      "SYSTEM": 1685,
      "##Pat": 1686,
      "##lob": 1687,
      "##dition": 1688,
      "Buffered": 1689,
      "SE": 1690,
      "##Queue": 1691,
      "##enter": 1692,
      "Value": 1693,
      "VALUE": 1694,
      "graph": 1695,
      "zz": 1696,
      "indexOf": 1697,
      "Out": 1698,
      "##ared": 1699,
      "Abstract": 1700,
      "##oded": 1701,
      "##TH": 1702,
      "##EY": 1703,
      "##endar": 1704,
      "##ouse": 1705,
      "exception": 1706,
      "##sc": 1707,
      "##round": 1708,
      "##ched": 1709,
      "Attribute": 1710,
      "##Max": 1711,
      "tmp": 1712,
      "##Page": 1713,
      "##entation": 1714,
      "##omain": 1715,
      "getId": 1716,
      "##Selection": 1717,
      "EX": 1718,
      "##Search": 1719,
      "##mt": 1720,
      "##OU": 1721,
      "##Anim": 1722,
      "make": 1723,
      "##Menu": 1724,
      "##Num": 1725,
      "##Options": 1726,
      "##struction": 1727,
      "##Is": 1728,
      "random": 1729,
      "project": 1730,
      "##Bar": 1731,
      "##ava": 1732,
      "##Command": 1733,
      "##luster": 1734,
      "##Container": 1735,
      "##Ass": 1736,
      "##lot": 1737,
      "Thread": 1738,
      "##ory": 1739,
      "##Ver": 1740,
      "options": 1741,
      "scale": 1742,
      "descri": 1743,
      "##Root": 1744,
      "##ositor": 1745,
      "open": 1746,
      "State": 1747,
      "Link": 1748,
      "##Statement": 1749,
      "##Default": 1750,
      "KEY": 1751,
      "HashMap": 1752,
      "##Parameters": 1753,
      "##order": 1754,
      "##tamp": 1755,
      "Config": 1756,
      "##Order": 1757,
      "##Adapter": 1758,
      "fail": 1759,
      "short": 1760,
      "##ODE": 1761,
      "##uccess": 1762,
      "iter": 1763,
      "##eas": 1764,
      "##adi": 1765,
      "##LO": 1766,
      "auth": 1767,
      "##imestamp": 1768,
      "oo": 1769,
      "encode": 1770,
      "##azz": 1771,
      "##copy": 1772,
      "##Current": 1773,
      "##Uri": 1774,
      "##tex": 1775,
      "##reen": 1776,
      "##ND": 1777,
      "stop": 1778,
      "##Str": 1779,
      "##Warnings": 1780,
      "##Ret": 1781,
      "Message": 1782,
      "##ical": 1783,
      "Intent": 1784,
      "##Callback": 1785,
      "mem": 1786,
      "##Active": 1787,
      "##Link": 1788,
      "header": 1789,
      "##Obj": 1790,
      "##Double": 1791,
      "Suppress": 1792,
      "##Option": 1793,
      "##EST": 1794,
      "##Draw": 1795,
      "##ymb": 1796,
      "component": 1797,
      "search": 1798,
      "##Resol": 1799,
      "##ines": 1800,
      "##vail": 1801,
      "##StateException": 1802,
      "##Decimal": 1803,
      "##ository": 1804,
      "sql": 1805,
      "##adata": 1806,
      "##Nodes": 1807,
      "tree": 1808,
      "arraycopy": 1809,
      "##ecurity": 1810,
      "##Expression": 1811,
      "Ass": 1812,
      "##Debug": 1813,
      "pass": 1814,
      "Path": 1815,
      "##Bind": 1816,
      "err": 1817,
      "##Min": 1818,
      "Un": 1819,
      "##FI": 1820,
      "off": 1821,
      "##New": 1822,
      "bind": 1823,
      "##IV": 1824,
      "##iness": 1825,
      "##oduct": 1826,
      "##rea": 1827,
      "##sing": 1828,
      "##bser": 1829,
      "##Conn": 1830,
      "##FoundException": 1831,
      "##ocol": 1832,
      "location": 1833,
      "##EX": 1834,
      "title": 1835,
      "##Window": 1836,
      "##No": 1837,
      "SuppressWarnings": 1838,
      "Dis": 1839,
      "printStackTrace": 1840,
      "##Policy": 1841,
      "##atas": 1842,
      "Json": 1843,
      "Field": 1844,
      "##Mark": 1845,
      "##cle": 1846,
      "total": 1847,
      "attributes": 1848,
      "##over": 1849,
      "transform": 1850,
      "##Create": 1851,
      "qu": 1852,
      "##ERS": 1853,
      "##utor": 1854,
      "##ymbol": 1855,
      "##port": 1856,
      "##Rule": 1857,
      "##Box": 1858,
      "intent": 1859,
      "Resource": 1860,
      "##ategory": 1861,
      "##ancel": 1862,
      "Pri": 1863,
      "decode": 1864,
      "##Down": 1865,
      "split": 1866,
      "insert": 1867,
      "##AY": 1868,
      "##CE": 1869,
      "##oin": 1870,
      "##inary": 1871,
      "getKey": 1872,
      "clazz": 1873,
      "Service": 1874,
      "##gorith": 1875,
      "##gorithm": 1876,
      "##fter": 1877,
      "##eight": 1878,
      "##elation": 1879,
      "Color": 1880,
      "TO": 1881,
      "##ped": 1882,
      "##otify": 1883,
      "##Space": 1884,
      "##ngine": 1885,
      "##ayer": 1886,
      "ctx": 1887,
      "De": 1888,
      "##TT": 1889,
      "ERROR": 1890,
      "##sum": 1891,
      "trim": 1892,
      "##eek": 1893,
      "act": 1894,
      "##ution": 1895,
      "gl": 1896,
      "##Fragment": 1897,
      "##eature": 1898,
      "##Ignore": 1899,
      "##SE": 1900,
      "##ater": 1901,
      "##Wrapper": 1902,
      "##PointerException": 1903,
      "NullPointerException": 1904,
      "##ZE": 1905,
      "dep": 1906,
      "paint": 1907,
      "ope": 1908,
      "##old": 1909,
      "IllegalStateException": 1910,
      "##Len": 1911,
      "##essages": 1912,
      "resol": 1913,
      "elements": 1914,
      "##gg": 1915,
      "##pher": 1916,
      "SU": 1917,
      "filename": 1918,
      "comm": 1919,
      "Test": 1920,
      "save": 1921,
      "##iled": 1922,
      "##Feed": 1923,
      "bound": 1924,
      "owner": 1925,
      "record": 1926,
      "##Servlet": 1927,
      "##nap": 1928,
      "Not": 1929,
      "sum": 1930,
      "##umns": 1931,
      "To": 1932,
      "##DN": 1933,
      "##bo": 1934,
      "##itive": 1935,
      "##tition": 1936,
      "##Pass": 1937,
      "##NotFoundException": 1938,
      "handler": 1939,
      "##Channel": 1940,
      "##inessObject": 1941,
      "##tinue": 1942,
      "##ason": 1943,
      "##Transaction": 1944,
      "##Body": 1945,
      "##CTION": 1946,
      "FI": 1947,
      "keys": 1948,
      "##Files": 1949,
      "##Scale": 1950,
      "##ustom": 1951,
      "##Var": 1952,
      "##ient": 1953,
      "visit": 1954,
      "Image": 1955,
      "ByteArray": 1956,
      "container": 1957,
      "##Tab": 1958,
      "No": 1959,
      "Arrays": 1960,
      "className": 1961,
      "##rap": 1962,
      "##aster": 1963,
      "##alendar": 1964,
      "Query": 1965,
      "second": 1966,
      "##Write": 1967,
      "prev": 1968,
      "mark": 1969,
      "##inate": 1970,
      "##Package": 1971,
      "frame": 1972,
      "##cept": 1973,
      "##olume": 1974,
      "User": 1975,
      "##ify": 1976,
      "cap": 1977,
      "##Project": 1978,
      "##Top": 1979,
      "Option": 1980,
      "CH": 1981,
      "pop": 1982,
      "##Xml": 1983,
      "##Icon": 1984,
      "Tree": 1985,
      "BigDecimal": 1986,
      "warn": 1987,
      "Action": 1988,
      "##TER": 1989,
      "skill": 1990,
      "command": 1991,
      "##Visible": 1992,
      "##voke": 1993,
      "trace": 1994,
      "continue": 1995,
      "##ulate": 1996,
      "identity": 1997,
      "##Load": 1998,
      "##ocus": 1999,
      "work": 2000,
      "##ending": 2001,
      "##easure": 2002,
      "##Cl": 2003,
      "Number": 2004,
      "getP": 2005,
      "##ByteArray": 2006,
      "##ging": 2007,
      "##eat": 2008,
      "##ision": 2009,
      "storage": 2010,
      "raw": 2011,
      "##Style": 2012,
      "rs": 2013,
      "##Wh": 2014,
      "##Template": 2015,
      "checkNotNull": 2016,
      "##uple": 2017,
      "##nch": 2018,
      "actual": 2019,
      "env": 2020,
      "compute": 2021,
      "thread": 2022,
      "use": 2023,
      "##Socket": 2024,
      "system": 2025,
      "json": 2026,
      "##io": 2027,
      "ad": 2028,
      "##igest": 2029,
      "##Interface": 2030,
      "##OW": 2031,
      "initialize": 2032,
      "##Regist": 2033,
      "##ottom": 2034,
      "##CH": 2035,
      "##PL": 2036,
      "##Up": 2037,
      "##rable": 2038,
      "##Keys": 2039,
      "no": 2040,
      "sort": 2041,
      "##Settings": 2042,
      "##vailable": 2043,
      "flush": 2044,
      "##iction": 2045,
      "##Paint": 2046,
      "SIZE": 2047,
      "##Last": 2048,
      "##Head": 2049,
      "##Render": 2050,
      "##onitor": 2051,
      "##Conver": 2052,
      "Item": 2053,
      "delta": 2054,
      "##ground": 2055,
      "getType": 2056,
      "##entic": 2057,
      "back": 2058,
      "Point": 2059,
      "fileName": 2060,
      "children": 2061,
      "##Attr": 2062,
      "##If": 2063,
      "##mary": 2064,
      "PRO": 2065,
      "##ude": 2066,
      "##NS": 2067,
      "Sp": 2068,
      "##IST": 2069,
      "##Logger": 2070,
      "addAll": 2071,
      "##lias": 2072,
      "##Ids": 2073,
      "##amera": 2074,
      "##eneric": 2075,
      "store": 2076,
      "fill": 2077,
      "se": 2078,
      "##uid": 2079,
      "##que": 2080,
      "##Qu": 2081,
      "post": 2082,
      "##efore": 2083,
      "##Msg": 2084,
      "##ABLE": 2085,
      "##Bits": 2086,
      "App": 2087,
      "##Editor": 2088,
      "SQLException": 2089,
      "idx": 2090,
      "##Detail": 2091,
      "##df": 2092,
      "##loy": 2093,
      "isS": 2094,
      "##Dep": 2095,
      "##oder": 2096,
      "at": 2097,
      "##GER": 2098,
      "##gram": 2099,
      "##ipher": 2100,
      "Reg": 2101,
      "##Safe": 2102,
      "##Pattern": 2103,
      "GL": 2104,
      "##riteria": 2105,
      "##oom": 2106,
      "##Edge": 2107,
      "isC": 2108,
      "Simple": 2109,
      "properties": 2110,
      "##Selected": 2111,
      "em": 2112,
      "##Constraint": 2113,
      "##Control": 2114,
      "##Prot": 2115,
      "ws": 2116,
      "##FF": 2117,
      "player": 2118,
      "##pha": 2119,
      "##US": 2120,
      "##sn": 2121,
      "##uto": 2122,
      "##ursor": 2123,
      "Linked": 2124,
      "##rop": 2125,
      "cursor": 2126,
      "valid": 2127,
      "spec": 2128,
      "tab": 2129,
      "util": 2130,
      "document": 2131,
      "per": 2132,
      "##CC": 2133,
      "##Args": 2134,
      "extra": 2135,
      "pattern": 2136,
      "of": 2137,
      "##itions": 2138,
      "##64": 2139,
      "password": 2140,
      "Result": 2141,
      "Invalid": 2142,
      "##Part": 2143,
      "os": 2144,
      "##Doc": 2145,
      "##onNull": 2146,
      "the": 2147,
      "##Handle": 2148,
      "##rupted": 2149,
      "##inish": 2150,
      "##SS": 2151,
      "Time": 2152,
      "##First": 2153,
      "##Timeout": 2154,
      "##Mapping": 2155,
      "##po": 2156,
      "notify": 2157,
      "##IgnoreCase": 2158,
      "##ota": 2159,
      "var": 2160,
      "module": 2161,
      "##Scroll": 2162,
      "Component": 2163,
      "##ifier": 2164,
      "##Api": 2165,
      "##oll": 2166,
      "Level": 2167,
      "Default": 2168,
      "##Des": 2169,
      "style": 2170,
      "##VO": 2171,
      "##Annotation": 2172,
      "##amed": 2173,
      "##Character": 2174,
      "factory": 2175,
      "items": 2176,
      "anim": 2177,
      "##ei": 2178,
      "##Transform": 2179,
      "apply": 2180,
      "##tangle": 2181,
      "##sinessObject": 2182,
      "##Storage": 2183,
      "##rand": 2184,
      "##ataset": 2185,
      "##shot": 2186,
      "selected": 2187,
      "Character": 2188,
      "abs": 2189,
      "calc": 2190,
      "fire": 2191,
      "##mount": 2192,
      "##Left": 2193,
      "##Area": 2194,
      "##Work": 2195,
      "##Listeners": 2196,
      "elem": 2197,
      "##orld": 2198,
      "##cket": 2199,
      "##Zone": 2200,
      "##lip": 2201,
      "that": 2202,
      "##ITY": 2203,
      "##eom": 2204,
      "##IG": 2205,
      "encoding": 2206,
      "level": 2207,
      "EN": 2208,
      "##Description": 2209,
      "##Edit": 2210,
      "##Runn": 2211,
      "##Holder": 2212,
      "##dent": 2213,
      "##valu": 2214,
      "##uture": 2215,
      "##fer": 2216,
      "##Identifier": 2217,
      "##Copy": 2218,
      "Response": 2219,
      "loc": 2220,
      "##Di": 2221,
      "Graphics": 2222,
      "OutputStream": 2223,
      "##sTo": 2224,
      "COL": 2225,
      "getChild": 2226,
      "##Permission": 2227,
      "##Inc": 2228,
      "Instance": 2229,
      "##irt": 2230,
      "##ookie": 2231,
      "##tact": 2232,
      "##Device": 2233,
      "##irtual": 2234,
      "##ndi": 2235,
      "##lude": 2236,
      "HttpServlet": 2237,
      "Nullable": 2238,
      "startsWith": 2239,
      "##Resources": 2240,
      "currentTime": 2241,
      "page": 2242,
      "##lease": 2243,
      "getB": 2244,
      "inst": 2245,
      "serial": 2246,
      "##Call": 2247,
      "fields": 2248,
      "order": 2249,
      "##egin": 2250,
      "##Display": 2251,
      "desc": 2252,
      "wait": 2253,
      "##table": 2254,
      "##lick": 2255,
      "##imum": 2256,
      "description": 2257,
      "##adius": 2258,
      "##Step": 2259,
      "Sc": 2260,
      "##Namespace": 2261,
      "##ority": 2262,
      "##Serial": 2263,
      "##mm": 2264,
      "Property": 2265,
      "exists": 2266,
      "ss": 2267,
      "##ULL": 2268,
      "##Module": 2269,
      "##Internal": 2270,
      "##Us": 2271,
      "TR": 2272,
      "Param": 2273,
      "##space": 2274,
      "sun": 2275,
      "provider": 2276,
      "skip": 2277,
      "##rch": 2278,
      "UN": 2279,
      "Matrix": 2280,
      "##napshot": 2281,
      "##min": 2282,
      "##udio": 2283,
      "##mport": 2284,
      "##Factor": 2285,
      "curr": 2286,
      "Exp": 2287,
      "getNode": 2288,
      "rule": 2289,
      "##Extra": 2290,
      "##act": 2291,
      "SH": 2292,
      "Event": 2293,
      "##iod": 2294,
      "##Modi": 2295,
      "##oute": 2296,
      "##ERT": 2297,
      "Bitmap": 2298,
      "##Feedback": 2299,
      "success": 2300,
      "##Open": 2301,
      "##TE": 2302,
      "##Region": 2303,
      "bits": 2304,
      "##olute": 2305,
      "channel": 2306,
      "##Controller": 2307,
      "##rigger": 2308,
      "network": 2309,
      "##Exists": 2310,
      "activity": 2311,
      "Media": 2312,
      "Rep": 2313,
      "AL": 2314,
      "##axb": 2315,
      "##seException": 2316,
      "PO": 2317,
      "##Intent": 2318,
      "##rateg": 2319,
      "getParent": 2320,
      "##oordinate": 2321,
      "AP": 2322,
      "##Member": 2323,
      "HashSet": 2324,
      "LOGGER": 2325,
      "##Comm": 2326,
      "##iron": 2327,
      "##Password": 2328,
      "jaxb": 2329,
      "queue": 2330,
      "##Meta": 2331,
      "##ens": 2332,
      "containsKey": 2333,
      "##oul": 2334,
      "NOT": 2335,
      "##Entries": 2336,
      "##ironment": 2337,
      "SAX": 2338,
      "##ency": 2339,
      "##Extension": 2340,
      "##XML": 2341,
      "addElement": 2342,
      "ev": 2343,
      "step": 2344,
      "Collections": 2345,
      "##Encoding": 2346,
      "##Ad": 2347,
      "##ould": 2348,
      "##vas": 2349,
      "sample": 2350,
      "##lus": 2351,
      "prep": 2352,
      "##mg": 2353,
      "##Supported": 2354,
      "##ome": 2355,
      "##md": 2356,
      "##econditions": 2357,
      "##type": 2358,
      "cont": 2359,
      "##ignment": 2360,
      "##Title": 2361,
      "##Term": 2362,
      "##upported": 2363,
      "Util": 2364,
      "##Segment": 2365,
      "##nc": 2366,
      "##gent": 2367,
      "Base": 2368,
      "Preconditions": 2369,
      "getProperty": 2370,
      "region": 2371,
      "##ideo": 2372,
      "##Schema": 2373,
      "##fs": 2374,
      "##Such": 2375,
      "##Certificate": 2376,
      "##Collection": 2377,
      "##chedule": 2378,
      "Grid": 2379,
      "access": 2380,
      "req": 2381,
      "##ny": 2382,
      "##quired": 2383,
      "DSCat": 2384,
      "##rategy": 2385,
      "call": 2386,
      "##flow": 2387,
      "Index": 2388,
      "##50": 2389,
      "##rement": 2390,
      "##izable": 2391,
      "showFeedback": 2392,
      "m1": 2393,
      "##ibility": 2394,
      "cancel": 2395,
      "##ech": 2396,
      "##Rect": 2397,
      "##Items": 2398,
      "##tory": 2399,
      "##losed": 2400,
      "Uns": 2401,
      "##art": 2402,
      "layout": 2403,
      "##Preference": 2404,
      "full": 2405,
      "CL": 2406,
      "##pc": 2407,
      "NotNull": 2408,
      "##ingle": 2409,
      "NoSuch": 2410,
      "##ures": 2411,
      "template": 2412,
      "ph": 2413,
      "##ersist": 2414,
      "Block": 2415,
      "Calendar": 2416,
      "returnData": 2417,
      "matcher": 2418,
      "vol": 2419,
      "##Multi": 2420,
      "##Exec": 2421,
      "##ToString": 2422,
      "##qual": 2423,
      "schema": 2424,
      "##lobal": 2425,
      "##Only": 2426,
      "display": 2427,
      "##dic": 2428,
      "##Delete": 2429,
      "self": 2430,
      "icon": 2431,
      "##Repository": 2432,
      "##bers": 2433,
      "##verse": 2434,
      "Connection": 2435,
      "equalsIgnoreCase": 2436,
      "newInstance": 2437,
      "segment": 2438,
      "rem": 2439,
      "Dep": 2440,
      "##code": 2441,
      "##Fields": 2442,
      "Server": 2443,
      "Task": 2444,
      "le": 2445,
      "parameters": 2446,
      "##ov": 2447,
      "##IVE": 2448,
      "##ORT": 2449,
      "##scri": 2450,
      "flags": 2451,
      "Interrupted": 2452,
      "SS": 2453,
      "##onth": 2454,
      "##oly": 2455,
      "##Word": 2456,
      "##Mask": 2457,
      "##Profile": 2458,
      "currentTimeMillis": 2459,
      "word": 2460,
      "##tics": 2461,
      "##Tool": 2462,
      "setText": 2463,
      "##Database": 2464,
      "##imer": 2465,
      "##tical": 2466,
      "##Interval": 2467,
      "Token": 2468,
      "##Cre": 2469,
      "Transform": 2470,
      "##Network": 2471,
      "names": 2472,
      "##ward": 2473,
      "##Processor": 2474,
      "##Volume": 2475,
      "select": 2476,
      "getDefault": 2477,
      "##Lower": 2478,
      "##Short": 2479,
      "##Focus": 2480,
      "##ipe": 2481,
      "##Comment": 2482,
      "link": 2483,
      "cert": 2484,
      "##ictionary": 2485,
      "parser": 2486,
      "normal": 2487,
      "##eep": 2488,
      "rows": 2489,
      "##ero": 2490,
      "##lete": 2491,
      "##Background": 2492,
      "COM": 2493,
      "elementList": 2494,
      "##ookup": 2495,
      "Properties": 2496,
      "##Resolver": 2497,
      "files": 2498,
      "##Float": 2499,
      "Al": 2500,
      "InterruptedException": 2501,
      "##Algorithm": 2502,
      "Float": 2503,
      "nodes": 2504,
      "reference": 2505,
      "##Loc": 2506,
      "##IP": 2507,
      "mode": 2508,
      "Parameter": 2509,
      "##avi": 2510,
      "##Chunk": 2511,
      "##UID": 2512,
      "listeners": 2513,
      "##Notification": 2514,
      "##legate": 2515,
      "##VG": 2516,
      "##ertion": 2517,
      "##ruct": 2518,
      "##Track": 2519,
      "duration": 2520,
      "AD": 2521,
      "##down": 2522,
      "##istory": 2523,
      "##Full": 2524,
      "NO": 2525,
      "##Folder": 2526,
      "Table": 2527,
      "##ges": 2528,
      "dst": 2529,
      "ByteBuffer": 2530,
      "Error": 2531,
      "##iv": 2532,
      "matrix": 2533,
      "##Scope": 2534,
      "##roy": 2535,
      "configuration": 2536,
      "##etch": 2537,
      "DOM": 2538,
      "##idget": 2539,
      "##pos": 2540,
      "previousProgressLabel": 2541,
      "props": 2542,
      "##ternal": 2543,
      "##Support": 2544,
      "reg": 2545,
      "impl": 2546,
      "##ChangeListener": 2547,
      "##Bitmap": 2548,
      "distance": 2549,
      "##FileName": 2550,
      "##ynam": 2551,
      "Serial": 2552,
      "selection": 2553,
      "move": 2554,
      "aNumber": 2555,
      "red": 2556,
      "##be": 2557,
      "isIn": 2558,
      "resolve": 2559,
      "ATT": 2560,
      "Ed": 2561,
      "Web": 2562,
      "multi": 2563,
      "##UG": 2564,
      "DSSafe": 2565,
      "Rectangle": 2566,
      "##aining": 2567,
      "Bundle": 2568,
      "##cs": 2569,
      "##enden": 2570,
      "##Be": 2571,
      "isValid": 2572,
      "##Le": 2573,
      "##ached": 2574,
      "sm": 2575,
      "##VER": 2576,
      "##view": 2577,
      "JSONObject": 2578,
      "compareTo": 2579,
      "##Right": 2580,
      "##Bundle": 2581,
      "getX": 2582,
      "##ACK": 2583,
      "Entity": 2584,
      "##Def": 2585,
      "##Return": 2586,
      "Configuration": 2587,
      "##Proxy": 2588,
      "##ump": 2589,
      "##tination": 2590,
      "real": 2591,
      "##IF": 2592,
      "##late": 2593,
      "counter": 2594,
      "render": 2595,
      "##igned": 2596,
      "##Packet": 2597,
      "##ret": 2598,
      "range": 2599,
      "##CK": 2600,
      "invoke": 2601,
      "##rics": 2602,
      "##aved": 2603,
      "SER": 2604,
      "##aun": 2605,
      "CONT": 2606,
      "##eet": 2607,
      "##Plugin": 2608,
      "qname": 2609,
      "namespaceURI": 2610,
      "callback": 2611,
      "limit": 2612,
      "bit": 2613,
      "##gr": 2614,
      "##Role": 2615,
      "##roke": 2616,
      "Print": 2617,
      "##roid": 2618,
      "coll": 2619,
      "##bsolute": 2620,
      "##erge": 2621,
      "Cache": 2622,
      "getText": 2623,
      "expression": 2624,
      "NE": 2625,
      "Storage": 2626,
      "Sub": 2627,
      "##Renderer": 2628,
      "Add": 2629,
      "##ERSION": 2630,
      "Unsupported": 2631,
      "##to": 2632,
      "##Json": 2633,
      "##Click": 2634,
      "body": 2635,
      "##Registry": 2636,
      "##etry": 2637,
      "verify": 2638,
      "##andidate": 2639,
      "signature": 2640,
      "not": 2641,
      "##atcher": 2642,
      "##HashMap": 2643,
      "##terable": 2644,
      "locale": 2645,
      "XMLStream": 2646,
      "encoded": 2647,
      "scroll": 2648,
      "##After": 2649,
      "##lier": 2650,
      "push": 2651,
      "##Points": 2652,
      "##EXT": 2653,
      "option": 2654,
      "operation": 2655,
      "high": 2656,
      "change": 2657,
      "keySet": 2658,
      "##Random": 2659,
      "##INE": 2660,
      "empty": 2661,
      "##ling": 2662,
      "##Metadata": 2663,
      "##Ph": 2664,
      "Ver": 2665,
      "##pect": 2666,
      "##uage": 2667,
      "axis": 2668,
      "##DS": 2669,
      "##nner": 2670,
      "DSComment": 2671,
      "numberOf": 2672,
      "MIN": 2673,
      "##HT": 2674,
      "##QU": 2675,
      "##tili": 2676,
      "toByteArray": 2677,
      "##tilities": 2678,
      "su": 2679,
      "##easureSpec": 2680,
      "##ECT": 2681,
      "##atal": 2682,
      "##Bit": 2683,
      "Remo": 2684,
      "##ILL": 2685,
      "##issing": 2686,
      "##IR": 2687,
      "##umeration": 2688,
      "##Http": 2689,
      "reason": 2690,
      "##ulation": 2691,
      "editor": 2692,
      "##ere": 2693,
      "##Condition": 2694,
      "PAR": 2695,
      "function": 2696,
      "##ability": 2697,
      "Val": 2698,
      "##ONE": 2699,
      "edge": 2700,
      "##ested": 2701,
      "http": 2702,
      "##Off": 2703,
      "##rate": 2704,
      "Fast": 2705,
      "##ced": 2706,
      "##anaged": 2707,
      "VERSION": 2708,
      "getData": 2709,
      "##Day": 2710,
      "rel": 2711,
      "##Memory": 2712,
      "##Details": 2713,
      "##Boolean": 2714,
      "ap": 2715,
      "INF": 2716,
      "##mmutable": 2717,
      "term": 2718,
      "##Form": 2719,
      "fieldName": 2720,
      "internal": 2721,
      "##ixel": 2722,
      "##scape": 2723,
      "##eer": 2724,
      "CharSequence": 2725,
      "calculate": 2726,
      "getHeight": 2727,
      "timeout": 2728,
      "##lowed": 2729,
      "getLocal": 2730,
      "##Headers": 2731,
      "AS": 2732,
      "job": 2733,
      "##Fail": 2734,
      "##509": 2735,
      "Network": 2736,
      "ip": 2737,
      "directory": 2738,
      "##reg": 2739,
      "fragment": 2740,
      "isDebug": 2741,
      "buff": 2742,
      "pan": 2743,
      "getAttribute": 2744,
      "release": 2745,
      "NULL": 2746,
      "##CON": 2747,
      "##Validator": 2748,
      "##Sw": 2749,
      "##One": 2750,
      "Random": 2751,
      "package": 2752,
      "He": 2753,
      "##ffix": 2754,
      "##Job": 2755,
      "points": 2756,
      "##Sample": 2757,
      "mC": 2758,
      "##utdown": 2759,
      "RES": 2760,
      "getWidth": 2761,
      "Client": 2762,
      "##ORM": 2763,
      "##reshold": 2764,
      "SAXException": 2765,
      "##si": 2766,
      "##Hex": 2767,
      "##formed": 2768,
      "##Second": 2769,
      "##enant": 2770,
      "##ified": 2771,
      "##ncip": 2772,
      "##bserver": 2773,
      "isSet": 2774,
      "##ynamic": 2775,
      "EM": 2776,
      "volume": 2777,
      "SVG": 2778,
      "##ycle": 2779,
      "##osite": 2780,
      "Content": 2781,
      "LEN": 2782,
      "entrySet": 2783,
      "##aunch": 2784,
      "##vocation": 2785,
      "##ms": 2786,
      "bottom": 2787,
      "extension": 2788,
      "##Se": 2789,
      "##Animation": 2790,
      "##ndices": 2791,
      "##Scan": 2792,
      "PRE": 2793,
      "dialog": 2794,
      "meta": 2795,
      "##iteral": 2796,
      "##ift": 2797,
      "begin": 2798,
      "##Java": 2799,
      "accept": 2800,
      "capacity": 2801,
      "##Use": 2802,
      "##Instruction": 2803,
      "NonNull": 2804,
      "results": 2805,
      "##rec": 2806,
      "getT": 2807,
      "JSONException": 2808,
      "##Enum": 2809,
      "##Remove": 2810,
      "Debug": 2811,
      "role": 2812,
      "tx": 2813,
      "Assert": 2814,
      "##Protocol": 2815,
      "Constants": 2816,
      "toArray": 2817,
      "##naly": 2818,
      "##ecret": 2819,
      "Expression": 2820,
      "##ise": 2821,
      "##Distance": 2822,
      "##tax": 2823,
      "##LowerCase": 2824,
      "Session": 2825,
      "mod": 2826,
      "##Player": 2827,
      "##tribution": 2828,
      "SAM": 2829,
      "##ASK": 2830,
      "addr": 2831,
      "active": 2832,
      "dimension": 2833,
      "##Cons": 2834,
      "##udit": 2835,
      "##nchor": 2836,
      "##Border": 2837,
      "##Lines": 2838,
      "##ote": 2839,
      "##ACT": 2840,
      "##Axis": 2841,
      "##isting": 2842,
      "Generic": 2843,
      "scan": 2844,
      "mask": 2845,
      "unit": 2846,
      "aw": 2847,
      "##Messages": 2848,
      "SC": 2849,
      "Auth": 2850,
      "##tach": 2851,
      "ON": 2852,
      "##Drawable": 2853,
      "prepare": 2854,
      "comment": 2855,
      "##Temp": 2856,
      "##Padd": 2857,
      "##OC": 2858,
      "##Utilities": 2859,
      "chunk": 2860,
      "join": 2861,
      "##Engine": 2862,
      "##ACE": 2863,
      "getCurrent": 2864,
      "##itiator": 2865,
      "clean": 2866,
      "center": 2867,
      "DB": 2868,
      "##Buf": 2869,
      "dbClient": 2870,
      "getY": 2871,
      "domain": 2872,
      "##BUG": 2873,
      "button": 2874,
      "cp": 2875,
      "##sumer": 2876,
      "##Columns": 2877,
      "##More": 2878,
      "##ique": 2879,
      "##nsure": 2880,
      "initialCapacity": 2881,
      "DEBUG": 2882,
      "TIM": 2883,
      "ent": 2884,
      "device": 2885,
      "track": 2886,
      "weight": 2887,
      "##entication": 2888,
      "entries": 2889,
      "##Flags": 2890,
      "##raction": 2891,
      "Dir": 2892,
      "##ICATION": 2893,
      "##cent": 2894,
      "Locale": 2895,
      "##ring": 2896,
      "##AF": 2897,
      "##Counter": 2898,
      "##eometry": 2899,
      "##TM": 2900,
      "##Stats": 2901,
      "##Recei": 2902,
      "bean": 2903,
      "##ClassName": 2904,
      "member": 2905,
      "found": 2906,
      "##Rate": 2907,
      "value0": 2908,
      "Java": 2909,
      "##Results": 2910,
      "isDebugEnabled": 2911,
      "##Env": 2912,
      "Stream": 2913,
      "getBytes": 2914,
      "OF": 2915,
      "pool": 2916,
      "ByteArrayOutputStream": 2917,
      "Activity": 2918,
      "FILE": 2919,
      "##lish": 2920,
      "##Over": 2921,
      "ensure": 2922,
      "chars": 2923,
      "HE": 2924,
      "##Initial": 2925,
      "prop": 2926,
      "##Pres": 2927,
      "businessObject": 2928,
      "##ggreg": 2929,
      "##Kind": 2930,
      "##DB": 2931,
      "getSel": 2932,
      "##gnite": 2933,
      "##ense": 2934,
      "##Limit": 2935,
      "isA": 2936,
      "proxy": 2937,
      "##Padding": 2938,
      "##eta": 2939,
      "##Classes": 2940,
      "##olution": 2941,
      "Process": 2942,
      "##lation": 2943,
      "##MENT": 2944,
      "commit": 2945,
      "JAX": 2946,
      "collection": 2947,
      "Name": 2948,
      "##Sum": 2949,
      "##olr": 2950,
      "##Cal": 2951,
      "##IO": 2952,
      "##Rows": 2953,
      "##ATOR": 2954,
      "bounds": 2955,
      "##ncipal": 2956,
      "Window": 2957,
      "##Em": 2958,
      "Input": 2959,
      "##rees": 2960,
      "##path": 2961,
      "##Symbol": 2962,
      "##ian": 2963,
      "##fg": 2964,
      "##ensor": 2965,
      "argument": 2966,
      "##Signature": 2967,
      "##Dig": 2968,
      "##Children": 2969,
      "li": 2970,
      "##Web": 2971,
      "##Cell": 2972,
      "window": 2973,
      "##letion": 2974,
      "##olog": 2975,
      "Line": 2976,
      "##Dimension": 2977,
      "rect": 2978,
      "isActive": 2979,
      "##ities": 2980,
      "BY": 2981,
      "##ASS": 2982,
      "toLowerCase": 2983,
      "bl": 2984,
      "##GTH": 2985,
      "##Binding": 2986,
      "##ecution": 2987,
      "us": 2988,
      "##ICE": 2989,
      "LE": 2990,
      "##tml": 2991,
      "##Stop": 2992,
      "##nown": 2993,
      "getG": 2994,
      "##Angle": 2995,
      "should": 2996,
      "Remote": 2997,
      "VM": 2998,
      "##gle": 2999,
      "##PTION": 3000,
      "##Partition": 3001,
      "##ownload": 3002,
      "##Syn": 3003,
      "##Events": 3004,
      "##ded": 3005,
      "##rientation": 3006,
      "##Post": 3007,
      "getO": 3008,
      "##Expr": 3009,
      "##pose": 3010,
      "PROP": 3011,
      "adapter": 3012,
      "##ixed": 3013,
      "##rypt": 3014,
      "exc": 3015,
      "##ged": 3016,
      "##lex": 3017,
      "plugin": 3018,
      "variable": 3019,
      "##Strategy": 3020,
      "##Prim": 3021,
      "chang": 3022,
      "##Series": 3023,
      "ps": 3024,
      "##ATH": 3025,
      "Filter": 3026,
      "##tis": 3027,
      "enable": 3028,
      "##lat": 3029,
      "##recated": 3030,
      "##ft": 3031,
      "shape": 3032,
      "##cheme": 3033,
      "JAXB": 3034,
      "LENGTH": 3035,
      "constraint": 3036,
      "angle": 3037,
      "v1": 3038,
      "LIST": 3039,
      "alloc": 3040,
      "##Domain": 3041,
      "parseInt": 3042,
      "amount": 3043,
      "##ice": 3044,
      "##ank": 3045,
      "and": 3046,
      "day": 3047,
      "##Vertex": 3048,
      "##ouch": 3049,
      "isN": 3050,
      "##light": 3051,
      "##ById": 3052,
      "cs": 3053,
      "##card": 3054,
      "##Addr": 3055,
      "##los": 3056,
      "##Pay": 3057,
      "m2": 3058,
      "##eo": 3059,
      "getSystem": 3060,
      "ar": 3061,
      "##Layer": 3062,
      "##Duration": 3063,
      "##Arguments": 3064,
      "IM": 3065,
      "##ology": 3066,
      "Operation": 3067,
      "edit": 3068,
      "hex": 3069,
      "zone": 3070,
      "##ker": 3071,
      "##Converter": 3072,
      "##Star": 3073,
      "separator": 3074,
      "##UTE": 3075,
      "MET": 3076,
      "attName": 3077,
      "##Font": 3078,
      "opt": 3079,
      "##VAL": 3080,
      "STAT": 3081,
      "##validate": 3082,
      "Mem": 3083,
      "INT": 3084,
      "##Show": 3085,
      "##Tip": 3086,
      "##RG": 3087,
      "##unnable": 3088,
      "wrap": 3089,
      "##Print": 3090,
      "diff": 3091,
      "##dicate": 3092,
      "##itude": 3093,
      "##cover": 3094,
      "username": 3095,
      "AM": 3096,
      "MS": 3097,
      "US": 3098,
      "headers": 3099,
      "##White": 3100,
      "SAML": 3101,
      "actor": 3102,
      "cons": 3103,
      "##Account": 3104,
      "mid": 3105,
      "##Cursor": 3106,
      "##yc": 3107,
      "##Fac": 3108,
      "##PTY": 3109,
      "Function": 3110,
      "ignore": 3111,
      "##Before": 3112,
      "##ended": 3113,
      "api": 3114,
      "##Rel": 3115,
      "defaultValue": 3116,
      "##Script": 3117,
      "mv": 3118,
      "getTime": 3119,
      "def": 3120,
      "Build": 3121,
      "Layout": 3122,
      "arr": 3123,
      "permission": 3124,
      "errorMessage": 3125,
      "product": 3126,
      "Status": 3127,
      "##Monitor": 3128,
      "Deprecated": 3129,
      "Pack": 3130,
      "##ets": 3131,
      "remote": 3132,
      "##TR": 3133,
      "columns": 3134,
      "ds": 3135,
      "settings": 3136,
      "##tial": 3137,
      "matches": 3138,
      "alias": 3139,
      "##OWN": 3140,
      "##Wait": 3141,
      "saved": 3142,
      "##rm": 3143,
      "##Upper": 3144,
      "##AFE": 3145,
      "Try": 3146,
      "Logging": 3147,
      "bitmap": 3148,
      "##Product": 3149,
      "connect": 3150,
      "##VICE": 3151,
      "Gene": 3152,
      "##Feature": 3153,
      "dig": 3154,
      "dataset": 3155,
      "##FormatException": 3156,
      "bb": 3157,
      "##ATA": 3158,
      "LinkedList": 3159,
      "coord": 3160,
      "##ublish": 3161,
      "getInt": 3162,
      "condition": 3163,
      "assertNotNull": 3164,
      "runTest": 3165,
      "##Remote": 3166,
      "socket": 3167,
      "up": 3168,
      "##nalyz": 3169,
      "##list": 3170,
      "Pdf": 3171,
      "##pol": 3172,
      "##Cert": 3173,
      "Internal": 3174,
      "##NT": 3175,
      "Multi": 3176,
      "Uri": 3177,
      "p1": 3178,
      "##Visitor": 3179,
      "Model": 3180,
      "lat": 3181,
      "##PAR": 3182,
      "##MS": 3183,
      "finish": 3184,
      "##High": 3185,
      "so": 3186,
      "remaining": 3187,
      "modi": 3188,
      "removeAll": 3189,
      "##tit": 3190,
      "timestamp": 3191,
      "Sel": 3192,
      "##cc": 3193,
      "##river": 3194,
      "##Coll": 3195,
      "EMPTY": 3196,
      "annotation": 3197,
      "seed": 3198,
      "ACTION": 3199,
      "Tra": 3200,
      "Att": 3201,
      "##Uns": 3202,
      "##Chars": 3203,
      "font": 3204,
      "##Available": 3205,
      "getContext": 3206,
      "alpha": 3207,
      "##ured": 3208,
      "include": 3209,
      "##UR": 3210,
      "##Any": 3211,
      "scope": 3212,
      "ParseException": 3213,
      "##la": 3214,
      "X509": 3215,
      "menu": 3216,
      "merge": 3217,
      "##Equal": 3218,
      "Search": 3219,
      "lines": 3220,
      "vm": 3221,
      "##ressed": 3222,
      "HttpServletRequest": 3223,
      "TryResource": 3224,
      "##NN": 3225,
      "##OF": 3226,
      "##Screen": 3227,
      "cluster": 3228,
      "##ited": 3229,
      "bundle": 3230,
      "##Preferences": 3231,
      "writeAttribute": 3232,
      "getPath": 3233,
      "Immutable": 3234,
      "##OutOf": 3235,
      "##GE": 3236,
      "##STAN": 3237,
      "FL": 3238,
      "##arb": 3239,
      "JComponent": 3240,
      "Access": 3241,
      "skillname": 3242,
      "notification": 3243,
      "qual": 3244,
      "##vision": 3245,
      "##rant": 3246,
      "Vector3": 3247,
      "##Future": 3248,
      "Transaction": 3249,
      "##Category": 3250,
      "now": 3251,
      "newValue": 3252,
      "panel": 3253,
      "##tributed": 3254,
      "ClassNotFoundException": 3255,
      "##Span": 3256,
      "##N1": 3257,
      "##ndard": 3258,
      "##Stroke": 3259,
      "Conver": 3260,
      "Pattern": 3261,
      "##Pop": 3262,
      "OP": 3263,
      "instruction": 3264,
      "database": 3265,
      "account": 3266,
      "##Man": 3267,
      "##ma": 3268,
      "getResource": 3269,
      "##ations": 3270,
      "##erial": 3271,
      "inputStream": 3272,
      "##Mapper": 3273,
      "Utils": 3274,
      "g2": 3275,
      "##Weight": 3276,
      "STATE": 3277,
      "statement": 3278,
      "COLUM": 3279,
      "TEXT": 3280,
      "Enumeration": 3281,
      "canvas": 3282,
      "##Executor": 3283,
      "cls": 3284,
      "##ooth": 3285,
      "##Inf": 3286,
      "##Free": 3287,
      "##eferred": 3288,
      "##ao": 3289,
      "##ification": 3290,
      "Ext": 3291,
      "##Bas": 3292,
      "hasMore": 3293,
      "##SQL": 3294,
      "Ignite": 3295,
      "low": 3296,
      "##hs": 3297,
      "getParameter": 3298,
      "##emon": 3299,
      "Db": 3300,
      "##RIB": 3301,
      "##olyg": 3302,
      "##Modified": 3303,
      "TH": 3304,
      "##bserv": 3305,
      "##mar": 3306,
      "##Failed": 3307,
      "##aint": 3308,
      "NodeList": 3309,
      "BufferedReader": 3310,
      "Address": 3311,
      "##IAL": 3312,
      "attrs": 3313,
      "need": 3314,
      "##no": 3315,
      "cor": 3316,
      "##Non": 3317,
      "mS": 3318,
      "##oop": 3319,
      "increment": 3320,
      "Regist": 3321,
      "custom": 3322,
      "##ror": 3323,
      "dom": 3324,
      "##Comparator": 3325,
      "Reader": 3326,
      "##iler": 3327,
      "##latform": 3328,
      "uns": 3329,
      "getFile": 3330,
      "readObject": 3331,
      "script": 3332,
      "getUser": 3333,
      "##Idx": 3334,
      "##osition": 3335,
      "part": 3336,
      "##oci": 3337,
      "##oard": 3338,
      "##teration": 3339,
      "JAXBException": 3340,
      "##Plan": 3341,
      "##formation": 3342,
      "radius": 3343,
      "Inet": 3344,
      "##Operand": 3345,
      "Security": 3346,
      "##oef": 3347,
      "m0": 3348,
      "charset": 3349,
      "getAbsolute": 3350,
      "##olygon": 3351,
      "AST": 3352,
      "cmd": 3353,
      "##Register": 3354,
      "##Total": 3355,
      "methodName": 3356,
      "SAFE": 3357,
      "##Reg": 3358,
      "findBy": 3359,
      "##alse": 3360,
      "DateTime": 3361,
      "MOD": 3362,
      "manager": 3363,
      "##Timestamp": 3364,
      "##Insn": 3365,
      "subject": 3366,
      "transaction": 3367,
      "##ircle": 3368,
      "conc": 3369,
      "##atalog": 3370,
      "##irror": 3371,
      "##Desc": 3372,
      "##Mgr": 3373,
      "##ART": 3374,
      "ARR": 3375,
      "##erson": 3376,
      "Dec": 3377,
      "##BLE": 3378,
      "Draw": 3379,
      "MASK": 3380,
      "Work": 3381,
      "Xml": 3382,
      "inner": 3383,
      "##imeType": 3384,
      "##Subscri": 3385,
      "getContent": 3386,
      "##OperationException": 3387,
      "##Raw": 3388,
      "##History": 3389,
      "dx": 3390,
      "lower": 3391,
      "##Objects": 3392,
      "Op": 3393,
      "types": 3394,
      "character": 3395,
      "Label": 3396,
      "##gfs": 3397,
      "FileInputStream": 3398,
      "##Viewer": 3399,
      "##ired": 3400,
      "SUCC": 3401,
      "Certificate": 3402,
      "evalu": 3403,
      "##ating": 3404,
      "##Ind": 3405,
      "Te": 3406,
      "##oss": 3407,
      "##sets": 3408,
      "year": 3409,
      "##Separator": 3410,
      "##TreeNode": 3411,
      "JSONArray": 3412,
      "##WT": 3413,
      "sequence": 3414,
      "Instances": 3415,
      "##Selector": 3416,
      "digest": 3417,
      "##Close": 3418,
      "tail": 3419,
      "##Cluster": 3420,
      "asList": 3421,
      "destination": 3422,
      "TIME": 3423,
      "Attr": 3424,
      "##OutOfBounds": 3425,
      "##Qual": 3426,
      "intValue": 3427,
      "ns": 3428,
      "##URE": 3429,
      "##ationException": 3430,
      "v2": 3431,
      "##Move": 3432,
      "dim": 3433,
      "##odifiers": 3434,
      "##Period": 3435,
      "##Alias": 3436,
      "##Metrics": 3437,
      "##mark": 3438,
      "##Relation": 3439,
      "StringUtils": 3440,
      "resBytes": 3441,
      "##jection": 3442,
      "##Red": 3443,
      "##ecure": 3444,
      "##rie": 3445,
      "FileOutputStream": 3446,
      "##AND": 3447,
      "extract": 3448,
      "##OutOfBoundsException": 3449,
      "##anization": 3450,
      "refresh": 3451,
      "##tistics": 3452,
      "Can": 3453,
      "attributeValue": 3454,
      "dy": 3455,
      "round": 3456,
      "shutdown": 3457,
      "Valid": 3458,
      "##SIT": 3459,
      "##Zero": 3460,
      "PRI": 3461,
      "Style": 3462,
      "UP": 3463,
      "##amp": 3464,
      "##ArrayList": 3465,
      "mouse": 3466,
      "##ranch": 3467,
      "force": 3468,
      "startIndex": 3469,
      "##IGHT": 3470,
      "##Private": 3471,
      "Anim": 3472,
      "##Transfer": 3473,
      "##Required": 3474,
      "sync": 3475,
      "##FIX": 3476,
      "##Sync": 3477,
      "export": 3478,
      "##Application": 3479,
      "##Finish": 3480,
      "##ract": 3481,
      "##Lib": 3482,
      "layer": 3483,
      "##points": 3484,
      "##uper": 3485,
      "require": 3486,
      "Sign": 3487,
      "Vertex": 3488,
      "BU": 3489,
      "SP": 3490,
      "available": 3491,
      "world": 3492,
      "##Cor": 3493,
      "##inding": 3494,
      "startTime": 3495,
      "##Ms": 3496,
      "##External": 3497,
      "application": 3498,
      "delegate": 3499,
      "screen": 3500,
      "criteria": 3501,
      "##Tokens": 3502,
      "peek": 3503,
      "##Failure": 3504,
      "pay": 3505,
      "##Connected": 3506,
      "Application": 3507,
      "expr": 3508,
      "report": 3509,
      "##ucer": 3510,
      "pred": 3511,
      "allow": 3512,
      "##Dictionary": 3513,
      "##ndo": 3514,
      "getColumn": 3515,
      "##Shape": 3516,
      "dt": 3517,
      "##Struct": 3518,
      "ids": 3519,
      "Ph": 3520,
      "##Run": 3521,
      "subscri": 3522,
      "##Grid": 3523,
      "lastIndex": 3524,
      "endsWith": 3525,
      "getNamespace": 3526,
      "##Digest": 3527,
      "##inator": 3528,
      "protocol": 3529,
      "configure": 3530,
      "Dimension": 3531,
      "category": 3532,
      "exit": 3533,
      "regist": 3534,
      "relation": 3535,
      "##DK": 3536,
      "##Static": 3537,
      "Env": 3538,
      "destroy": 3539,
      "##Marker": 3540,
      "ATTRIB": 3541,
      "conf": 3542,
      "det": 3543,
      "SERVICE": 3544,
      "##oriz": 3545,
      "##Init": 3546,
      "##Play": 3547,
      "##Instances": 3548,
      "hel": 3549,
      "##atit": 3550,
      "BufferedImage": 3551,
      "##Sort": 3552,
      "##Tags": 3553,
      "##ASE": 3554,
      "grid": 3555,
      "##Agent": 3556,
      "##ORI": 3557,
      "##nth": 3558,
      "loader": 3559,
      "IND": 3560,
      "over": 3561,
      "pad": 3562,
      "##cel": 3563,
      "isM": 3564,
      "stmt": 3565,
      "sig": 3566,
      "##TagName": 3567,
      "lookup": 3568,
      "##Operator": 3569,
      "bucket": 3570,
      "##atitude": 3571,
      "##Information": 3572,
      "##Visibility": 3573,
      "##otate": 3574,
      "PROPERT": 3575,
      "##ynth": 3576,
      "##Variables": 3577,
      "##cp": 3578,
      "elementAt": 3579,
      "camera": 3580,
      "##Dest": 3581,
      "Sw": 3582,
      "engine": 3583,
      "##Formatter": 3584,
      "##Download": 3585,
      "getNext": 3586,
      "##orizon": 3587,
      "Source": 3588,
      "getFirst": 3589,
      "IS": 3590,
      "##ilities": 3591,
      "##arbon": 3592,
      "multip": 3593,
      "As": 3594,
      "##bed": 3595,
      "##Snapshot": 3596,
      "##bc": 3597,
      "sl": 3598,
      "##nect": 3599,
      "##Delay": 3600,
      "##Complete": 3601,
      "propertyName": 3602,
      "##Animator": 3603,
      "##otion": 3604,
      "QU": 3605,
      "cell": 3606,
      "##Inst": 3607,
      "##Alpha": 3608,
      "direction": 3609,
      "Writer": 3610,
      "##berty": 3611,
      "translate": 3612,
      "##Strings": 3613,
      "##Methods": 3614,
      "##anguage": 3615,
      "Logger": 3616,
      "visitor": 3617,
      "apache": 3618,
      "##endor": 3619,
      "cookie": 3620,
      "##ness": 3621,
      "form": 3622,
      "dispose": 3623,
      "depth": 3624,
      "##Observer": 3625,
      "##oogle": 3626,
      "##umb": 3627,
      "##SL": 3628,
      "##Center": 3629,
      "##iting": 3630,
      "scal": 3631,
      "flag": 3632,
      "Vec": 3633,
      "##Video": 3634,
      "retval": 3635,
      "##ffect": 3636,
      "##Pointer": 3637,
      "##RD": 3638,
      "##10": 3639,
      "FLAG": 3640,
      "##Net": 3641,
      "decl": 3642,
      "##Seq": 3643,
      "ts": 3644,
      "tuple": 3645,
      "##ug": 3646,
      "Container": 3647,
      "Command": 3648,
      "Vis": 3649,
      "cipher": 3650,
      "##aN": 3651,
      "##Allowed": 3652,
      "partition": 3653,
      "##atio": 3654,
      "liberty": 3655,
      "Named": 3656,
      "##eigh": 3657,
      "##eric": 3658,
      "media": 3659,
      "##Public": 3660,
      "##OUT": 3661,
      "realm": 3662,
      "VO": 3663,
      "stats": 3664,
      "##inder": 3665,
      "getMax": 3666,
      "##Coord": 3667,
      "##32": 3668,
      "##wo": 3669,
      "Check": 3670,
      "UI": 3671,
      "net": 3672,
      "##3D": 3673,
      "##Constant": 3674,
      "##orizontal": 3675,
      "##Components": 3676,
      "HttpServletResponse": 3677,
      "parts": 3678,
      "CHAR": 3679,
      "av": 3680,
      "yy": 3681,
      "##Binary": 3682,
      "##tivate": 3683,
      "common": 3684,
      "schedule": 3685,
      "##arm": 3686,
      "##Tokenizer": 3687,
      "getAbsolutePath": 3688,
      "upper": 3689,
      "##Wri": 3690,
      "##imiter": 3691,
      "Pair": 3692,
      "##Flag": 3693,
      "cre": 3694,
      "##Touch": 3695,
      "##eatures": 3696,
      "##board": 3697,
      "sq": 3698,
      "executor": 3699,
      "Database": 3700,
      "##ridge": 3701,
      "##ario": 3702,
      "Player": 3703,
      "vec": 3704,
      "##ClassLoader": 3705,
      "##oto": 3706,
      "Id": 3707,
      "jm": 3708,
      "##mentation": 3709,
      "##Gen": 3710,
      "##Report": 3711,
      "##alf": 3712,
      "##blem": 3713,
      "##ooser": 3714,
      "states": 3715,
      "Binary": 3716,
      "global": 3717,
      "month": 3718,
      "##ryp": 3719,
      "PR": 3720,
      "##bar": 3721,
      "##ester": 3722,
      "##ely": 3723,
      "mean": 3724,
      "##dr": 3725,
      "##Real": 3726,
      "Psi": 3727,
      "##DT": 3728,
      "##Chart": 3729,
      "resources": 3730,
      "##losure": 3731,
      "existing": 3732,
      "vals": 3733,
      "space": 3734,
      "##Save": 3735,
      "START": 3736,
      "##Chain": 3737,
      "packageName": 3738,
      "DTM": 3739,
      "pref": 3740,
      "##leep": 3741,
      "END": 3742,
      "ab": 3743,
      "sem": 3744,
      "##PLICATION": 3745,
      "##tl": 3746,
      "##alformed": 3747,
      "Column": 3748,
      "##etooth": 3749,
      "getLength": 3750,
      "##luetooth": 3751,
      "Cl": 3752,
      "##False": 3753,
      "getElements": 3754,
      "##class": 3755,
      "fieldId": 3756,
      "##orter": 3757,
      "ObjectInputStream": 3758,
      "Socket": 3759,
      "##Radius": 3760,
      "oldValue": 3761,
      "##ict": 3762,
      "##Program": 3763,
      "##arable": 3764,
      "##OUR": 3765,
      "tenant": 3766,
      "##Card": 3767,
      "monitor": 3768,
      "##ADER": 3769,
      "COMP": 3770,
      "##Locator": 3771,
      "##Det": 3772,
      "##Select": 3773,
      "expand": 3774,
      "##Sk": 3775,
      "##ede": 3776,
      "Shape": 3777,
      "##Usage": 3778,
      "##Mouse": 3779,
      "##ective": 3780,
      "##JECT": 3781,
      "##aller": 3782,
      "##WOR": 3783,
      "setValue": 3784,
      "metadata": 3785,
      "auto": 3786,
      "origin": 3787,
      "SK": 3788,
      "ind": 3789,
      "##Drag": 3790,
      "readInt": 3791,
      "##mpt": 3792,
      "##ui": 3793,
      "##ans": 3794,
      "Project": 3795,
      "Mouse": 3796,
      "##eted": 3797,
      "##road": 3798,
      "booleanValue": 3799,
      "##chedul": 3800,
      "Header": 3801,
      "Iterable": 3802,
      "##ONG": 3803,
      "##gnor": 3804,
      "ATTRIBUTE": 3805,
      "Group": 3806,
      "md": 3807,
      "##vant": 3808,
      "##oducer": 3809,
      "pi": 3810,
      "waitFor": 3811,
      "getSelected": 3812,
      "CC": 3813,
      "uuid": 3814,
      "##Hint": 3815,
      "##rage": 3816,
      "arguments": 3817,
      "TABLE": 3818,
      "iv": 3819,
      "##UP": 3820,
      "##Paths": 3821,
      "evt": 3822,
      "General": 3823,
      "OFF": 3824,
      "##AST": 3825,
      "Optional": 3826,
      "after": 3827,
      "security": 3828,
      "writeObject": 3829,
      "##END": 3830,
      "TransformerException": 3831,
      "MODE": 3832,
      "ui": 3833,
      "##Pending": 3834,
      "##ding": 3835,
      "DIS": 3836,
      "##mit": 3837,
      "##Evalu": 3838,
      "##OK": 3839,
      "feature": 3840,
      "##HOD": 3841,
      "##rust": 3842,
      "Stack": 3843,
      "Enum": 3844,
      "##Constraints": 3845,
      "UnsupportedOperationException": 3846,
      "suffix": 3847,
      "before": 3848,
      "vector": 3849,
      "##Single": 3850,
      "##rary": 3851,
      "##Execution": 3852,
      "supp": 3853,
      "##Processing": 3854,
      "mCurrent": 3855,
      "patch": 3856,
      "##20": 3857,
      "ClassLoader": 3858,
      "##Widget": 3859,
      "##Import": 3860,
      "fs": 3861,
      "PER": 3862,
      "##box": 3863,
      "##Core": 3864,
      "delay": 3865,
      "##Preview": 3866,
      "##data": 3867,
      "##ulator": 3868,
      "pw": 3869,
      "##Conf": 3870,
      "##Send": 3871,
      "My": 3872,
      "play": 3873,
      "##oid": 3874,
      "MSG": 3875,
      "Position": 3876,
      "##IFI": 3877,
      "normalize": 3878,
      "##Groups": 3879,
      "##Running": 3880,
      "##argin": 3881,
      "drawable": 3882,
      "INSTAN": 3883,
      "unlock": 3884,
      "##Operations": 3885,
      "##dentials": 3886,
      "putExtra": 3887,
      "##ship": 3888,
      "pc": 3889,
      "##Route": 3890,
      "##cast": 3891,
      "policy": 3892,
      "##ByTagName": 3893,
      "PROPERTY": 3894,
      "##AIN": 3895,
      "gen": 3896,
      "##Stage": 3897,
      "tokens": 3898,
      "##edException": 3899,
      "series": 3900,
      "seq": 3901,
      "##Batch": 3902,
      "##peed": 3903,
      "##arse": 3904,
      "##ALL": 3905,
      "##Environment": 3906,
      "getRoot": 3907,
      "METHOD": 3908,
      "x1": 3909,
      "##sp": 3910,
      "setAttribute": 3911,
      "##endency": 3912,
      "lastIndexOf": 3913,
      "detail": 3914,
      "##VM": 3915,
      "##NI": 3916,
      "localName": 3917,
      "##Org": 3918,
      "Cursor": 3919,
      "binary": 3920,
      "##urface": 3921,
      "NONE": 3922,
      "##fiable": 3923,
      "getSize": 3924,
      "Met": 3925,
      "##MP": 3926,
      "##Com": 3927,
      "##Each": 3928,
      "adj": 3929,
      "getElementsByTagName": 3930,
      "MeasureSpec": 3931,
      "##Pixel": 3932,
      "##aml": 3933,
      "APPLICATION": 3934,
      "ASN1": 3935,
      "##ular": 3936,
      "trigger": 3937,
      "##buf": 3938,
      "##Clause": 3939,
      "best": 3940,
      "##Filename": 3941,
      "getObject": 3942,
      "setVisible": 3943,
      "##Primitive": 3944,
      "##leted": 3945,
      "download": 3946,
      "##rd": 3947,
      "removed": 3948,
      "Virtual": 3949,
      "compile": 3950,
      "warning": 3951,
      "p2": 3952,
      "##ors": 3953,
      "##ORE": 3954,
      "hi": 3955,
      "##rarch": 3956,
      "invalidate": 3957,
      "##NG": 3958,
      "getSource": 3959,
      "LOC": 3960,
      "##OP": 3961,
      "contact": 3962,
      "convertTo": 3963,
      "STATUS": 3964,
      "##JSON": 3965,
      "isLog": 3966,
      "OB": 3967,
      "escape": 3968,
      "Bean": 3969,
      "##rad": 3970,
      "Coordinate": 3971,
      "PL": 3972,
      "img": 3973,
      "##bl": 3974,
      "##Iter": 3975,
      "##ierarch": 3976,
      "##Commit": 3977,
      "omg": 3978,
      "disp": 3979,
      "ByteArrayInputStream": 3980,
      "##Admin": 3981,
      "INavi": 3982,
      "##Unique": 3983,
      "Syn": 3984,
      "deg": 3985,
      "##nalyzer": 3986,
      "##Timer": 3987,
      "NEW": 3988,
      "snapshot": 3989,
      "evaluate": 3990,
      "Border": 3991,
      "mContext": 3992,
      "##wn": 3993,
      "Fields": 3994,
      "NumberFormatException": 3995,
      "non": 3996,
      "##Reply": 3997,
      "install": 3998,
      "DOMException": 3999,
      "##lain": 4000,
      "##vance": 4001,
      "##VALID": 4002,
      "##Year": 4003,
      "XY": 4004,
      "pending": 4005,
      "##eur": 4006,
      "mapping": 4007,
      "Enc": 4008,
      "failed": 4009,
      "Statement": 4010,
      "##eive": 4011,
      "##me": 4012,
      "##euron": 4013,
      "bas": 4014,
      "##Saf": 4015,
      "where": 4016,
      "##Threshold": 4017,
      "##Identity": 4018,
      "##requ": 4019,
      "fetch": 4020,
      "##caster": 4021,
      "setEnabled": 4022,
      "##Matcher": 4023,
      "control": 4024,
      "##QUEST": 4025,
      "WAR": 4026,
      "##Security": 4027,
      "##ade": 4028,
      "##Actions": 4029,
      "Is": 4030,
      "##InstanceState": 4031,
      "##Receiver": 4032,
      "EV": 4033,
      "Tag": 4034,
      "##irect": 4035,
      "forward": 4036,
      "##BusinessObject": 4037,
      "TRUE": 4038,
      "##Db": 4039,
      "##tities": 4040,
      "##ware": 4041,
      "INVALID": 4042,
      "##KeySpec": 4043,
      "##Characters": 4044,
      "##Native": 4045,
      "cas": 4046,
      "indent": 4047,
      "##inglet": 4048,
      "##ildcard": 4049,
      "##fine": 4050,
      "CLASS": 4051,
      "##ingleton": 4052,
      "##istency": 4053,
      "Cont": 4054,
      "##NumberOf": 4055,
      "MediaType": 4056,
      "import": 4057,
      "##Media": 4058,
      "##Bucket": 4059,
      "##oft": 4060,
      "jo": 4061,
      "FS": 4062,
      "comparator": 4063,
      "##rupt": 4064,
      "REQUEST": 4065,
      "Page": 4066,
      "pt": 4067,
      "nextInt": 4068,
      "peer": 4069,
      "##Auto": 4070,
      "##luded": 4071,
      "##DF": 4072,
      "writeInt": 4073,
      "Base64": 4074,
      "android": 4075,
      "ARRAY": 4076,
      "##ederation": 4077,
      "stri": 4078,
      "CONTENT": 4079,
      "##Elem": 4080,
      "INTER": 4081,
      "##Endpoint": 4082,
      "##Encoded": 4083,
      "PrintWriter": 4084,
      "Notification": 4085,
      "millis": 4086,
      "symbol": 4087,
      "readLine": 4088,
      "DELE": 4089,
      "##ersistent": 4090,
      "isL": 4091,
      "##Safely": 4092,
      "DN": 4093,
      "##da": 4094,
      "##Contact": 4095,
      "interval": 4096,
      "DATA": 4097,
      "Edge": 4098,
      "Del": 4099,
      "box": 4100,
      "dn": 4101,
      "Malformed": 4102,
      "descriptor": 4103,
      "Cat": 4104,
      "##entence": 4105,
      "NODE": 4106,
      "##Managed": 4107,
      "##bert": 4108,
      "##Need": 4109,
      "isF": 4110,
      "Bit": 4111,
      "##Owner": 4112,
      "Runnable": 4113,
      "##Compat": 4114,
      "sever": 4115,
      "Soot": 4116,
      "candidate": 4117,
      "identifier": 4118,
      "ok": 4119,
      "##Contents": 4120,
      "##Bottom": 4121,
      "attValue": 4122,
      "##StartRead": 4123,
      "ioe": 4124,
      "##Ar": 4125,
      "getSh": 4126,
      "##Price": 4127,
      "##ELD": 4128,
      "packet": 4129,
      "zzStartRead": 4130,
      "##known": 4131,
      "addTo": 4132,
      "##Disk": 4133,
      "ACC": 4134,
      "##size": 4135,
      "##aring": 4136,
      "##Async": 4137,
      "changed": 4138,
      "ARG": 4139,
      "##aj": 4140,
      "errorCode": 4141,
      "getPrefix": 4142,
      "FileNotFoundException": 4143,
      "Cluster": 4144,
      "##ycler": 4145,
      "cb": 4146,
      "STRING": 4147,
      "##oud": 4148,
      "pair": 4149,
      "INFO": 4150,
      "Directory": 4151,
      "##PO": 4152,
      "##Camera": 4153,
      "##icense": 4154,
      "utils": 4155,
      "support": 4156,
      "XMLStreamWriter": 4157,
      "##TipText": 4158,
      "Font": 4159,
      "rBytes": 4160,
      "##Join": 4161,
      "##anos": 4162,
      "##abilities": 4163,
      "section": 4164,
      "lex": 4165,
      "ins": 4166,
      "##OptionPane": 4167,
      "##UN": 4168,
      "algorithm": 4169,
      "isDirectory": 4170,
      "##Reason": 4171,
      "ba": 4172,
      "lo": 4173,
      "mock": 4174,
      "web": 4175,
      "##Runner": 4176,
      "cos": 4177,
      "##ticle": 4178,
      "userId": 4179,
      "PREFIX": 4180,
      "##SET": 4181,
      "shift": 4182,
      "##nalys": 4183,
      "Catbert": 4184,
      "FIN": 4185,
      "currentThread": 4186,
      "##onical": 4187,
      "##rency": 4188,
      "##Split": 4189,
      "Register": 4190,
      "##Contain": 4191,
      "Mutable": 4192,
      "PATH": 4193,
      "##Success": 4194,
      "##CL": 4195,
      "##he": 4196,
      "bin": 4197,
      "lon": 4198,
      "##ParseException": 4199,
      "Assertion": 4200,
      "##ci": 4201,
      "##AlgorithmException": 4202,
      "foo": 4203,
      "##pings": 4204,
      "##enario": 4205,
      "##quip": 4206,
      "##EventListener": 4207,
      "##Present": 4208,
      "##avig": 4209,
      "FR": 4210,
      "##iver": 4211,
      "##Buff": 4212,
      "Account": 4213,
      "Location": 4214,
      "##Tick": 4215,
      "isD": 4216,
      "Point2D": 4217,
      "INSTANCE": 4218,
      "replaceAll": 4219,
      "##Views": 4220,
      "##Tuple": 4221,
      "Term": 4222,
      "mo": 4223,
      "##AV": 4224,
      "##Texture": 4225,
      "emit": 4226,
      "gc": 4227,
      "getMethod": 4228,
      "##Assign": 4229,
      "##nalysis": 4230,
      "##qtt": 4231,
      "##nder": 4232,
      "XMLStreamException": 4233,
      "Job": 4234,
      "##Cookie": 4235,
      "runn": 4236,
      "sleep": 4237,
      "PI": 4238,
      "##Sink": 4239,
      "UUID": 4240,
      "##current": 4241,
      "columnIndex": 4242,
      "Output": 4243,
      "FastStack": 4244,
      "Solr": 4245,
      "##Mirror": 4246,
      "##Old": 4247,
      "toChar": 4248,
      "getDocument": 4249,
      "Rect": 4250,
      "native": 4251,
      "mapper": 4252,
      "runSafely": 4253,
      "Bad": 4254,
      "JOptionPane": 4255,
      "##Anchor": 4256,
      "##ider": 4257,
      "##quested": 4258,
      "setColor": 4259,
      "##ORY": 4260,
      "Geo": 4261,
      "##LED": 4262,
      "acc": 4263,
      "##Predicate": 4264,
      "NoSuchAlgorithmException": 4265,
      "##Same": 4266,
      "stat": 4267,
      "assertFalse": 4268,
      "sim": 4269,
      "##CR": 4270,
      "##mploy": 4271,
      "nextToken": 4272,
      "##Ban": 4273,
      "##tored": 4274,
      "endIndex": 4275,
      "##ACH": 4276,
      "factor": 4277,
      "##nsw": 4278,
      "##Units": 4279,
      "##Removed": 4280,
      "Synth": 4281,
      "XPath": 4282,
      "PARAM": 4283,
      "##NonNull": 4284,
      "##ross": 4285,
      "##nti": 4286,
      "getResources": 4287,
      "vertex": 4288,
      "##otated": 4289,
      "##MetaData": 4290,
      "##Calc": 4291,
      "##Changes": 4292,
      "##GL": 4293,
      "findView": 4294,
      "dc": 4295,
      "##CS": 4296,
      "##achine": 4297,
      "LONG": 4298,
      "##len": 4299,
      "ann": 4300,
      "##Vol": 4301,
      "##Month": 4302,
      "##El": 4303,
      "##Help": 4304,
      "Script": 4305,
      "##lers": 4306,
      "##vity": 4307,
      "##agn": 4308,
      "profile": 4309,
      "##covery": 4310,
      "sin": 4311,
      "##UpperCase": 4312,
      "sip": 4313,
      "##unc": 4314,
      "##Score": 4315,
      "dump": 4316,
      "route": 4317,
      "ObjectOutputStream": 4318,
      "Exec": 4319,
      "reply": 4320,
      "getApp": 4321,
      "getNum": 4322,
      "topic": 4323,
      "ssl": 4324,
      "Volume": 4325,
      "newVector": 4326,
      "minute": 4327,
      "##PARATOR": 4328,
      "##Common": 4329,
      "Frame": 4330,
      "der": 4331,
      "dist": 4332,
      "##firm": 4333,
      "slot": 4334,
      "attributePrefix": 4335,
      "span": 4336,
      "##Finished": 4337,
      "##Amount": 4338,
      "##Replace": 4339,
      "##polator": 4340,
      "##Bus": 4341,
      "##cedure": 4342,
      "##ajor": 4343,
      "##arge": 4344,
      "recei": 4345,
      "Qu": 4346,
      "Prot": 4347,
      "free": 4348,
      "##oice": 4349,
      "##Rest": 4350,
      "##Dataset": 4351,
      "required": 4352,
      "##etter": 4353,
      "##tf": 4354,
      "nextElement": 4355,
      "##Errors": 4356,
      "SSL": 4357,
      "##HexString": 4358,
      "CAN": 4359,
      "dot": 4360,
      "##go": 4361,
      "##Literal": 4362,
      "##itional": 4363,
      "##FFER": 4364,
      "##ensity": 4365,
      "##Switch": 4366,
      "##apsed": 4367,
      "repository": 4368,
      "Composite": 4369,
      "##ategories": 4370,
      "hasMoreElements": 4371,
      "cm": 4372,
      "##Throw": 4373,
      "ASTNode": 4374,
      "##Sl": 4375,
      "StringWriter": 4376,
      "Schema": 4377,
      "setProperty": 4378,
      "Paint": 4379,
      "Parser": 4380,
      "SKILL": 4381,
      "##tx": 4382,
      "##States": 4383,
      "businessObjectData": 4384,
      "##SITIVE": 4385,
      "##Section": 4386,
      "##Tri": 4387,
      "isB": 4388,
      "##Graphic": 4389,
      "##fact": 4390,
      "##ilation": 4391,
      "##Statistics": 4392,
      "##sheet": 4393,
      "##OUND": 4394,
      "##Ab": 4395,
      "SSO": 4396,
      "##Mod": 4397,
      "##AIL": 4398,
      "getLast": 4399,
      "getHost": 4400,
      "reverse": 4401,
      "EC": 4402,
      "##stim": 4403,
      "##ific": 4404,
      "##Closed": 4405,
      "##11": 4406,
      "registry": 4407,
      "JC": 4408,
      "s2": 4409,
      "nb": 4410,
      "outputStream": 4411,
      "Region": 4412,
      "##Refresh": 4413,
      "##bservable": 4414,
      "OM": 4415,
      "##rammar": 4416,
      "getStatus": 4417,
      "quote": 4418,
      "HEADER": 4419,
      "hour": 4420,
      "forEach": 4421,
      "skillcaster": 4422,
      "ELE": 4423,
      "ce": 4424,
      "##Imp": 4425,
      "getClient": 4426,
      "##adow": 4427,
      "##Syntax": 4428,
      "go": 4429,
      "##eak": 4430,
      "##rance": 4431,
      "##Stmt": 4432,
      "##mployee": 4433,
      "##Serializer": 4434,
      "##Digit": 4435,
      "mimeType": 4436,
      "sr": 4437,
      "dos": 4438,
      "##icator": 4439,
      "##aterial": 4440,
      "getComponent": 4441,
      "throwable": 4442,
      "##tachment": 4443,
      "c1": 4444,
      "##Uuid": 4445,
      "##Orig": 4446,
      "inters": 4447,
      "isEnabled": 4448,
      "##vide": 4449,
      "AUT": 4450,
      "getItem": 4451,
      "feed": 4452,
      "##Virtual": 4453,
      "##key": 4454,
      "##ernel": 4455,
      "##16": 4456,
      "##ryption": 4457,
      "##struct": 4458,
      "##impleName": 4459,
      "##Depth": 4460,
      "##terns": 4461,
      "##log": 4462,
      "Non": 4463,
      "##Ptr": 4464,
      "##orization": 4465,
      "getIn": 4466,
      "endpoint": 4467,
      "##Whitespace": 4468,
      "##way": 4469,
      "inf": 4470,
      "calendar": 4471,
      "##later": 4472,
      "##atible": 4473,
      "##rchive": 4474,
      "USER": 4475,
      "##Custom": 4476,
      "KeyEvent": 4477,
      "getIndex": 4478,
      "##apse": 4479,
      "isNull": 4480,
      "transformer": 4481,
      "renderer": 4482,
      "sqrt": 4483,
      "findViewById": 4484,
      "FORM": 4485,
      "audio": 4486,
      "bNumber": 4487,
      "mR": 4488,
      "zip": 4489,
      "imp": 4490,
      "##LY": 4491,
      "##Lon": 4492,
      "##Suite": 4493,
      "FIELD": 4494,
      "##ose": 4495,
      "##Im": 4496,
      "doubleValue": 4497,
      "SUB": 4498,
      "classes": 4499,
      "SAML2": 4500,
      "im": 4501,
      "rotate": 4502,
      "##Foo": 4503,
      "##Indices": 4504,
      "##aming": 4505,
      "##eme": 4506,
      "filePath": 4507,
      "##aredPreferences": 4508,
      "jar": 4509,
      "SQLite": 4510,
      "SET": 4511,
      "indices": 4512,
      "preview": 4513,
      "##Primary": 4514,
      "##Chooser": 4515,
      "##IND": 4516,
      "##Vari": 4517,
      "##eloc": 4518,
      "##ierarchy": 4519,
      "Or": 4520,
      "perm": 4521,
      "units": 4522,
      "##Pref": 4523,
      "InetAddress": 4524,
      "##World": 4525,
      "primary": 4526,
      "##lice": 4527,
      "enabled": 4528,
      "Servlet": 4529,
      "processor": 4530,
      "##Seconds": 4531,
      "Dyn": 4532,
      "Host": 4533,
      "dm": 4534,
      "##Missing": 4535,
      "##Stamp": 4536,
      "one": 4537,
      "s1": 4538,
      "##BER": 4539,
      "dp": 4540,
      "score": 4541,
      "##AccessException": 4542,
      "OPTION": 4543,
      "##Tile": 4544,
      "##Normal": 4545,
      "##antic": 4546,
      "collect": 4547,
      "INDEX": 4548,
      "##binding": 4549,
      "##enta": 4550,
      "##Login": 4551,
      "concat": 4552,
      "Comm": 4553,
      "Mark": 4554,
      "##FT": 4555,
      "##ertices": 4556,
      "CONFI": 4557,
      "##Drawer": 4558,
      "savedInstanceState": 4559,
      "##requency": 4560,
      "cc": 4561,
      "##eel": 4562,
      "contentType": 4563,
      "TimeUnit": 4564,
      "LD": 4565,
      "board": 4566,
      "##odec": 4567,
      "selector": 4568,
      "##Functions": 4569,
      "ADD": 4570,
      "##ritical": 4571,
      "##trib": 4572,
      "program": 4573,
      "##IDs": 4574,
      "##Expand": 4575,
      "##Resolution": 4576,
      "##lusive": 4577,
      "##DateTime": 4578,
      "Per": 4579,
      "Version": 4580,
      "getSc": 4581,
      "Async": 4582,
      "iss": 4583,
      "##Share": 4584,
      "controller": 4585,
      "Der": 4586,
      "##register": 4587,
      "##umes": 4588,
      "##Self": 4589,
      "visible": 4590,
      "EXTR": 4591,
      "period": 4592,
      "notNull": 4593,
      "##Candidate": 4594,
      "##vious": 4595,
      "##Disp": 4596,
      "##roadcast": 4597,
      "##igration": 4598,
      "disable": 4599,
      "columnName": 4600,
      "##Delta": 4601,
      "Update": 4602,
      "coef": 4603,
      "##eh": 4604,
      "##Services": 4605,
      "##Direction": 4606,
      "##Export": 4607,
      "Ad": 4608,
      "copyOf": 4609,
      "keep": 4610,
      "##Extended": 4611,
      "mac": 4612,
      "setLayout": 4613,
      "##NotSupported": 4614,
      "Display": 4615,
      "Foo": 4616,
      "##pping": 4617,
      "expect": 4618,
      "##Delegate": 4619,
      "POST": 4620,
      "##Popup": 4621,
      "##gable": 4622,
      "##aces": 4623,
      "##rypted": 4624,
      "Cipher": 4625,
      "Di": 4626,
      "DI": 4627,
      "##edi": 4628,
      "##Principal": 4629,
      "Segment": 4630,
      "kind": 4631,
      "cached": 4632,
      "newNode": 4633,
      "Dynamic": 4634,
      "##Can": 4635,
      "##Consumer": 4636,
      "##quipment": 4637,
      "e1": 4638,
      "##outing": 4639,
      "##Distribution": 4640,
      "##ifi": 4641,
      "getElement": 4642,
      "addListener": 4643,
      "onCreate": 4644,
      "CODE": 4645,
      "Plugin": 4646,
      "##OV": 4647,
      "Template": 4648,
      "jmri": 4649,
      "##arsh": 4650,
      "##Squ": 4651,
      "##Cipher": 4652,
      "##OS": 4653,
      "shard": 4654,
      "Comparable": 4655,
      "##Destroy": 4656,
      "OBJECT": 4657,
      "##Flow": 4658,
      "getDecla": 4659,
      "##MenuItem": 4660,
      "ACT": 4661,
      "Core": 4662,
      "pow": 4663,
      "##Payment": 4664,
      "assertNull": 4665,
      "##egative": 4666,
      "##Requests": 4667,
      "widget": 4668,
      "##Criteria": 4669,
      "##Has": 4670,
      "getMin": 4671,
      "multiply": 4672,
      "core": 4673,
      "##vis": 4674,
      "##Used": 4675,
      "Audio": 4676,
      "##tifact": 4677,
      "DSBan": 4678,
      "loadFactor": 4679,
      "Unit": 4680,
      "Sn": 4681,
      "Graphics2D": 4682,
      "axis2": 4683,
      "WARN": 4684,
      "##nswer": 4685,
      "initiator": 4686,
      "##nces": 4687,
      "##Previous": 4688,
      "##cheduler": 4689,
      "oid": 4690,
      "##Graphics": 4691,
      "SEPARATOR": 4692,
      "##Mo": 4693,
      "getAttributes": 4694,
      "##illing": 4695,
      "car": 4696,
      "##rift": 4697,
      "##Invocation": 4698,
      "forName": 4699,
      "drop": 4700,
      "##boBox": 4701,
      "Converter": 4702,
      "cnt": 4703,
      "debugger": 4704,
      "Charset": 4705,
      "allocate": 4706,
      "##NotSupportedException": 4707,
      "FOR": 4708,
      "SWT": 4709,
      "##omial": 4710,
      "deploy": 4711,
      "sys": 4712,
      "getModel": 4713,
      "constant": 4714,
      "checkArgument": 4715,
      "tr": 4716,
      "##Slot": 4717,
      "##Dao": 4718,
      "Timestamp": 4719,
      "##dir": 4720,
      "sax": 4721,
      "##ERO": 4722,
      "Signature": 4723,
      "##Trim": 4724,
      "##odifiable": 4725,
      "getConnection": 4726,
      "##AMES": 4727,
      "Hashtable": 4728,
      "##ApiClient": 4729,
      "##NNAME": 4730,
      "COLUMNNAME": 4731,
      "tile": 4732,
      "##Trigger": 4733,
      "Constraint": 4734,
      "##licate": 4735,
      "BIT": 4736,
      "setName": 4737,
      "opcode": 4738,
      "animator": 4739,
      "##ncestor": 4740,
      "chain": 4741,
      "clip": 4742,
      "##rget": 4743,
      "##Priority": 4744,
      "Localizable": 4745,
      "ALL": 4746,
      "##Summary": 4747,
      "##Collector": 4748,
      "##elocity": 4749,
      "messages": 4750,
      "##SION": 4751,
      "setS": 4752,
      "ResultSet": 4753,
      "Symbol": 4754,
      "ob": 4755,
      "groups": 4756,
      "##Patch": 4757,
      "regex": 4758,
      "CU": 4759,
      "plan": 4760,
      "##RESS": 4761,
      "rc": 4762,
      "##rain": 4763,
      "##Props": 4764,
      "##DataSet": 4765,
      "MouseEvent": 4766,
      "##gnored": 4767,
      "##ogram": 4768,
      "delimiter": 4769,
      "Read": 4770,
      "##DateFormat": 4771,
      "GET": 4772,
      "priority": 4773,
      "##ARD": 4774,
      "actions": 4775,
      "Matcher": 4776,
      "##Calendar": 4777,
      "##ecision": 4778,
      "getE": 4779,
      "Inline": 4780,
      "##Diff": 4781,
      "Carbon": 4782,
      "toUpperCase": 4783,
      "##stanti": 4784,
      "databinding": 4785,
      "##TTP": 4786,
      "Criteria": 4787,
      "orientation": 4788,
      "scheme": 4789,
      "##SP": 4790,
      "##Illegal": 4791,
      "DES": 4792,
      "df": 4793,
      "restore": 4794,
      "mView": 4795,
      "x2": 4796,
      "##Deg": 4797,
      "##kt": 4798,
      "##DataSource": 4799,
      "##OUNT": 4800,
      "Opc": 4801,
      "Tuple": 4802,
      "game": 4803,
      "##tree": 4804,
      "##ich": 4805,
      "##target": 4806,
      "getState": 4807,
      "invalid": 4808,
      "##live": 4809,
      "complete": 4810,
      "READ": 4811,
      "requireNonNull": 4812,
      "Hand": 4813,
      "QName": 4814,
      "threshold": 4815,
      "##Break": 4816,
      "LayoutParams": 4817,
      "BE": 4818,
      "newCapacity": 4819,
      "systemId": 4820,
      "EVENT": 4821,
      "Atom": 4822,
      "rhs": 4823,
      "##Lat": 4824,
      "##ctxt": 4825,
      "##This": 4826,
      "deserial": 4827,
      "email": 4828,
      "CONFIG": 4829,
      "##cr": 4830,
      "##Site": 4831,
      "##Home": 4832,
      "##Added": 4833,
      "##Email": 4834,
      "##Alert": 4835,
      "##Threads": 4836,
      "##CONDS": 4837,
      "cv": 4838,
      "##Language": 4839,
      "##peri": 4840,
      "getSimpleName": 4841,
      "##agement": 4842,
      "preference": 4843,
      "CLO": 4844,
      "Format": 4845,
      "##sFor": 4846,
      "##words": 4847,
      "maximum": 4848,
      "##Encoder": 4849,
      "ir": 4850,
      "formatter": 4851,
      "tableName": 4852,
      "contents": 4853,
      "html": 4854,
      "##urrency": 4855,
      "##Exc": 4856,
      "xctxt": 4857,
      "setContent": 4858,
      "Vector2": 4859,
      "done": 4860,
      "##Ratio": 4861,
      "##istogram": 4862,
      "ord": 4863,
      "operator": 4864,
      "BUFFER": 4865,
      "TEST": 4866,
      "##Dto": 4867,
      "##EncodingException": 4868,
      "##Relative": 4869,
      "getView": 4870,
      "InputStreamReader": 4871,
      "CONN": 4872,
      "cmp": 4873,
      "folder": 4874,
      "##avor": 4875,
      "paths": 4876,
      "##Transition": 4877,
      "LocalizableMessage": 4878,
      "stage": 4879,
      "payload": 4880,
      "WID": 4881,
      "##eline": 4882,
      "##mplementation": 4883,
      "skilltarget": 4884,
      "ItemStack": 4885,
      "Plan": 4886,
      "##kit": 4887,
      "##ipant": 4888,
      "##ipient": 4889,
      "pres": 4890,
      "language": 4891,
      "scanner": 4892,
      "OK": 4893,
      "me": 4894,
      "getStart": 4895,
      "Localized": 4896,
      "Messages": 4897,
      "aBytes": 4898,
      "##FS": 4899,
      "##Setting": 4900,
      "cols": 4901,
      "uis": 4902,
      "getDisplay": 4903,
      "getSession": 4904,
      "Relation": 4905,
      "perform": 4906,
      "Ins": 4907,
      "leg": 4908,
      "##Effect": 4909,
      "##urnal": 4910,
      "hide": 4911,
      "##dc": 4912,
      "##Edges": 4913,
      "##connect": 4914,
      "##Simple": 4915,
      "wsf": 4916,
      "Policy": 4917,
      "y1": 4918,
      "##Lookup": 4919,
      "pm": 4920,
      "##Place": 4921,
      "##idden": 4922,
      "TRAN": 4923,
      "semantic": 4924,
      "Rule": 4925,
      "##ube": 4926,
      "##rott": 4927,
      "fm": 4928,
      "DELETE": 4929,
      "##Unsigned": 4930,
      "Opcodes": 4931,
      "newSize": 4932,
      "##ivot": 4933,
      "Menu": 4934,
      "INIT": 4935,
      "equal": 4936,
      "##ToFile": 4937,
      "##Accept": 4938,
      "getTarget": 4939,
      "##azy": 4940,
      "##amb": 4941,
      "environment": 4942,
      "Short": 4943,
      "OUT": 4944,
      "##tn": 4945,
      "fac": 4946,
      "viewer": 4947,
      "##periment": 4948,
      "wsfederation": 4949,
      "##rieve": 4950,
      "toCharArray": 4951,
      "Bus": 4952,
      "##sIn": 4953,
      "##LD": 4954,
      "getAll": 4955,
      "Zip": 4956,
      "##utation": 4957,
      "##utom": 4958,
      "##change": 4959,
      "example": 4960,
      "ActionEvent": 4961,
      "##Digits": 4962,
      "Get": 4963,
      "launch": 4964,
      "##Sim": 4965,
      "##KN": 4966,
      "Change": 4967,
      "Order": 4968,
      "##epared": 4969,
      "ONE": 4970,
      "aSign": 4971,
      "##Cancel": 4972,
      "UT": 4973,
      "##ls": 4974,
      "##VEL": 4975,
      "##ticipant": 4976,
      "##ENTER": 4977,
      "##Rules": 4978,
      "hc": 4979,
      "pd": 4980,
      "tri": 4981,
      "Record": 4982,
      "background": 4983,
      "getNamespaceURI": 4984,
      "##now": 4985,
      "##Ip": 4986,
      "##Constructor": 4987,
      "interface": 4988,
      "##Members": 4989,
      "##Leaf": 4990,
      "##Math": 4991,
      "##bin": 4992,
      "##FileFilter": 4993,
      "##ATCH": 4994,
      "##bose": 4995,
      "CRE": 4996,
      "FAL": 4997,
      "po": 4998,
      "getPackage": 4999,
      "getError": 5000,
      "chart": 5001,
      "##LOW": 5002,
      "CHAN": 5003,
      "NAMES": 5004,
      "##Live": 5005,
      "##loader": 5006,
      "##INT": 5007,
      "##ready": 5008,
      "servant": 5009,
      "##OST": 5010,
      "FALSE": 5011,
      "area": 5012,
      "agent": 5013,
      "backup": 5014,
      "getChildren": 5015,
      "##MBean": 5016,
      "plot": 5017,
      "##uff": 5018,
      "##Exit": 5019,
      "blockSize": 5020,
      "semanticObject": 5021,
      "##Audio": 5022,
      "##Global": 5023,
      "isP": 5024,
      "##Blocks": 5025,
      "##tract": 5026,
      "##Radi": 5027,
      "##amil": 5028,
      "##TextField": 5029,
      "errors": 5030,
      "LINE": 5031,
      "##Final": 5032,
      "getSub": 5033,
      "minimum": 5034,
      "##Tables": 5035,
      "mIs": 5036,
      "timer": 5037,
      "value1": 5038,
      "minor": 5039,
      "EXP": 5040,
      "##Registration": 5041,
      "##PACE": 5042,
      "##Actor": 5043,
      "bi": 5044,
      "bar": 5045,
      "Objects": 5046,
      "severe": 5047,
      "ZERO": 5048,
      "##ceptor": 5049,
      "login": 5050,
      "REG": 5051,
      "Package": 5052,
      "##Sens": 5053,
      "##Cast": 5054,
      "isConnected": 5055,
      "##PropertyChangeListener": 5056,
      "##Assignment": 5057,
      "##Creator": 5058,
      "X509Certificate": 5059,
      "##Accessible": 5060,
      "PRIV": 5061,
      "Min": 5062,
      "by": 5063,
      "c2": 5064,
      "video": 5065,
      "##Arr": 5066,
      "##att": 5067,
      "##EP": 5068,
      "##losing": 5069,
      "memory": 5070,
      "Call": 5071,
      "anchor": 5072,
      "getField": 5073,
      "##Inte": 5074,
      "INFIN": 5075,
      "##Iteration": 5076,
      "setSelected": 5077,
      "groupId": 5078,
      "##Assignable": 5079,
      "CS": 5080,
      "marker": 5081,
      "##Upload": 5082,
      "BorderLayout": 5083,
      "Ref": 5084,
      "bs": 5085,
      "mM": 5086,
      "##Cause": 5087,
      "firstFree": 5088,
      "SynthContext": 5089,
      "##UMENT": 5090,
      "locator": 5091,
      "##Schedule": 5092,
      "##API": 5093,
      "##olyn": 5094,
      "##tinct": 5095,
      "sorted": 5096,
      "##ik": 5097,
      "##ier": 5098,
      "##CODE": 5099,
      "dataSet": 5100,
      "EXTRA": 5101,
      "##IE": 5102,
      "##Build": 5103,
      "Custom": 5104,
      "Role": 5105,
      "cg": 5106,
      "##IBLE": 5107,
      "##nnotated": 5108,
      "Condition": 5109,
      "FORMAT": 5110,
      "##uplicate": 5111,
      "getLong": 5112,
      "members": 5113,
      "RemoteException": 5114,
      "##QueryResult": 5115,
      "Range": 5116,
      "##PropertyDescriptor": 5117,
      "HTTP": 5118,
      "pk": 5119,
      "newVO": 5120,
      "oldVO": 5121,
      "serviceName": 5122,
      "##Connect": 5123,
      "note": 5124,
      "##Rem": 5125,
      "##ifest": 5126,
      "##RuntimeException": 5127,
      "##dbc": 5128,
      "##Performed": 5129,
      "##cu": 5130,
      "##str": 5131,
      "IllegalAccessException": 5132,
      "##ficient": 5133,
      "##Started": 5134,
      "adjust": 5135,
      "CENTER": 5136,
      "S2": 5137,
      "##Insert": 5138,
      "##Tasks": 5139,
      "##Infos": 5140,
      "Extension": 5141,
      "BLO": 5142,
      "Geometry": 5143,
      "RP": 5144,
      "##cies": 5145,
      "putAll": 5146,
      "WIDTH": 5147,
      "##nowled": 5148,
      "osc": 5149,
      "plus": 5150,
      "tc": 5151,
      "##ism": 5152,
      "##Subject": 5153,
      "##Multip": 5154,
      "Open": 5155,
      "##Clean": 5156,
      "Concurrent": 5157,
      "unregister": 5158,
      "fromIndex": 5159,
      "rest": 5160,
      "getLabel": 5161,
      "UnsupportedEncodingException": 5162,
      "PRIVATE": 5163,
      "np": 5164,
      "vendor": 5165,
      "##vc": 5166,
      "##alt": 5167,
      "SIP": 5168,
      "API": 5169,
      "JFrame": 5170,
      "Rcs": 5171,
      "##Perm": 5172,
      "Preference": 5173,
      "place": 5174,
      "zoom": 5175,
      "##Features": 5176,
      "wrapper": 5177,
      "##Zoom": 5178,
      "##Forward": 5179,
      "##HashSet": 5180,
      "oscm": 5181,
      "Runtime": 5182,
      "XSL": 5183,
      "cfg": 5184,
      "poll": 5185,
      "##mis": 5186,
      "##Ent": 5187,
      "##00": 5188,
      "##urs": 5189,
      "rp": 5190,
      "newState": 5191,
      "ops": 5192,
      "redu": 5193,
      "##olynomial": 5194,
      "Arg": 5195,
      "roll": 5196,
      "##ung": 5197,
      "##ODES": 5198,
      "labels": 5199,
      "moveTo": 5200,
      "##stream": 5201,
      "##Classifier": 5202,
      "startActivity": 5203,
      "##eighb": 5204,
      "##iet": 5205,
      "##Horizontal": 5206,
      "##Positions": 5207,
      "##ibling": 5208,
      "##Writable": 5209,
      "SQLiteDatabase": 5210,
      "##ARY": 5211,
      "##plex": 5212,
      "##Annotations": 5213,
      "IT": 5214,
      "StringTokenizer": 5215,
      "isLoggable": 5216,
      "pixel": 5217,
      "##TY": 5218,
      "##It": 5219,
      "populate": 5220,
      "relative": 5221,
      "getRequest": 5222,
      "serialize": 5223,
      "Clone": 5224,
      "batch": 5225,
      "##Jar": 5226,
      "LEFT": 5227,
      "FIL": 5228,
      "Pla": 5229,
      "##XY": 5230,
      "##etty": 5231,
      "##eground": 5232,
      "DOWN": 5233,
      "##18": 5234,
      "resultSet": 5235,
      "testGet": 5236,
      "sendMessage": 5237,
      "validator": 5238,
      "##Extensions": 5239,
      "Canvas": 5240,
      "fis": 5241,
      "##Orientation": 5242,
      "##ATED": 5243,
      "methods": 5244,
      "train": 5245,
      "##Vertical": 5246,
      "an": 5247,
      "##Aggreg": 5248,
      "##Loading": 5249,
      "hs": 5250,
      "##TES": 5251,
      "getLocation": 5252,
      "Feature": 5253,
      "virtual": 5254,
      "##ture": 5255,
      "##Clock": 5256,
      "##rase": 5257,
      "putString": 5258,
      "SEVER": 5259,
      "br": 5260,
      "mi": 5261,
      "##Invalid": 5262,
      "##Thrift": 5263,
      "repaint": 5264,
      "##nowledge": 5265,
      "##Coordinate": 5266,
      "BYTE": 5267,
      "ELEMENT": 5268,
      "man": 5269,
      "##Big": 5270,
      "ln": 5271,
      "sym": 5272,
      "##Producer": 5273,
      "##Vm": 5274,
      "retry": 5275,
      "getService": 5276,
      "##ano": 5277,
      "##Composite": 5278,
      "##ookmark": 5279,
      "mb": 5280,
      "measure": 5281,
      "tw": 5282,
      "##Stri": 5283,
      "##Prop": 5284,
      "##Preferred": 5285,
      "##Offsets": 5286,
      "##Locale": 5287,
      "getApplication": 5288,
      "INFINITY": 5289,
      "Void": 5290,
      "audit": 5291,
      "##dl": 5292,
      "insn": 5293,
      "##anges": 5294,
      "para": 5295,
      "enum": 5296,
      "putInt": 5297,
      "AssertionError": 5298,
      "##pr": 5299,
      "##Parse": 5300,
      "DEL": 5301,
      "##PUT": 5302,
      "##iform": 5303,
      "##Circle": 5304,
      "##antity": 5305,
      "##ingMode": 5306,
      "toHexString": 5307,
      "parsed": 5308,
      "##Received": 5309,
      "##Library": 5310,
      "##rottle": 5311,
      "##Week": 5312,
      "##Bag": 5313,
      "##25": 5314,
      "##rated": 5315,
      "addAttribute": 5316,
      "##ElementImpl": 5317,
      "##Backend": 5318,
      "##Consistency": 5319,
      "helper": 5320,
      "##ambda": 5321,
      "Create": 5322,
      "##RP": 5323,
      "##IZ": 5324,
      "##IndexOutOfBoundsException": 5325,
      "##outer": 5326,
      "TextUtils": 5327,
      "COLOR": 5328,
      "##ossible": 5329,
      "igfs": 5330,
      "##Scanner": 5331,
      "Word": 5332,
      "ll": 5333,
      "##Reset": 5334,
      "##Deploy": 5335,
      "ImmutableList": 5336,
      "##Subscription": 5337,
      "EOF": 5338,
      "##ConfigurationException": 5339,
      "##Retry": 5340,
      "mk": 5341,
      "##ux": 5342,
      "##UND": 5343,
      "star": 5344,
      "objects": 5345,
      "Standard": 5346,
      "alert": 5347,
      "##yclerView": 5348,
      "##inner": 5349,
      "resp": 5350,
      "##Records": 5351,
      "advance": 5352,
      "##Super": 5353,
      "getColor": 5354,
      "prob": 5355,
      "Coll": 5356,
      "Product": 5357,
      "##Marked": 5358,
      "GLES": 5359,
      "On": 5360,
      "card": 5361,
      "##12": 5362,
      "Settings": 5363,
      "SHORT": 5364,
      "holder": 5365,
      "##Pressed": 5366,
      "##used": 5367,
      "metric": 5368,
      "Span": 5369,
      "##KNOWN": 5370,
      "##amily": 5371,
      "arc": 5372,
      "certificate": 5373,
      "seek": 5374,
      "tick": 5375,
      "##UD": 5376,
      "getAddress": 5377,
      "Instruction": 5378,
      "##Translation": 5379,
      "isNaN": 5380,
      "##igure": 5381,
      "binding": 5382,
      "##ifiedName": 5383,
      "OFFSET": 5384,
      "##Escape": 5385,
      "##ires": 5386,
      "usage": 5387,
      "##RestRep": 5388,
      "MBean": 5389,
      "Lat": 5390,
      "retrieve": 5391,
      "zzBuffer": 5392,
      "accessToken": 5393,
      "GRO": 5394,
      "major": 5395,
      "##modifiable": 5396,
      "getLine": 5397,
      "getDescri": 5398,
      "Category": 5399,
      "classLoader": 5400,
      "shared": 5401,
      "UNKNOWN": 5402,
      "scalar": 5403,
      "supports": 5404,
      "##Main": 5405,
      "##KEN": 5406,
      "##Based": 5407,
      "look": 5408,
      "sender": 5409,
      "assertion": 5410,
      "ByteString": 5411,
      "At": 5412,
      "MAP": 5413,
      "##Machine": 5414,
      "##UUID": 5415,
      "##Gap": 5416,
      "Constant": 5417,
      "statusCode": 5418,
      "Executor": 5419,
      "##Cfg": 5420,
      "##Generic": 5421,
      "##FilePath": 5422,
      "##Atom": 5423,
      "docType": 5424,
      "modify": 5425,
      "##Needed": 5426,
      "Org": 5427,
      "getAccess": 5428,
      "##Chat": 5429,
      "typeName": 5430,
      "seconds": 5431,
      "##TERN": 5432,
      "am": 5433,
      "mB": 5434,
      "getUI": 5435,
      "receive": 5436,
      "##OURCE": 5437,
      "##QName": 5438,
      "getRow": 5439,
      "isAssignable": 5440,
      "currentNode": 5441,
      "Pred": 5442,
      "##side": 5443,
      "##AI": 5444,
      "##ece": 5445,
      "##ceed": 5446,
      "tags": 5447,
      "Environment": 5448,
      "ME": 5449,
      "##des": 5450,
      "Active": 5451,
      "##Authentic": 5452,
      "##Authentication": 5453,
      "Render": 5454,
      "##ife": 5455,
      "##Permissions": 5456,
      "lexer": 5457,
      "PORT": 5458,
      "mc": 5459,
      "##poch": 5460,
      "ComponentUI": 5461,
      "##ndivid": 5462,
      "IndexOutOfBoundsException": 5463,
      "##Sender": 5464,
      "##tag": 5465,
      "##angle": 5466,
      "##Suffix": 5467,
      "##Rotation": 5468,
      "##vm": 5469,
      "rules": 5470,
      "##viders": 5471,
      "Member": 5472,
      "getLogger": 5473,
      "##elep": 5474,
      "##ronology": 5475,
      "##ersistence": 5476,
      "NS": 5477,
      "aggreg": 5478,
      "getCount": 5479,
      "##ONT": 5480,
      "##Loaded": 5481,
      "dictionary": 5482,
      "##ixt": 5483,
      "##Upd": 5484,
      "##Alloc": 5485,
      "##Shared": 5486,
      "##Volumes": 5487,
      "##CI": 5488,
      "##Validate": 5489,
      "##Users": 5490,
      "Workflow": 5491,
      "##dk": 5492,
      "##ality": 5493,
      "##Completion": 5494,
      "##lank": 5495,
      "getNodeName": 5496,
      "##Structure": 5497,
      "Secret": 5498,
      "##Implementation": 5499,
      "##Decor": 5500,
      "NUMBER": 5501,
      "##Release": 5502,
      "##Sets": 5503,
      "strategy": 5504,
      "##efactor": 5505,
      "Future": 5506,
      "Pre": 5507,
      "drag": 5508,
      "o1": 5509,
      "##Lex": 5510,
      "##Ev": 5511,
      "##vile": 5512,
      "added": 5513,
      "swap": 5514,
      "##ORIZ": 5515,
      "basic": 5516,
      "##ros": 5517,
      "##Prob": 5518,
      "COR": 5519,
      "WH": 5520,
      "nodeType": 5521,
      "##Tracker": 5522,
      "BYTES": 5523,
      "AUTH": 5524,
      "NET": 5525,
      "##SC": 5526,
      "setPrefix": 5527,
      "CLI": 5528,
      "CloneNotSupportedException": 5529,
      "CAP": 5530,
      "cr": 5531,
      "eval": 5532,
      "##imed": 5533,
      "Files": 5534,
      "##lyph": 5535,
      "bad": 5536,
      "##Launch": 5537,
      "##Cost": 5538,
      "getResult": 5539,
      "##ilon": 5540,
      "##Convert": 5541,
      "Transformer": 5542,
      "variables": 5543,
      "Memory": 5544,
      "##Cnt": 5545,
      "isClosed": 5546,
      "getFirstChild": 5547,
      "LDAP": 5548,
      "sensor": 5549,
      "##Wrap": 5550,
      "##Utility": 5551,
      "##Allocation": 5552,
      "##avigation": 5553,
      "Tool": 5554,
      "##GN": 5555,
      "##eterm": 5556,
      "##loor": 5557,
      "##Indicator": 5558,
      "getEnd": 5559,
      "##OLD": 5560,
      "ignored": 5561,
      "##verage": 5562,
      "##Mappings": 5563,
      "elementData": 5564,
      "BLOCK": 5565,
      "Igfs": 5566,
      "e2": 5567,
      "##Plot": 5568,
      "##atable": 5569,
      "Bluetooth": 5570,
      "xs": 5571,
      "##au": 5572,
      "getActivity": 5573,
      "consumer": 5574,
      "##Links": 5575,
      "##WORK": 5576,
      "GLES20": 5577,
      "si": 5578,
      "##link": 5579,
      "##ROL": 5580,
      "##rames": 5581,
      "##vie": 5582,
      "UserActor": 5583,
      "Atomic": 5584,
      "AN": 5585,
      "itr": 5586,
      "o2": 5587,
      "##Iss": 5588,
      "focus": 5589,
      "future": 5590,
      "##Pull": 5591,
      "##Decoder": 5592,
      "##Counts": 5593,
      "##shake": 5594,
      "MILL": 5595,
      "fix": 5596,
      "##Audit": 5597,
      "DSSink": 5598,
      "eventType": 5599,
      "CACH": 5600,
      "XMP": 5601,
      "##riend": 5602,
      "addChild": 5603,
      "interrupt": 5604,
      "components": 5605,
      "Rectangle2D": 5606,
      "getSystemService": 5607,
      "ConverterUtil": 5608,
      "publish": 5609,
      "rb": 5610,
      "##AO": 5611,
      "transfer": 5612,
      "##ChangeEvent": 5613,
      "##Example": 5614,
      "Toast": 5615,
      "SimpleDateFormat": 5616,
      "permissions": 5617,
      "New": 5618,
      "rg": 5619,
      "##PC": 5620,
      "##net": 5621,
      "problem": 5622,
      "userName": 5623,
      "modifiers": 5624,
      "oct": 5625,
      "##Cur": 5626,
      "getPadding": 5627,
      "disconnect": 5628,
      "##ByName": 5629,
      "Sequence": 5630,
      "##Driver": 5631,
      "isFile": 5632,
      "Mqtt": 5633,
      "##ref": 5634,
      "##MIN": 5635,
      "##ented": 5636,
      "##stall": 5637,
      "##izes": 5638,
      "##Direct": 5639,
      "TOP": 5640,
      "TOKEN": 5641,
      "Api": 5642,
      "##Sensor": 5643,
      "##ectivity": 5644,
      "##licit": 5645,
      "##ayes": 5646,
      "##DataType": 5647,
      "longValue": 5648,
      "##AndSet": 5649,
      "##Checked": 5650,
      "Permission": 5651,
      "cn": 5652,
      "##Dist": 5653,
      "##peech": 5654,
      "##legator": 5655,
      "##Filters": 5656,
      "signum": 5657,
      "convertToString": 5658,
      "##Fully": 5659,
      "getDeclared": 5660,
      "jj": 5661,
      "saml": 5662,
      "##Handlers": 5663,
      "Count": 5664,
      "Sorted": 5665,
      "closed": 5666,
      "##tp": 5667,
      "##Done": 5668,
      "##fe": 5669,
      "##ultim": 5670,
      "##ments": 5671,
      "##iling": 5672,
      "##ollow": 5673,
      "nodeId": 5674,
      "maxSize": 5675,
      "zero": 5676,
      "##TED": 5677,
      "##itted": 5678,
      "inv": 5679,
      "predicate": 5680,
      "##ront": 5681,
      "samples": 5682,
      "hashcode": 5683,
      "##UTF": 5684,
      "##Runnable": 5685,
      "UTF": 5686,
      "mkdir": 5687,
      "Match": 5688,
      "ms": 5689,
      "observer": 5690,
      "##oned": 5691,
      "messageEnabled": 5692,
      "what": 5693,
      "##Matches": 5694,
      "##Debugger": 5695,
      "##ipeline": 5696,
      "##head": 5697,
      "##Polygon": 5698,
      "##place": 5699,
      "##Vars": 5700,
      "##Clone": 5701,
      "findByThrift": 5702,
      "padding": 5703,
      "findByThriftId": 5704,
      "##ned": 5705,
      "##Solution": 5706,
      "##Tail": 5707,
      "KeyStore": 5708,
      "##ABLED": 5709,
      "constraints": 5710,
      "modified": 5711,
      "Git": 5712,
      "VIS": 5713,
      "was": 5714,
      "##Exist": 5715,
      "subtract": 5716,
      "Comparator": 5717,
      "##Serialization": 5718,
      "WARNING": 5719,
      "##ixture": 5720,
      "missing": 5721,
      "rm": 5722,
      "##tack": 5723,
      "##req": 5724,
      "##Distributed": 5725,
      "Attributes": 5726,
      "LinkedHashMap": 5727,
      "NETWORK": 5728,
      "Mock": 5729,
      "half": 5730,
      "##licator": 5731,
      "newChild": 5732,
      "##Heap": 5733,
      "##Shard": 5734,
      "Back": 5735,
      "segments": 5736,
      "Packet": 5737,
      "Protocol": 5738,
      "Target": 5739,
      "fos": 5740,
      "##alk": 5741,
      "##ariance": 5742,
      "DESC": 5743,
      "Move": 5744,
      "##Named": 5745,
      "##eto": 5746,
      "isRead": 5747,
      "##Dirty": 5748,
      "##AndF": 5749,
      "Predic": 5750,
      "OTH": 5751,
      "p0": 5752,
      "##Hierarchy": 5753,
      "history": 5754,
      "js": 5755,
      "##BO": 5756,
      "await": 5757,
      "RO": 5758,
      "zk": 5759,
      "getProject": 5760,
      "##ayers": 5761,
      "array1": 5762,
      "attrName": 5763,
      "gra": 5764,
      "rotation": 5765,
      "raf": 5766,
      "##Leg": 5767,
      "##Do": 5768,
      "Invocation": 5769,
      "ViewGroup": 5770,
      "##Highlight": 5771,
      "Close": 5772,
      "mgr": 5773,
      "safe": 5774,
      "##Seed": 5775,
      "##dle": 5776,
      "createElement": 5777,
      "dataSource": 5778,
      "PrintStream": 5779,
      "Subscri": 5780,
      "GROUP": 5781,
      "Fl": 5782,
      "pe": 5783,
      "Contact": 5784,
      "setDefault": 5785,
      "##Shift": 5786,
      "actionPerformed": 5787,
      "ATTR": 5788,
      "Code": 5789,
      "##alled": 5790,
      "Cons": 5791,
      "##Enable": 5792,
      "writeCharacters": 5793,
      "##ETER": 5794,
      "AttributeSet": 5795,
      "ContentValues": 5796,
      "MILLIS": 5797,
      "gu": 5798,
      "##F2": 5799,
      "##vals": 5800,
      "##ogn": 5801,
      "##Validation": 5802,
      "##Segments": 5803,
      "Linear": 5804,
      "CACHE": 5805,
      "FULL": 5806,
      "Options": 5807,
      "##NAME": 5808,
      "##BT": 5809,
      "Channel": 5810,
      "converter": 5811,
      "LEVEL": 5812,
      "Elem": 5813,
      "measureSpec": 5814,
      "##bit": 5815,
      "getPort": 5816,
      "##KeyException": 5817,
      "appendChild": 5818,
      "##Compatible": 5819,
      "##ragraph": 5820,
      "tokenType": 5821,
      "##ilationUnit": 5822,
      "##ursive": 5823,
      "isSelected": 5824,
      "assign": 5825,
      "##ASH": 5826,
      "##Words": 5827,
      "Form": 5828,
      "Row": 5829,
      "##Decode": 5830,
      "proj": 5831,
      "pointer": 5832,
      "SELE": 5833,
      "coords": 5834,
      "SDK": 5835,
      "##rect": 5836,
      "##aiting": 5837,
      "##Colors": 5838,
      "##SocketAddress": 5839,
      "##cii": 5840,
      "##IllegalArgumentException": 5841,
      "Offset": 5842,
      "answer": 5843,
      "latitude": 5844,
      "##yper": 5845,
      "metrics": 5846,
      "##echn": 5847,
      "Fa": 5848,
      "geom": 5849,
      "##Credentials": 5850,
      "isAssignableFrom": 5851,
      "##ood": 5852,
      "##Sec": 5853,
      "Conn": 5854,
      "construct": 5855,
      "##Note": 5856,
      "##Conversion": 5857,
      "##Payload": 5858,
      "Drawable": 5859,
      "##RAP": 5860,
      "##Raster": 5861,
      "##Keep": 5862,
      "##lerance": 5863,
      "byteArray": 5864,
      "##ociation": 5865,
      "SEVERE": 5866,
      "Coord": 5867,
      "any": 5868,
      "rand": 5869,
      "writeNamespace": 5870,
      "##AsString": 5871,
      "##Locked": 5872,
      "signal": 5873,
      "##CP": 5874,
      "getEntity": 5875,
      "##alleng": 5876,
      "##Formats": 5877,
      "events": 5878,
      "##Transformer": 5879,
      "##rypto": 5880,
      "##PublicKey": 5881,
      "den": 5882,
      "TextView": 5883,
      "serializer": 5884,
      "NAMESPACE": 5885,
      "offer": 5886,
      "##iration": 5887,
      "##mb": 5888,
      "getImage": 5889,
      "##Thumb": 5890,
      "##Shader": 5891,
      "##Updated": 5892,
      "serializable": 5893,
      "DOC": 5894,
      "End": 5895,
      "##DataException": 5896,
      "failure": 5897,
      "external": 5898,
      "##Discovery": 5899,
      "specSize": 5900,
      "BusinessObject": 5901,
      "aScale": 5902,
      "wildcard": 5903,
      "##Pick": 5904,
      "##Secret": 5905,
      "##Tx": 5906,
      "##ential": 5907,
      "Types": 5908,
      "##Quiet": 5909,
      "specMode": 5910,
      "##Creation": 5911,
      "##Starting": 5912,
      "Vector3f": 5913,
      "degrees": 5914,
      "FACT": 5915,
      "bc": 5916,
      "hint": 5917,
      "secret": 5918,
      "##PLE": 5919,
      "##Compound": 5920,
      "transport": 5921,
      "ordinal": 5922,
      "mag": 5923,
      "##LS": 5924,
      "##tein": 5925,
      "getNumberOf": 5926,
      "##expected": 5927,
      "servlet": 5928,
      "##Blocking": 5929,
      "##ffine": 5930,
      "##Bl": 5931,
      "setC": 5932,
      "##Metric": 5933,
      "##DTO": 5934,
      "running": 5935,
      "Post": 5936,
      "World": 5937,
      "tp": 5938,
      "##ones": 5939,
      "IOUtils": 5940,
      "##endencies": 5941,
      "##Roles": 5942,
      "Dialog": 5943,
      "##PS": 5944,
      "zzMarked": 5945,
      "JsonObject": 5946,
      "Device": 5947,
      "zzMarkedPos": 5948,
      "Typed": 5949,
      "Proxy": 5950,
      "##IVITY": 5951,
      "fullCopy": 5952,
      "Identity": 5953,
      "##istic": 5954,
      "generator": 5955,
      "ArrayIndexOutOfBoundsException": 5956,
      "##Labels": 5957,
      "words": 5958,
      "##efactoring": 5959,
      "Main": 5960,
      "Queue": 5961,
      "##een": 5962,
      "##ht": 5963,
      "isNot": 5964,
      "##Capability": 5965,
      "getBoolean": 5966,
      "##agnos": 5967,
      "Snmp": 5968,
      "Prim": 5969,
      "##gra": 5970,
      "##ning": 5971,
      "##Notify": 5972,
      "##ench": 5973,
      "setVisibility": 5974,
      "##BusinessObjectData": 5975,
      "DAY": 5976,
      "cf": 5977,
      "driver": 5978,
      "mer": 5979,
      "##off": 5980,
      "##Sig": 5981,
      "##Sibling": 5982,
      "Operand": 5983,
      "##rowser": 5984,
      "##Initiator": 5985,
      "attributeNamespace": 5986,
      "##Replication": 5987,
      "registerPrefix": 5988,
      "##Base64": 5989,
      "For": 5990,
      "##tten": 5991,
      "num0": 5992,
      "##resentation": 5993,
      "##Console": 5994,
      "Num": 5995,
      "fraction": 5996,
      "site": 5997,
      "##Publish": 5998,
      "##BA": 5999,
      "share": 6000,
      "attributeName": 6001,
      "Predicate": 6002,
      "Cert": 6003,
      "ii": 6004,
      "mat": 6005,
      "rad": 6006,
      "##uous": 6007,
      "##Sorted": 6008,
      "COMM": 6009,
      "##Vec": 6010,
      "##esting": 6011,
      "##Into": 6012,
      "Reil": 6013,
      "##Footer": 6014,
      "Observable": 6015,
      "single": 6016,
      "##queue": 6017,
      "##erg": 6018,
      "edges": 6019,
      "runnable": 6020,
      "##Side": 6021,
      "Execution": 6022,
      "##Alignment": 6023,
      "filtered": 6024,
      "getChildCount": 6025,
      "instructions": 6026,
      "bos": 6027,
      "mSize": 6028,
      "##cer": 6029,
      "writeTo": 6030,
      "##tives": 6031,
      "Scan": 6032,
      "subscription": 6033,
      "ep": 6034,
      "##Round": 6035,
      "##null": 6036,
      "##bum": 6037,
      "##lict": 6038,
      "setTitle": 6039,
      "##Stat": 6040,
      "##Divider": 6041,
      "SERVER": 6042,
      "##AILED": 6043,
      "room": 6044,
      "##eip": 6045,
      "##illed": 6046,
      "##Entities": 6047,
      "dataType": 6048,
      "##Completed": 6049,
      "resolved": 6050,
      "##ied": 6051,
      "##Times": 6052,
      "##AndGet": 6053,
      "dispatch": 6054,
      "qName": 6055,
      "##SA": 6056,
      "##less": 6057,
      "##EditText": 6058,
      "##eleph": 6059,
      "JPanel": 6060,
      "eps": 6061,
      "##EC": 6062,
      "longitude": 6063,
      "listFiles": 6064,
      "##earDown": 6065,
      "##Modification": 6066,
      "CSS": 6067,
      "FAILED": 6068,
      "##par": 6069,
      "##not": 6070,
      "##Spi": 6071,
      "##Guid": 6072,
      "##triction": 6073,
      "getInputStream": 6074,
      "##Management": 6075,
      "And": 6076,
      "ca": 6077,
      "rename": 6078,
      "getLog": 6079,
      "##seud": 6080,
      "##ViewBean": 6081,
      "##Connector": 6082,
      "##Created": 6083,
      "enter": 6084,
      "##alker": 6085,
      "##ecycle": 6086,
      "##oun": 6087,
      "##Inline": 6088,
      "setMax": 6089,
      "##ifecycle": 6090,
      "##Destination": 6091,
      "BACK": 6092,
      "DIR": 6093,
      "##center": 6094,
      "##Codes": 6095,
      "phone": 6096,
      "dtm": 6097,
      "Cap": 6098,
      "Pay": 6099,
      "Tab": 6100,
      "Top": 6101,
      "allowed": 6102,
      "bytesRead": 6103,
      "resolver": 6104,
      "animate": 6105,
      "IMAGE": 6106,
      "##ndividual": 6107,
      "nc": 6108,
      "##Game": 6109,
      "getConfiguration": 6110,
      "getActive": 6111,
      "additional": 6112,
      "defin": 6113,
      "simple": 6114,
      "##Fraction": 6115,
      "##ATIVE": 6116,
      "unique": 6117,
      "##Backup": 6118,
      "##oduces": 6119,
      "RequestMapping": 6120,
      "MessageDigest": 6121,
      "getNodeType": 6122,
      "SUCCESS": 6123,
      "Descri": 6124,
      "Layer": 6125,
      "b1": 6126,
      "##Warning": 6127,
      "##Topic": 6128,
      "SVGOM": 6129,
      "Pass": 6130,
      "catalog": 6131,
      "iterable": 6132,
      "uid": 6133,
      "##Mac": 6134,
      "##ominator": 6135,
      "FileUtils": 6136,
      "adapterFactory": 6137,
      "SootMethod": 6138,
      "##Margin": 6139,
      "setSize": 6140,
      "elapsed": 6141,
      "precision": 6142,
      "Authentication": 6143,
      "prim": 6144,
      "##inated": 6145,
      "filters": 6146,
      "blocks": 6147,
      "taskId": 6148,
      "Annotated": 6149,
      "Trigger": 6150,
      "seg": 6151,
      "##icode": 6152,
      "##ulated": 6153,
      "##ponent": 6154,
      "REF": 6155,
      "digit": 6156,
      "Swing": 6157,
      "Icon": 6158,
      "##Fixed": 6159,
      "##ading": 6160,
      "##umm": 6161,
      "##BuilderFactory": 6162,
      "bytesTo": 6163,
      "FINE": 6164,
      "##sl": 6165,
      "##Turn": 6166,
      "##Dot": 6167,
      "##Drop": 6168,
      "##Analyzer": 6169,
      "##Indexes": 6170,
      "##Sheet": 6171,
      "Button": 6172,
      "SO": 6173,
      "down": 6174,
      "tru": 6175,
      "##Bridge": 6176,
      "##itness": 6177,
      "currentState": 6178,
      "array2": 6179,
      "BufferedInputStream": 6180,
      "##LOAD": 6181,
      "operand": 6182,
      "COLUMN": 6183,
      "AV": 6184,
      "Literal": 6185,
      "##raft": 6186,
      "Distribution": 6187,
      "##Remaining": 6188,
      "Ar": 6189,
      "WE": 6190,
      "##Branch": 6191,
      "tokenizer": 6192,
      "##ivery": 6193,
      "Platform": 6194,
      "pat": 6195,
      "##PORT": 6196,
      "##dence": 6197,
      "Scope": 6198,
      "##NodeMap": 6199,
      "UPD": 6200,
      "##RDER": 6201,
      "##eparedStatement": 6202,
      "REM": 6203,
      "cx": 6204,
      "##Ctx": 6205,
      "##Analysis": 6206,
      "##Confirm": 6207,
      "##ICAL": 6208,
      "changes": 6209,
      "##IEW": 6210,
      "Man": 6211,
      "RIGHT": 6212,
      "##pro": 6213,
      "graphics": 6214,
      "##IOException": 6215,
      "BL": 6216,
      "Size": 6217,
      "times": 6218,
      "Resources": 6219,
      "workspace": 6220,
      "cu": 6221,
      "employee": 6222,
      "##Two": 6223,
      "##lel": 6224,
      "##tempt": 6225,
      "##Than": 6226,
      "##NotExists": 6227,
      "EXT": 6228,
      "baos": 6229,
      "pick": 6230,
      "##etplace": 6231,
      "toIndex": 6232,
      "##fference": 6233,
      "connected": 6234,
      "##Binder": 6235,
      "##otionEvent": 6236,
      "Zy": 6237,
      "##SDK": 6238,
      "getBase": 6239,
      "byteBuffer": 6240,
      "##velope": 6241,
      "##Comments": 6242,
      "cleanup": 6243,
      "Trace": 6244,
      "Common": 6245,
      "Vk": 6246,
      "##BL": 6247,
      "##ublicKey": 6248,
      "getH": 6249,
      "Real": 6250,
      "packed": 6251,
      "##Increment": 6252,
      "TIMEOUT": 6253,
      "VkApiClient": 6254,
      "newArray": 6255,
      "##Positive": 6256,
      "##sation": 6257,
      "##ony": 6258,
      "##tart": 6259,
      "##olve": 6260,
      "decor": 6261,
      "workflow": 6262,
      "##posal": 6263,
      "StorageSystem": 6264,
      "Subject": 6265,
      "ic": 6266,
      "##Geometry": 6267,
      "ReferenceVariable": 6268,
      "##Transport": 6269,
      "Sparse": 6270,
      "##ccur": 6271,
      "MON": 6272,
      "XObject": 6273,
      "fine": 6274,
      "##active": 6275,
      "union": 6276,
      "##ktop": 6277,
      "GEN": 6278,
      "Sip": 6279,
      "SCH": 6280,
      "ix": 6281,
      "shell": 6282,
      "##Encode": 6283,
      "branch": 6284,
      "lhs": 6285,
      "##TableModel": 6286,
      "##Charset": 6287,
      "Select": 6288,
      "##atest": 6289,
      "##URLException": 6290,
      "coordinate": 6291,
      "##Me": 6292,
      "##MQ": 6293,
      "replacement": 6294,
      "##ClickListener": 6295,
      "strip": 6296,
      "##Inner": 6297,
      "##roker": 6298,
      "##allet": 6299,
      "##StartTime": 6300,
      "DataSource": 6301,
      "Bound": 6302,
      "Lock": 6303,
      "ai": 6304,
      "mService": 6305,
      "oos": 6306,
      "pivot": 6307,
      "##Surface": 6308,
      "getVersion": 6309,
      "created": 6310,
      "INITIAL": 6311,
      "Camera": 6312,
      "b2": 6313,
      "sep": 6314,
      "##Clear": 6315,
      "getAction": 6316,
      "lineNumber": 6317,
      "##URLConnection": 6318,
      "prefs": 6319,
      "MalformedURLException": 6320,
      "##TypeName": 6321,
      "Parse": 6322,
      "##Beh": 6323,
      "iteration": 6324,
      "sn": 6325,
      "tearDown": 6326,
      "y2": 6327,
      "##wd": 6328,
      "getTable": 6329,
      "outer": 6330,
      "orderBy": 6331,
      "Repository": 6332,
      "##echnical": 6333,
      "Cell": 6334,
      "tax": 6335,
      "##arity": 6336,
      "getID": 6337,
      "toXML": 6338,
      "resultCode": 6339,
      "Alert": 6340,
      "##ediate": 6341,
      "IJava": 6342,
      "PAT": 6343,
      "Rest": 6344,
      "Sample": 6345,
      "mail": 6346,
      "undo": 6347,
      "##sig": 6348,
      "##hip": 6349,
      "##ecess": 6350,
      "getBlock": 6351,
      "Progress": 6352,
      "##IFICATION": 6353,
      "ITEM": 6354,
      "lib": 6355,
      "##01": 6356,
      "setData": 6357,
      "currentBuffer": 6358,
      "hostname": 6359,
      "upload": 6360,
      "##Buffers": 6361,
      "obtain": 6362,
      "person": 6363,
      "sentence": 6364,
      "##orting": 6365,
      "insets": 6366,
      "Listener": 6367,
      "scenario": 6368,
      "getDimension": 6369,
      "cast": 6370,
      "nanos": 6371,
      "##Undo": 6372,
      "unmodifiable": 6373,
      "executeQuery": 6374,
      "##Animated": 6375,
      "##Secondary": 6376,
      "receiver": 6377,
      "Jar": 6378,
      "##BB": 6379,
      "newBuilder": 6380,
      "##ITION": 6381,
      "##PropertyChange": 6382,
      "##Connections": 6383,
      "verbose": 6384,
      "##Assertion": 6385,
      "##Windows": 6386,
      "##Worker": 6387,
      "##Workflow": 6388,
      "businessObjectFormat": 6389,
      "Delete": 6390,
      "singleton": 6391,
      "##Shadow": 6392,
      "lastModified": 6393,
      "##Quote": 6394,
      "big": 6395,
      "##Under": 6396,
      "##endent": 6397,
      "##QUAL": 6398,
      "help": 6399,
      "lambda": 6400,
      "##GC": 6401,
      "inte": 6402,
      "##vert": 6403,
      "writeString": 6404,
      "SMS": 6405,
      "awt": 6406,
      "Animation": 6407,
      "##DTD": 6408,
      "Des": 6409,
      "persist": 6410,
      "##Peer": 6411,
      "##Find": 6412,
      "##nail": 6413,
      "##Dim": 6414,
      "##tions": 6415,
      "getToken": 6416,
      "##Shutdown": 6417,
      "##Logging": 6418,
      "animation": 6419,
      "intersect": 6420,
      "saml2": 6421,
      "ZZ": 6422,
      "jc": 6423,
      "take": 6424,
      "##Mutable": 6425,
      "addItem": 6426,
      "ensureCapacity": 6427,
      "getAccessToken": 6428,
      "##seudo": 6429,
      "floor": 6430,
      "two": 6431,
      "##Face": 6432,
      "##NC": 6433,
      "setup": 6434,
      "Box": 6435,
      "DOU": 6436,
      "HT": 6437,
      "IP": 6438,
      "##Sep": 6439,
      "##rog": 6440,
      "extensions": 6441,
      "##MSException": 6442,
      "LOCAL": 6443,
      "##Cached": 6444,
      "##Deleted": 6445,
      "##Execute": 6446,
      "PROT": 6447,
      "##allenge": 6448,
      "##grade": 6449,
      "Secure": 6450,
      "##Low": 6451,
      "getServer": 6452,
      "##ENCE": 6453,
      "resourceId": 6454,
      "storageSystem": 6455,
      "absolute": 6456,
      "##eipt": 6457,
      "ec": 6458,
      "##Sql": 6459,
      "##Jo": 6460,
      "##Now": 6461,
      "##emand": 6462,
      "##Buffered": 6463,
      "submit": 6464,
      "endTime": 6465,
      "weights": 6466,
      "exclude": 6467,
      "##Original": 6468,
      "fc": 6469,
      "flip": 6470,
      "fixed": 6471,
      "neg": 6472,
      "stored": 6473,
      "ttl": 6474,
      "##ParameterSpec": 6475,
      "##ids": 6476,
      "isRunning": 6477,
      "##Interpolator": 6478,
      "##Percent": 6479,
      "dto": 6480,
      "grow": 6481,
      "refer": 6482,
      "##Histogram": 6483,
      "ifExists": 6484,
      "deleted": 6485,
      "##Foreground": 6486,
      "##Rectangle": 6487,
      "dependency": 6488,
      "WebXml": 6489,
      "##ComboBox": 6490,
      "Namespace": 6491,
      "rank": 6492,
      "##Gra": 6493,
      "##Idle": 6494,
      "backend": 6495,
      "##preter": 6496,
      "##etermine": 6497,
      "##elephony": 6498,
      "PK": 6499,
      "Polygon": 6500,
      "glob": 6501,
      "##JNI": 6502,
      "##Noti": 6503,
      "removeListener": 6504,
      "loadClass": 6505,
      "recycle": 6506,
      "PathVariable": 6507,
      "##Phase": 6508,
      "##MD": 6509,
      "##ISH": 6510,
      "CONNECT": 6511,
      "Closure": 6512,
      "VER": 6513,
      "##Rank": 6514,
      "##Scheme": 6515,
      "##Catalog": 6516,
      "##Existing": 6517,
      "setString": 6518,
      "elementName": 6519,
      "JsonValue": 6520,
      "ResponseEntity": 6521,
      "Nonnull": 6522,
      "##aemon": 6523,
      "##gs": 6524,
      "##PATH": 6525,
      "##Runtime": 6526,
      "requestCode": 6527,
      "##Train": 6528,
      "##URIs": 6529,
      "Control": 6530,
      "Google": 6531,
      "##centa": 6532,
      "##TypeImpl": 6533,
      "isStatic": 6534,
      "##acing": 6535,
      "##dictor": 6536,
      "##Regex": 6537,
      "##IFIER": 6538,
      "AT": 6539,
      "LAR": 6540,
      "side": 6541,
      "##rac": 6542,
      "##izard": 6543,
      "##usp": 6544,
      "##Activate": 6545,
      "Parcel": 6546,
      "##Flush": 6547,
      "vars": 6548,
      "corner": 6549,
      "DOUBLE": 6550,
      "Could": 6551,
      "MAR": 6552,
      "Video": 6553,
      "fin": 6554,
      "mMax": 6555,
      "sz": 6556,
      "##arison": 6557,
      "##Projection": 6558,
      "##Classpath": 6559,
      "##Adj": 6560,
      "##tf8": 6561,
      "closure": 6562,
      "##RS": 6563,
      "##Ok": 6564,
      "##Lists": 6565,
      "##Setup": 6566,
      "compiler": 6567,
      "debugCode": 6568,
      "executeUpdate": 6569,
      "EQUAL": 6570,
      "fd": 6571,
      "mData": 6572,
      "##CRL": 6573,
      "reser": 6574,
      "##ectors": 6575,
      "decoded": 6576,
      "least": 6577,
      "normalized": 6578,
      "HTML": 6579,
      "BASE": 6580,
      "vplex": 6581,
      "##Speed": 6582,
      "objs": 6583,
      "strings": 6584,
      "resourceName": 6585,
      "##overage": 6586,
      "##Evaluator": 6587,
      "VISIBLE": 6588,
      "Duration": 6589,
      "FOUND": 6590,
      "aug": 6591,
      "google": 6592,
      "##RT": 6593,
      "publicId": 6594,
      "##Numeric": 6595,
      "ifNotExists": 6596,
      "##Workspace": 6597,
      "##Vals": 6598,
      "##alth": 6599,
      "##rint": 6600,
      "##FileSystem": 6601,
      "caseSens": 6602,
      "errorListener": 6603,
      "getClassLoader": 6604,
      "##IMIT": 6605,
      "##Minute": 6606,
      "FSUtils": 6607,
      "PackageManager": 6608,
      "##AndFeel": 6609,
      "CODES": 6610,
      "Fragment": 6611,
      "cost": 6612,
      "getTag": 6613,
      "##Subs": 6614,
      "##Defaults": 6615,
      "phase": 6616,
      "rgb": 6617,
      "Couldnt": 6618,
      "CIM": 6619,
      "Download": 6620,
      "##xim": 6621,
      "InvalidKeyException": 6622,
      "##Clicked": 6623,
      "Primitive": 6624,
      "co": 6625,
      "dynamic": 6626,
      "px": 6627,
      "getInput": 6628,
      "white": 6629,
      "##Throttle": 6630,
      "Interval": 6631,
      "SUP": 6632,
      "TreeNode": 6633,
      "##Skip": 6634,
      "##crete": 6635,
      "##miss": 6636,
      "Em": 6637,
      "gd": 6638,
      "xpath": 6639,
      "##nemon": 6640,
      "##ECK": 6641,
      "##ette": 6642,
      "##Requested": 6643,
      "##Stub": 6644,
      "exceptions": 6645,
      "Password": 6646,
      "IResource": 6647,
      "Module": 6648,
      "ks": 6649,
      "norm": 6650,
      "updated": 6651,
      "##etween": 6652,
      "getFont": 6653,
      "APP": 6654,
      "users": 6655,
      "##Dispatcher": 6656,
      "COUNT": 6657,
      "determine": 6658,
      "##rs": 6659,
      "##les": 6660,
      "toList": 6661,
      "##ByteBuffer": 6662,
      "##Without": 6663,
      "getNew": 6664,
      "##Signal": 6665,
      "NEG": 6666,
      "##DAO": 6667,
      "##tivi": 6668,
      "togg": 6669,
      "##PropertySet": 6670,
      "##Include": 6671,
      "named": 6672,
      "rate": 6673,
      "##urable": 6674,
      "##ventory": 6675,
      "##ORD": 6676,
      "##ENSITIVE": 6677,
      "Matrix4": 6678,
      "##Defs": 6679,
      "##Quietly": 6680,
      "##opping": 6681,
      "##sm": 6682,
      "##BE": 6683,
      "##Inters": 6684,
      "compress": 6685,
      "align": 6686,
      "##Servers": 6687,
      "##Matching": 6688,
      "##Authorization": 6689,
      "HEIGHT": 6690,
      "##acesContext": 6691,
      "##ultimap": 6692,
      "mkdirs": 6693,
      "Factory": 6694,
      "Audit": 6695,
      "Sim": 6696,
      "tf": 6697,
      "##Latitude": 6698,
      "addAction": 6699,
      "resize": 6700,
      "disk": 6701,
      "sso": 6702,
      "##Weights": 6703,
      "##Basic": 6704,
      "##marsh": 6705,
      "MULT": 6706,
      "RET": 6707,
      "dl": 6708,
      "##Ack": 6709,
      "##ka": 6710,
      "##Expected": 6711,
      "##ToRemove": 6712,
      "keyStore": 6713,
      "ServiceException": 6714,
      "SSOException": 6715,
      "ActiveMQ": 6716,
      "Bi": 6717,
      "xy": 6718,
      "##nable": 6719,
      "##esh": 6720,
      "isH": 6721,
      "##oming": 6722,
      "logAnd": 6723,
      "##ookAndFeel": 6724,
      "Bytes": 6725,
      "##Capabilities": 6726,
      "author": 6727,
      "##visor": 6728,
      "toggle": 6729,
      "border": 6730,
      "##Zip": 6731,
      "##dential": 6732,
      "recipient": 6733,
      "compareAndSet": 6734,
      "##Spaces": 6735,
      "##WORD": 6736,
      "Modi": 6737,
      "rd": 6738,
      "##racy": 6739,
      "tok": 6740,
      "##HashCode": 6741,
      "desired": 6742,
      "Metadata": 6743,
      "##ConsistencyGroup": 6744,
      "Angle": 6745,
      "Loc": 6746,
      "Export": 6747,
      "acquire": 6748,
      "services": 6749,
      "deltaY": 6750,
      "##Helpers": 6751,
      "Sync": 6752,
      "flow": 6753,
      "rew": 6754,
      "##TargetException": 6755,
      "BufferedWriter": 6756,
      "##Modify": 6757,
      "##Multiple": 6758,
      "##ovy": 6759,
      "consume": 6760,
      "Mo": 6761,
      "m3": 6762,
      "may": 6763,
      "mLast": 6764,
      "##value": 6765,
      "ObjectName": 6766,
      "heap": 6767,
      "##Dimensions": 6768,
      "loop": 6769,
      "tm": 6770,
      "##IB": 6771,
      "##onym": 6772,
      "##install": 6773,
      "setImage": 6774,
      "##Transient": 6775,
      "Struct": 6776,
      "##Dynamic": 6777,
      "nameNode": 6778,
      "keyCode": 6779,
      "##Definitions": 6780,
      "##Callbacks": 6781,
      "TreePath": 6782,
      "suite": 6783,
      "Accessibility": 6784,
      "##Power": 6785,
      "setLocation": 6786,
      "stroke": 6787,
      "Child": 6788,
      "getCause": 6789,
      "##CheckedException": 6790,
      "ceil": 6791,
      "##SyntaxException": 6792,
      "##elephonyManager": 6793,
      "Copy": 6794,
      "DATE": 6795,
      "getEntry": 6796,
      "##erspec": 6797,
      "getRaw": 6798,
      "minutes": 6799,
      "Handler": 6800,
      "css": 6801,
      "vertices": 6802,
      "##uted": 6803,
      "##Sm": 6804,
      "##Coef": 6805,
      "##Tog": 6806,
      "##Begin": 6807,
      "##Hook": 6808,
      "setTime": 6809,
      "nextDouble": 6810,
      "unw": 6811,
      "attach": 6812,
      "##nother": 6813,
      "##RDD": 6814,
      "##RC": 6815,
      "##lots": 6816,
      "removeElement": 6817,
      "##Specific": 6818,
      "##ACITY": 6819,
      "wrapped": 6820,
      "PASS": 6821,
      "Wri": 6822,
      "##Fill": 6823,
      "##Cas": 6824,
      "##dp": 6825,
      "##Instant": 6826,
      "numInstances": 6827,
      "##EDI": 6828,
      "Provider": 6829,
      "encrypt": 6830,
      "caller": 6831,
      "cross": 6832,
      "##ffic": 6833,
      "##Gu": 6834,
      "##Attrs": 6835,
      "LARGE": 6836,
      "are": 6837,
      "radi": 6838,
      "##PON": 6839,
      "##Absolute": 6840,
      "##Hour": 6841,
      "##alette": 6842,
      "newData": 6843,
      "##BufferSize": 6844,
      "##Parcel": 6845,
      "##Encryption": 6846,
      "RESULT": 6847,
      "##ociated": 6848,
      "FE": 6849,
      "RVM": 6850,
      "classname": 6851,
      "queryObject": 6852,
      "colors": 6853,
      "##radient": 6854,
      "##roovy": 6855,
      "inverse": 6856,
      "isDis": 6857,
      "##umentation": 6858,
      "Initial": 6859,
      "extended": 6860,
      "needs": 6861,
      "##Hints": 6862,
      "PATTERN": 6863,
      "MATCH": 6864,
      "salt": 6865,
      "##sal": 6866,
      "##Rele": 6867,
      "createNew": 6868,
      "##aker": 6869,
      "##Logic": 6870,
      "taskState": 6871,
      "SharedPreferences": 6872,
      "boundary": 6873,
      "Edit": 6874,
      "Editor": 6875,
      "InputSource": 6876,
      "binarySearch": 6877,
      "a2": 6878,
      "cd": 6879,
      "fn": 6880,
      "##Nanos": 6881,
      "##etric": 6882,
      "##Restore": 6883,
      "argv": 6884,
      "urls": 6885,
      "##Longitude": 6886,
      "sessionId": 6887,
      "Unknown": 6888,
      "##atastore": 6889,
      "POSITIVE": 6890,
      "SecurityException": 6891,
      "##Detector": 6892,
      "pkg": 6893,
      "Cre": 6894,
      "estim": 6895,
      "##LINE": 6896,
      "##CEL": 6897,
      "##alance": 6898,
      "partial": 6899,
      "completed": 6900,
      "when": 6901,
      "##ATEG": 6902,
      "optional": 6903,
      "black": 6904,
      "middle": 6905,
      "annotations": 6906,
      "##Quality": 6907,
      "Validation": 6908,
      "NaN": 6909,
      "##COD": 6910,
      "##1D": 6911,
      "##OG": 6912,
      "##ecode": 6913,
      "returnValue": 6914,
      "getRemote": 6915,
      "ObjectAnimator": 6916,
      "##Scroller": 6917,
      "##ARCH": 6918,
      "ROOT": 6919,
      "##Behavi": 6920,
      "tv": 6921,
      "##Bin": 6922,
      "procedure": 6923,
      "##ToAdd": 6924,
      "pause": 6925,
      "working": 6926,
      "PREF": 6927,
      "##Inflater": 6928,
      "##Pixels": 6929,
      "ACTIVITY": 6930,
      "Lazy": 6931,
      "instances": 6932,
      "counts": 6933,
      "##econds": 6934,
      "getLayout": 6935,
      "clientId": 6936,
      "MessageFormat": 6937,
      "m10": 6938,
      "##Calculator": 6939,
      "Argument": 6940,
      "CORBA": 6941,
      "UNS": 6942,
      "pur": 6943,
      "##Abs": 6944,
      "##aled": 6945,
      "authentic": 6946,
      "##Radians": 6947,
      "Closeable": 6948,
      "serializableInstance": 6949,
      "##nemonic": 6950,
      "Writable": 6951,
      "notation": 6952,
      "slice": 6953,
      "##Cart": 6954,
      "##jector": 6955,
      "##oderException": 6956,
      "##ulk": 6957,
      "inser": 6958,
      "CHECK": 6959,
      "m11": 6960,
      "##centage": 6961,
      "ast": 6962,
      "noti": 6963,
      "##RU": 6964,
      "##Ring": 6965,
      "##kemon": 6966,
      "##isc": 6967,
      "##Indent": 6968,
      "##Arrays": 6969,
      "deep": 6970,
      "##QueryBuilder": 6971,
      "authentication": 6972,
      "population": 6973,
      "radix": 6974,
      "##Cycle": 6975,
      "##Ann": 6976,
      "##Alive": 6977,
      "##anceled": 6978,
      "##READ": 6979,
      "roles": 6980,
      "TEXTURE": 6981,
      "DynAny": 6982,
      "##EOF": 6983,
      "##DOM": 6984,
      "##Ui": 6985,
      "##Grammar": 6986,
      "getW": 6987,
      "##amage": 6988,
      "cond": 6989,
      "readString": 6990,
      "##Optim": 6991,
      "##TraceEnabled": 6992,
      "popup": 6993,
      "Syntax": 6994,
      "ER": 6995,
      "VIEW": 6996,
      "es": 6997,
      "license": 6998,
      "pp": 6999,
      "##SF": 7000,
      "getV": 7001,
      "##stmt": 7002,
      "checkState": 7003,
      "##Aspect": 7004,
      "RequestMethod": 7005,
      "##PrivateKey": 7006,
      "SEL": 7007,
      "snap": 7008,
      "##uta": 7009,
      "##pool": 7010,
      "##node": 7011,
      "##MIS": 7012,
      "##ableFuture": 7013,
      "retVal": 7014,
      "isVisible": 7015,
      "setType": 7016,
      "##ather": 7017,
      "##Fault": 7018,
      "##uffle": 7019,
      "UPDATE": 7020,
      "Weak": 7021,
      "##Fire": 7022,
      "##peg": 7023,
      "newLength": 7024,
      "##reet": 7025,
      "##ReadObject": 7026,
      "##When": 7027,
      "##Synchron": 7028,
      "txt": 7029,
      "##pa": 7030,
      "##rive": 7031,
      "##relation": 7032,
      "##ANT": 7033,
      "##TemplateElement": 7034,
      "##Protection": 7035,
      "##lusion": 7036,
      "Pending": 7037,
      "##Po": 7038,
      "##Put": 7039,
      "##Sound": 7040,
      "getOffset": 7041,
      "setM": 7042,
      "std": 7043,
      "##AdapterFactory": 7044,
      "##Expanded": 7045,
      "##erspective": 7046,
      "AB": 7047,
      "IF": 7048,
      "Mode": 7049,
      "TAB": 7050,
      "used": 7051,
      "##GIN": 7052,
      "##aret": 7053,
      "encoder": 7054,
      "##Representation": 7055,
      "DESCRI": 7056,
      "##ffineTransform": 7057,
      "ra": 7058,
      "sLogger": 7059,
      "##Tim": 7060,
      "##AIT": 7061,
      "setUser": 7062,
      "addToken": 7063,
      "Completion": 7064,
      "supplier": 7065,
      "issuer": 7066,
      "T2": 7067,
      "sv": 7068,
      "vb": 7069,
      "##Patterns": 7070,
      "Principal": 7071,
      "##lipse": 7072,
      "Parameters": 7073,
      "days": 7074,
      "m01": 7075,
      "##Organization": 7076,
      "Organization": 7077,
      "##Updater": 7078,
      "##MX": 7079,
      "##Hit": 7080,
      "##ased": 7081,
      "theta": 7082,
      "##Procedure": 7083,
      "getCan": 7084,
      "##Defined": 7085,
      "ADMIN": 7086,
      "DAT": 7087,
      "##length": 7088,
      "##Theme": 7089,
      "divide": 7090,
      "Validate": 7091,
      "OPEN": 7092,
      "Round": 7093,
      "lc": 7094,
      "sbuf": 7095,
      "##Known": 7096,
      "##IX": 7097,
      "##ital": 7098,
      "##Invoke": 7099,
      "repeat": 7100,
      "##tinuous": 7101,
      "codePoint": 7102,
      "getNodeValue": 7103,
      "##ummy": 7104,
      "Drag": 7105,
      "VERT": 7106,
      "power": 7107,
      "getEvent": 7108,
      "newMap": 7109,
      "##ateway": 7110,
      "##IME": 7111,
      "getLocalPart": 7112,
      "getSelection": 7113,
      "getOwner": 7114,
      "Vec4": 7115,
      "MotionEvent": 7116,
      "##lap": 7117,
      "##iol": 7118,
      "##cat": 7119,
      "##Kernel": 7120,
      "newName": 7121,
      "##ooled": 7122,
      "resId": 7123,
      "##ERY": 7124,
      "##ysical": 7125,
      "SIGN": 7126,
      "Distributed": 7127,
      "percent": 7128,
      "##Facility": 7129,
      "digits": 7130,
      "##ampler": 7131,
      "OMGraphic": 7132,
      "Single": 7133,
      "crl": 7134,
      "pub": 7135,
      "##Frequency": 7136,
      "##Der": 7137,
      "##wt": 7138,
      "##enti": 7139,
      "##PoolSize": 7140,
      "finished": 7141,
      "journal": 7142,
      "CREATE": 7143,
      "##PreferredSize": 7144,
      "##agnostic": 7145,
      "WIND": 7146,
      "ancestor": 7147,
      "d1": 7148,
      "##RES": 7149,
      "##FieldName": 7150,
      "rootNode": 7151,
      "##Localized": 7152,
      "InetSocketAddress": 7153,
      "##Degrees": 7154,
      "CLIENT": 7155,
      "generic": 7156,
      "nano": 7157,
      "##rp": 7158,
      "getBounds": 7159,
      "##aging": 7160,
      "setBackground": 7161,
      "projection": 7162,
      "##inger": 7163,
      "##Expired": 7164,
      "##Checks": 7165,
      "Visual": 7166,
      "patterns": 7167,
      "getResponse": 7168,
      "principal": 7169,
      "##Chronology": 7170,
      "##index": 7171,
      "delim": 7172,
      "textArea": 7173,
      "##Already": 7174,
      "Transport": 7175,
      "getFull": 7176,
      "##Where": 7177,
      "##Plugins": 7178,
      "Empty": 7179,
      "GR": 7180,
      "NORM": 7181,
      "sec": 7182,
      "t1": 7183,
      "getConfig": 7184,
      "inStream": 7185,
      "isTraceEnabled": 7186,
      "##InMillis": 7187,
      "node1": 7188,
      "stringBuilder": 7189,
      "##SSL": 7190,
      "lowerBound": 7191,
      "geometry": 7192,
      "##gh": 7193,
      "##Li": 7194,
      "##hal": 7195,
      "##field": 7196,
      "##oost": 7197,
      "initComponents": 7198,
      "DataSet": 7199,
      "##Ops": 7200,
      "##Optional": 7201,
      "glBind": 7202,
      "##500": 7203,
      "buffers": 7204,
      "RandomAccess": 7205,
      "subscribe": 7206,
      "CAPACITY": 7207,
      "FLO": 7208,
      "##Room": 7209,
      "chat": 7210,
      "##ObjectException": 7211,
      "entities": 7212,
      "listOptions": 7213,
      "##Allow": 7214,
      "IDENT": 7215,
      "getAuth": 7216,
      "##Editable": 7217,
      "##Install": 7218,
      "logAndConvert": 7219,
      "Rel": 7220,
      "##Plex": 7221,
      "##Cop": 7222,
      "##ominal": 7223,
      "ObjectReference": 7224,
      "uninstall": 7225,
      "##tivation": 7226,
      "defaultReadObject": 7227,
      "LOAD": 7228,
      "##Accessor": 7229,
      "accum": 7230,
      "##bined": 7231,
      "AND": 7232,
      "Hel": 7233,
      "pts": 7234,
      "##ARI": 7235,
      "##Broadcast": 7236,
      "##ational": 7237,
      "DSSource": 7238,
      "baseDN": 7239,
      "##Checker": 7240,
      "Step": 7241,
      "rollback": 7242,
      "LIN": 7243,
      "PACK": 7244,
      "margin": 7245,
      "solution": 7246,
      "t2": 7247,
      "##rence": 7248,
      "##Tenant": 7249,
      "Example": 7250,
      "distinct": 7251,
      "ENABLED": 7252,
      "m12": 7253,
      "Track": 7254,
      "Metric": 7255,
      "mValues": 7256,
      "ptr": 7257,
      "##Fast": 7258,
      "##Sizes": 7259,
      "##Other": 7260,
      "##Proposal": 7261,
      "unexpected": 7262,
      "##Pred": 7263,
      "##Signed": 7264,
      "leaf": 7265,
      "dimensions": 7266,
      "##Symbols": 7267,
      "dayOf": 7268,
      "Animator": 7269,
      "click": 7270,
      "etag": 7271,
      "secure": 7272,
      "##gers": 7273,
      "##book": 7274,
      "##ToInt": 7275,
      "alarm": 7276,
      "interpol": 7277,
      "Android": 7278,
      "Mail": 7279,
      "##Req": 7280,
      "##ElementException": 7281,
      "Complex": 7282,
      "blocksize": 7283,
      "##Matrix2D": 7284,
      "deltaX": 7285,
      "blue": 7286,
      "##Realm": 7287,
      "Mod": 7288,
      "ie": 7289,
      "##Wave": 7290,
      "##vation": 7291,
      "Instanti": 7292,
      "##ATURE": 7293,
      "opPos": 7294,
      "##chemas": 7295,
      "DataOutputStream": 7296,
      "listenerList": 7297,
      "##Parts": 7298,
      "digester": 7299,
      "Selection": 7300,
      "m00": 7301,
      "d2": 7302,
      "requ": 7303,
      "isT": 7304,
      "resume": 7305,
      "FileWriter": 7306,
      "##lucent": 7307,
      "##Steps": 7308,
      "##Swap": 7309,
      "##bedded": 7310,
      "SCHEM": 7311,
      "##EF": 7312,
      "##Aware": 7313,
      "Login": 7314,
      "##rallel": 7315,
      "unwrap": 7316,
      "ICON": 7317,
      "Py": 7318,
      "TelephonyManager": 7319,
      "##leter": 7320,
      "##sList": 7321,
      "##Pages": 7322,
      "##Standard": 7323,
      "FILTER": 7324,
      "mG": 7325,
      "soft": 7326,
      "war": 7327,
      "thumb": 7328,
      "requested": 7329,
      "##IDE": 7330,
      "##ibble": 7331,
      "Private": 7332,
      "BitmapFactory": 7333,
      "WINDOW": 7334,
      "##Pi": 7335,
      "##her": 7336,
      "##buffer": 7337,
      "MathUtils": 7338,
      "##Opt": 7339,
      "##Buttons": 7340,
      "redirect": 7341,
      "OPER": 7342,
      "DerValue": 7343,
      "##tid": 7344,
      "##Pause": 7345,
      "getPosition": 7346,
      "getStorage": 7347,
      "getStyle": 7348,
      "syntax": 7349,
      "##Predictor": 7350,
      "PreparedStatement": 7351,
      "isCritical": 7352,
      "##olley": 7353,
      "##Inclusive": 7354,
      "SerialUtilities": 7355,
      "SOAP": 7356,
      "Launch": 7357,
      "poly": 7358,
      "##ural": 7359,
      "writeByte": 7360,
      "##ITE": 7361,
      "##LocationException": 7362,
      "Serializable": 7363,
      "SELECT": 7364,
      "n2": 7365,
      "##Finder": 7366,
      "##oster": 7367,
      "cloned": 7368,
      "JLabel": 7369,
      "MEM": 7370,
      "another": 7371,
      "##Rew": 7372,
      "##Avail": 7373,
      "getComp": 7374,
      "setMessage": 7375,
      "setStatus": 7376,
      "struct": 7377,
      "INPUT": 7378,
      "##Sources": 7379,
      "responseHandler": 7380,
      "Partition": 7381,
      "TreeSet": 7382,
      "##ropy": 7383,
      "qualifiedName": 7384,
      "SSOToken": 7385,
      "InvocationTargetException": 7386,
      "##SDKUtils": 7387,
      "Timer": 7388,
      "nl": 7389,
      "sock": 7390,
      "##WS": 7391,
      "##beat": 7392,
      "##Html": 7393,
      "UIManager": 7394,
      "##Prefs": 7395,
      "Game": 7396,
      "Volley": 7397,
      "##mented": 7398,
      "##hash": 7399,
      "##isation": 7400,
      "##amma": 7401,
      "##lied": 7402,
      "##Disabled": 7403,
      "transition": 7404,
      "##Append": 7405,
      "##Getter": 7406,
      "highlight": 7407,
      "RESPON": 7408,
      "NamedNodeMap": 7409,
      "XSLT": 7410,
      "Adapter": 7411,
      "T1": 7412,
      "blob": 7413,
      "fp": 7414,
      "ratio": 7415,
      "##Codec": 7416,
      "getWindow": 7417,
      "##endhal": 7418,
      "##otype": 7419,
      "##Sharing": 7420,
      "##MethodException": 7421,
      "##Authenticator": 7422,
      "AffineTransform": 7423,
      "CO": 7424,
      "WRI": 7425,
      "##holder": 7426,
      "sources": 7427,
      "##Uniform": 7428,
      "##Prev": 7429,
      "##IFT": 7430,
      "##Moved": 7431,
      "After": 7432,
      "Zone": 7433,
      "##Scheduler": 7434,
      "##UST": 7435,
      "##Oct": 7436,
      "newElement": 7437,
      "Stop": 7438,
      "firePropertyChange": 7439,
      "NoSuchElementException": 7440,
      "##NGram": 7441,
      "CANCEL": 7442,
      "MILLISE": 7443,
      "n1": 7444,
      "##Src": 7445,
      "##Dump": 7446,
      "##ful": 7447,
      "##Pager": 7448,
      "##Dead": 7449,
      "##Expiration": 7450,
      "##Ports": 7451,
      "##References": 7452,
      "Split": 7453,
      "upperBound": 7454,
      "horizontal": 7455,
      "rv": 7456,
      "drawer": 7457,
      "admin": 7458,
      "getChildAt": 7459,
      "##CastException": 7460,
      "returnType": 7461,
      "TypeReference": 7462,
      "##Supplier": 7463,
      "##Uris": 7464,
      "##Initialized": 7465,
      "g2d": 7466,
      "##Contains": 7467,
      "Ade": 7468,
      "TASK": 7469,
      "green": 7470,
      "managed": 7471,
      "nested": 7472,
      "sy": 7473,
      "##v4": 7474,
      "##Uid": 7475,
      "##jected": 7476,
      "thrown": 7477,
      "##Pairs": 7478,
      "REC": 7479,
      "async": 7480,
      "BufferedOutputStream": 7481,
      "##overy": 7482,
      "SHOW": 7483,
      "hexString": 7484,
      "m02": 7485,
      "QUERY": 7486,
      "BadLocationException": 7487,
      "DOCUMENT": 7488,
      "Managed": 7489,
      "Person": 7490,
      "RU": 7491,
      "master": 7492,
      "##Density": 7493,
      "getProperties": 7494,
      "setId": 7495,
      "indexes": 7496,
      "##itivity": 7497,
      "runtime": 7498,
      "##Prime": 7499,
      "employeeNode": 7500,
      "Material": 7501,
      "##rb": 7502,
      "##Ranges": 7503,
      "##cing": 7504,
      "CharArray": 7505,
      "##Minimum": 7506,
      "DbException": 7507,
      "##Qualifier": 7508,
      "grant": 7509,
      "##Polynomial": 7510,
      "##OID": 7511,
      "##Updates": 7512,
      "primitive": 7513,
      "Domain": 7514,
      "##Frames": 7515,
      "##Modifier": 7516,
      "setChild": 7517,
      "createUI": 7518,
      "Exif": 7519,
      "##FromFile": 7520,
      "##Resolve": 7521,
      "quad": 7522,
      "Doc": 7523,
      "Sort": 7524,
      "same": 7525,
      "we": 7526,
      "##EK": 7527,
      "##Neg": 7528,
      "ClassCastException": 7529,
      "DateFormat": 7530,
      "##Docs": 7531,
      "##Locals": 7532,
      "##bedPane": 7533,
      "abort": 7534,
      "getDescription": 7535,
      "ED": 7536,
      "mul": 7537,
      "pl": 7538,
      "solr": 7539,
      "##ention": 7540,
      "##isted": 7541,
      "returnVar": 7542,
      "##atial": 7543,
      "feedback": 7544,
      "##Images": 7545,
      "CLOSE": 7546,
      "##18n": 7547,
      "Callback": 7548,
      "platform": 7549,
      "##Merge": 7550,
      "##java": 7551,
      "createTemp": 7552,
      "maxValue": 7553,
      "##ContentType": 7554,
      "##Specification": 7555,
      "Replicator": 7556,
      "customer": 7557,
      "##Enter": 7558,
      "Cookie": 7559,
      "##Feat": 7560,
      "##Abstract": 7561,
      "##Negative": 7562,
      "##BACK": 7563,
      "##tick": 7564,
      "parseLong": 7565,
      "##ternate": 7566,
      "summary": 7567,
      "##HttpClient": 7568,
      "##Seen": 7569,
      "LatLon": 7570,
      "SELF": 7571,
      "##max": 7572,
      "##Using": 7573,
      "readUnsigned": 7574,
      "##FailedException": 7575,
      "##MISSION": 7576,
      "Axis": 7577,
      "SL": 7578,
      "cov": 7579,
      "##ework": 7580,
      "##TableName": 7581,
      "records": 7582,
      "##Coords": 7583,
      "CHARACT": 7584,
      "Import": 7585,
      "mActivity": 7586,
      "pin": 7587,
      "##xName": 7588,
      "##nk": 7589,
      "##any": 7590,
      "setOn": 7591,
      "logError": 7592,
      "##ENSION": 7593,
      "##RECT": 7594,
      "base64": 7595,
      "tasks": 7596,
      "##Samples": 7597,
      "DbClient": 7598,
      "##arshaller": 7599,
      "PlaPoint": 7600,
      "GF2": 7601,
      "##ium": 7602,
      "##jo": 7603,
      "##alle": 7604,
      "##ueries": 7605,
      "##Compare": 7606,
      "##Addresses": 7607,
      "stringTo": 7608,
      "ENCOD": 7609,
      "GridData": 7610,
      "##IFIED": 7611,
      "Period": 7612,
      "##rogate": 7613,
      "FLOAT": 7614,
      "lp": 7615,
      "plain": 7616,
      "##aque": 7617,
      "##sted": 7618,
      "##Immutable": 7619,
      "##eturn": 7620,
      "##urrogate": 7621,
      "price": 7622,
      "##ATER": 7623,
      "texture": 7624,
      "INS": 7625,
      "##Traffic": 7626,
      "quantity": 7627,
      "##Toggle": 7628,
      "JMenu": 7629,
      "Tri": 7630,
      "##ligh": 7631,
      "##ery": 7632,
      "getGroup": 7633,
      "setLength": 7634,
      "##ListView": 7635,
      "##omb": 7636,
      "##ErrorResources": 7637,
      "execution": 7638,
      "execSQL": 7639,
      "##Ordered": 7640,
      "addElementTo": 7641,
      "Validator": 7642,
      "exportGroup": 7643,
      "ACCESS": 7644,
      "Refactoring": 7645,
      "##ECTION": 7646,
      "tolerance": 7647,
      "generatePrefix": 7648,
      "TimeZone": 7649,
      "ENT": 7650,
      "CONTEXT": 7651,
      "##OCUS": 7652,
      "##CII": 7653,
      "Flow": 7654,
      "Raw": 7655,
      "func": 7656,
      "##Are": 7657,
      "##Ins": 7658,
      "valueType": 7659,
      "writeQName": 7660,
      "ResourceBundle": 7661,
      "detach": 7662,
      "DynamicAny": 7663,
      "BAD": 7664,
      "bg": 7665,
      "gap": 7666,
      "mTemp": 7667,
      "setState": 7668,
      "##OfDay": 7669,
      "##Scor": 7670,
      "buffered": 7671,
      "##AMP": 7672,
      "##Ord": 7673,
      "groupName": 7674,
      "##obile": 7675,
      "ImageIcon": 7676,
      "SootClass": 7677,
      "##Activated": 7678,
      "##Fixture": 7679,
      "##Migration": 7680,
      "##Loop": 7681,
      "##ALF": 7682,
      "Profile": 7683,
      "obj2": 7684,
      "##Verifier": 7685,
      "TreeMap": 7686,
      "##InsnNode": 7687,
      "EOFException": 7688,
      "All": 7689,
      "Space": 7690,
      "Us": 7691,
      "getCode": 7692,
      "getHeader": 7693,
      "isFull": 7694,
      "##Resp": 7695,
      "typeRef": 7696,
      "optim": 7697,
      "##PEC": 7698,
      "##REE": 7699,
      "attrValue": 7700,
      "steps": 7701,
      "##Waiter": 7702,
      "characters": 7703,
      "##Relationship": 7704,
      "epsilon": 7705,
      "nanoTime": 7706,
      "Naming": 7707,
      "gbc": 7708,
      "##orary": 7709,
      "isPresent": 7710,
      "##Dev": 7711,
      "##izationException": 7712,
      "Chart": 7713,
      "##Strength": 7714,
      "Assignment": 7715,
      "##types": 7716,
      "COMPLE": 7717,
      "Folder": 7718,
      "gender": 7719,
      "##bound": 7720,
      "getNetwork": 7721,
      "##Flavor": 7722,
      "##Linked": 7723,
      "##Printer": 7724,
      "intersection": 7725,
      "deserialize": 7726,
      "##ergy": 7727,
      "Brd": 7728,
      "Send": 7729,
      "mStart": 7730,
      "##ners": 7731,
      "only": 7732,
      "IgniteCheckedException": 7733,
      "##onymous": 7734,
      "Lex": 7735,
      "density": 7736,
      "under": 7737,
      "##Estim": 7738,
      "isTrue": 7739,
      "value2": 7740,
      "checkFor": 7741,
      "getSuper": 7742,
      "##Generate": 7743,
      "##Special": 7744,
      "##tine": 7745,
      "Stendhal": 7746,
      "m21": 7747,
      "payment": 7748,
      "##Slider": 7749,
      "##PullParser": 7750,
      "MONTH": 7751,
      "Flu": 7752,
      "HOST": 7753,
      "IType": 7754,
      "eq": 7755,
      "fv": 7756,
      "mStarting": 7757,
      "week": 7758,
      "##APE": 7759,
      "StringReader": 7760,
      "##stack": 7761,
      "##NodeId": 7762,
      "putValue": 7763,
      "readFully": 7764,
      "shuffle": 7765,
      "Compute": 7766,
      "##letableFuture": 7767,
      "##Overlay": 7768,
      "artifact": 7769,
      "details": 7770,
      "Subscription": 7771,
      "getCanonical": 7772,
      "RESPONSE": 7773,
      "neighb": 7774,
      "##Ping": 7775,
      "##Light": 7776,
      "##Letter": 7777,
      "##dx": 7778,
      "##zz": 7779,
      "##rang": 7780,
      "##ratch": 7781,
      "getException": 7782,
      "##TextArea": 7783,
      "MathIllegalArgumentException": 7784,
      "modules": 7785,
      "PropertyChangeListener": 7786,
      "PART": 7787,
      "##COND": 7788,
      "interfaces": 7789,
      "NORMAL": 7790,
      "addElementToRegistry": 7791,
      "Binding": 7792,
      "CG": 7793,
      "Plot": 7794,
      "pg": 7795,
      "##Router": 7796,
      "##pack": 7797,
      "##Master": 7798,
      "##Go": 7799,
      "##ResId": 7800,
      "readLong": 7801,
      "numAttributes": 7802,
      "recipe": 7803,
      "signed": 7804,
      "##lusters": 7805,
      "CSV": 7806,
      "##ectivityManager": 7807,
      "Ldap": 7808,
      "jp": 7809,
      "##rong": 7810,
      "##graph": 7811,
      "##Velocity": 7812,
      "##Lng": 7813,
      "nodeName": 7814,
      "dirty": 7815,
      "REL": 7816,
      "registered": 7817,
      "##oduction": 7818,
      "##Picker": 7819,
      "AC": 7820,
      "Monitor": 7821,
      "Var": 7822,
      "fld": 7823,
      "trust": 7824,
      "##Push": 7825,
      "##Dom": 7826,
      "##Age": 7827,
      "##width": 7828,
      "##4J": 7829,
      "##istics": 7830,
      "##esture": 7831,
      "##Bug": 7832,
      "createS": 7833,
      "removeFrom": 7834,
      "##Acquire": 7835,
      "##ootstra": 7836,
      "formatted": 7837,
      "UNIT": 7838,
      "NoSuchMethodException": 7839,
      "m20": 7840,
      "PsiElement": 7841,
      "Load": 7842,
      "features": 7843,
      "mState": 7844,
      "near": 7845,
      "##Routing": 7846,
      "##Dp": 7847,
      "##Ap": 7848,
      "##Navigation": 7849,
      "##rease": 7850,
      "Const": 7851,
      "##Attach": 7852,
      "textNode": 7853,
      "LOCK": 7854,
      "HORIZ": 7855,
      "Pc": 7856,
      "Route": 7857,
      "ZWave": 7858,
      "##print": 7859,
      "##Archive": 7860,
      "##arance": 7861,
      "styleable": 7862,
      "TaskState": 7863,
      "##256": 7864,
      "Gra": 7865,
      "RDF": 7866,
      "##Half": 7867,
      "##pector": 7868,
      "##Exif": 7869,
      "readByte": 7870,
      "##AsStream": 7871,
      "##Rendering": 7872,
      "prepareStatement": 7873,
      "supported": 7874,
      "##Square": 7875,
      "##Thumbnail": 7876,
      "##Availability": 7877,
      "Bl": 7878,
      "Max": 7879,
      "override": 7880,
      "sid": 7881,
      "##EAR": 7882,
      "##88": 7883,
      "getZ": 7884,
      "isOpen": 7885,
      "##imited": 7886,
      "addPropertyChangeListener": 7887,
      "##ToBe": 7888,
      "xmlsig": 7889,
      "##MethodName": 7890,
      "##REF": 7891,
      "##Redu": 7892,
      "declare": 7893,
      "##ehic": 7894,
      "##ismatch": 7895,
      "Digest": 7896,
      "Join": 7897,
      "##xes": 7898,
      "##Walker": 7899,
      "##bind": 7900,
      "##check": 7901,
      "finalize": 7902,
      "##Tok": 7903,
      "##bus": 7904,
      "##Attachment": 7905,
      "quest": 7906,
      "##sumed": 7907,
      "SecureRandom": 7908,
      "Agent": 7909,
      "El": 7910,
      "MOV": 7911,
      "Native": 7912,
      "cart": 7913,
      "##WN": 7914,
      "requestEvent": 7915,
      "##TokenType": 7916,
      "##Sprite": 7917,
      "##Numbers": 7918,
      "ownerId": 7919,
      "##IGN": 7920,
      "##artbeat": 7921,
      "##TouchEvent": 7922,
      "POL": 7923,
      "mText": 7924,
      "pid": 7925,
      "squ": 7926,
      "##aton": 7927,
      "define": 7928,
      "Chunk": 7929,
      "atts": 7930,
      "##Boundary": 7931,
      "LinkedHashSet": 7932,
      "##endence": 7933,
      "##HTML": 7934,
      "FastMath": 7935,
      "##OKE": 7936,
      "VirtualFile": 7937,
      "BusinessObjectData": 7938,
      "##rCluster": 7939,
      "##Px": 7940,
      "##ived": 7941,
      "##Mock": 7942,
      "##Ljava": 7943,
      "##errain": 7944,
      "##ffective": 7945,
      "##ingBox": 7946,
      "toInt": 7947,
      "privateKey": 7948,
      "##Deque": 7949,
      "##Participant": 7950,
      "##Subtree": 7951,
      "Disk": 7952,
      "XPathContext": 7953,
      "##Permitted": 7954,
      "ElemTemplateElement": 7955,
      "Body": 7956,
      "GP": 7957,
      "##arg": 7958,
      "##Exchange": 7959,
      "invo": 7960,
      "writeLong": 7961,
      "numeric": 7962,
      "##Generation": 7963,
      "encrypted": 7964,
      "##Repo": 7965,
      "getAnnotation": 7966,
      "photo": 7967,
      "##eighted": 7968,
      "CoreException": 7969,
      "##ficients": 7970,
      "JButton": 7971,
      "MAN": 7972,
      "Prom": 7973,
      "equipment": 7974,
      "##Figure": 7975,
      "addView": 7976,
      "classIndex": 7977,
      "##Compiler": 7978,
      "##IMUM": 7979,
      "secondary": 7980,
      "Io": 7981,
      "ci": 7982,
      "hit": 7983,
      "mp": 7984,
      "##ior": 7985,
      "##Vendor": 7986,
      "##Grant": 7987,
      "standard": 7988,
      "setAccessible": 7989,
      "asset": 7990,
      "accep": 7991,
      "dbConn": 7992,
      "DBID": 7993,
      "##utomaton": 7994,
      "Neuron": 7995,
      "One": 7996,
      "migration": 7997,
      "pstmt": 7998,
      "##ae": 7999,
      "##sGet": 8000,
      "outStream": 8001,
      "##Force": 8002,
      "DataType": 8003,
      "##Delimiter": 8004,
      "dateTime": 8005,
      "##Cloud": 8006,
      "systemName": 8007,
      "CacheHeader": 8008,
      "entRef": 8009,
      "ADDRESS": 8010,
      "##ROLL": 8011,
      "jjt": 8012,
      "crc": 8013,
      "##Front": 8014,
      "##SED": 8015,
      "##Categories": 8016,
      "##ication": 8017,
      "STOP": 8018,
      "##FileTransfer": 8019,
      "##Enumeration": 8020,
      "##AndResponse": 8021,
      "spring": 8022,
      "vertical": 8023,
      "##Bindings": 8024,
      "##phere": 8025,
      "NotFoundException": 8026,
      "ValidationException": 8027,
      "PERMISSION": 8028,
      "received": 8029,
      "OTHERS": 8030,
      "HORIZONT": 8031,
      "Fixed": 8032,
      "VPlex": 8033,
      "##gl": 8034,
      "getJ": 8035,
      "setting": 8036,
      "##AttributeSet": 8037,
      "##The": 8038,
      "##REEN": 8039,
      "HttpURLConnection": 8040,
      "canonical": 8041,
      "extras": 8042,
      "##Multiplier": 8043,
      "StendhalRP": 8044,
      "Break": 8045,
      "OR": 8046,
      "##ves": 8047,
      "retain": 8048,
      "getBody": 8049,
      "##StringBuilder": 8050,
      "ObjectMapper": 8051,
      "offsets": 8052,
      "Compiled": 8053,
      "##EMENT": 8054,
      "elems": 8055,
      "dispatcher": 8056,
      "INTERVAL": 8057,
      "merged": 8058,
      "k1": 8059,
      "##RED": 8060,
      "##hood": 8061,
      "##Nr": 8062,
      "##HA": 8063,
      "BasicBlock": 8064,
      "testNode": 8065,
      "##IZED": 8066,
      "HORIZONTAL": 8067,
      "f2": 8068,
      "overri": 8069,
      "##Vertices": 8070,
      "##Family": 8071,
      "##Override": 8072,
      "##GED": 8073,
      "##ependence": 8074,
      "##TypeId": 8075,
      "FileReader": 8076,
      "FileSystem": 8077,
      "arg1": 8078,
      "translation": 8079,
      "CompletableFuture": 8080,
      "##EndRead": 8081,
      "SHIFT": 8082,
      "emptyList": 8083,
      "XmlPullParser": 8084,
      "globalInfo": 8085,
      "getUIMgr": 8086,
      "GENER": 8087,
      "augs": 8088,
      "DT": 8089,
      "Po": 8090,
      "YEAR": 8091,
      "a1": 8092,
      "mW": 8093,
      "possible": 8094,
      "##tecode": 8095,
      "##oted": 8096,
      "##Sem": 8097,
      "##Tw": 8098,
      "##DATA": 8099,
      "##Decision": 8100,
      "isW": 8101,
      "##Until": 8102,
      "targets": 8103,
      "##Repeat": 8104,
      "SECONDS": 8105,
      "metaData": 8106,
      "##range": 8107,
      "ASS": 8108,
      "Mon": 8109,
      "ORDER": 8110,
      "##Mail": 8111,
      "##lica": 8112,
      "addHeader": 8113,
      "columnNames": 8114,
      "##Controls": 8115,
      "ConfigurationException": 8116,
      "Heap": 8117,
      "PrivateKey": 8118,
      "NON": 8119,
      "ele": 8120,
      "##ainder": 8121,
      "##Modifiers": 8122,
      "##TING": 8123,
      "##Best": 8124,
      "##Handling": 8125,
      "closeQuietly": 8126,
      "contentHandler": 8127,
      "sendRequest": 8128,
      "##unnel": 8129,
      "comb": 8130,
      "zzEndRead": 8131,
      "##olds": 8132,
      "commands": 8133,
      "##Dependency": 8134,
      "GridBag": 8135,
      "ServletException": 8136,
      "##tidad": 8137,
      "##Tax": 8138,
      "##Employee": 8139,
      "##Arc": 8140,
      "##epoint": 8141,
      "##ectives": 8142,
      "##oose": 8143,
      "isG": 8144,
      "##otos": 8145,
      "##ommend": 8146,
      "##ErrorMessage": 8147,
      "configFile": 8148,
      "fromString": 8149,
      "Deploy": 8150,
      "##ToolBar": 8151,
      "GenericValue": 8152,
      "Endpoint": 8153,
      "##ootstrap": 8154,
      "FOCUS": 8155,
      "WRAP": 8156,
      "jms": 8157,
      "##nonymous": 8158,
      "##Mismatch": 8159,
      "##IES": 8160,
      "##GET": 8161,
      "##ination": 8162,
      "getPage": 8163,
      "testAddr": 8164,
      "bufferSize": 8165,
      "oldCapacity": 8166,
      "##titution": 8167,
      "Html": 8168,
      "Up": 8169,
      "bw": 8170,
      "emo": 8171,
      "##fc": 8172,
      "node2": 8173,
      "LogRecord": 8174,
      "positions": 8175,
      "remainder": 8176,
      "##oves": 8177,
      "##Phone": 8178,
      "Switch": 8179,
      "Ab": 8180,
      "DER": 8181,
      "Meta": 8182,
      "ack": 8183,
      "fast": 8184,
      "ored": 8185,
      "tip": 8186,
      "##Pur": 8187,
      "##COM": 8188,
      "##Oid": 8189,
      "##orth": 8190,
      "getParameters": 8191,
      "getTitle": 8192,
      "##ansion": 8193,
      "##Toast": 8194,
      "startState": 8195,
      "nextChar": 8196,
      "fieldType": 8197,
      "##finity": 8198,
      "getModifiers": 8199,
      "hostName": 8200,
      "##CheckBox": 8201,
      "networkPanel": 8202,
      "NOTIFICATION": 8203,
      "##Registered": 8204,
      "Ct": 8205,
      "ois": 8206,
      "tbl": 8207,
      "##ses": 8208,
      "##cut": 8209,
      "##Equipment": 8210,
      "startAngle": 8211,
      "numBits": 8212,
      "mappings": 8213,
      "getDraw": 8214,
      "getClassName": 8215,
      "##ScrollPane": 8216,
      "##Photo": 8217,
      "##Subscriber": 8218,
      "##do": 8219,
      "##bench": 8220,
      "##Observ": 8221,
      "isApp": 8222,
      "arg0": 8223,
      "##Alg": 8224,
      "##Channels": 8225,
      "DefaultMutable": 8226,
      "##Tools": 8227,
      "credentials": 8228,
      "oredCriteria": 8229,
      "Schedule": 8230,
      "Tile": 8231,
      "lr": 8232,
      "persistent": 8233,
      "##CLE": 8234,
      "##Err": 8235,
      "STOR": 8236,
      "iface": 8237,
      "responseHeaders": 8238,
      "##Population": 8239,
      "INTERN": 8240,
      "inflate": 8241,
      "Sk": 8242,
      "##Person": 8243,
      "##Between": 8244,
      "Info": 8245,
      "requestUrl": 8246,
      "recon": 8247,
      "##finite": 8248,
      "getNative": 8249,
      "zzReader": 8250,
      "##WebXml": 8251,
      "Leg": 8252,
      "carbon": 8253,
      "mTab": 8254,
      "##Mean": 8255,
      "##tan": 8256,
      "getFilter": 8257,
      "createX": 8258,
      "##literator": 8259,
      "##Health": 8260,
      "parseDouble": 8261,
      "interrupted": 8262,
      "imageView": 8263,
      "columnLabel": 8264,
      "KEYCODE": 8265,
      "sqlState": 8266,
      "##Extractor": 8267,
      "Algorithm": 8268,
      "##Days": 8269,
      "m22": 8270,
      "detect": 8271,
      "##going": 8272,
      "BITS": 8273,
      "##UTF8": 8274,
      "FILL": 8275,
      "HASH": 8276,
      "WAIT": 8277,
      "clock": 8278,
      "pdf": 8279,
      "##UES": 8280,
      "##Book": 8281,
      "##IZE": 8282,
      "##rith": 8283,
      "getViewer": 8284,
      "createTable": 8285,
      "currentIndex": 8286,
      "##Handshake": 8287,
      "##Receive": 8288,
      "casFeat": 8289,
      "BitSet": 8290,
      "##Squared": 8291,
      "Promise": 8292,
      "##aus": 8293,
      "##Pt": 8294,
      "##Speech": 8295,
      "##Ddl": 8296,
      "##rier": 8297,
      "inOff": 8298,
      "Instant": 8299,
      "participant": 8300,
      "nextNode": 8301,
      "##UserId": 8302,
      "getAs": 8303,
      "##Delivery": 8304,
      "visited": 8305,
      "##Levels": 8306,
      "AbstractDocument": 8307,
      "reduce": 8308,
      "hints": 8309,
      "REMOV": 8310,
      "DynAnyPackage": 8311,
      "own": 8312,
      "tim": 8313,
      "##atum": 8314,
      "##ister": 8315,
      "##rows": 8316,
      "##opulation": 8317,
      "distribution": 8318,
      "##Ready": 8319,
      "graphic": 8320,
      "##Modules": 8321,
      "ALLOW": 8322,
      "##Redirect": 8323,
      "WRITE": 8324,
      "LAST": 8325,
      "bScale": 8326,
      "##VN": 8327,
      "getArray": 8328,
      "##Exponent": 8329,
      "Lists": 8330,
      "producer": 8331,
      "##Refs": 8332,
      "##Descriptors": 8333,
      "DESCRIPTION": 8334,
      "StendhalRPZone": 8335,
      "DefaultMutableTreeNode": 8336,
      "Gu": 8337,
      "PAGE": 8338,
      "Wh": 8339,
      "ty": 8340,
      "##sMap": 8341,
      "##ramework": 8342,
      "##regor": 8343,
      "isPrimitive": 8344,
      "replication": 8345,
      "HttpStatus": 8346,
      "attachment": 8347,
      "##regorian": 8348,
      "RAD": 8349,
      "##Multimap": 8350,
      "##License": 8351,
      "getList": 8352,
      "BOUND": 8353,
      "##query": 8354,
      "##Maps": 8355,
      "OutputStreamWriter": 8356,
      "##Terminal": 8357,
      "##IFY": 8358,
      "##ways": 8359,
      "##Coordinates": 8360,
      "SortedSet": 8361,
      "Scanner": 8362,
      "ZyGraph": 8363,
      "ROL": 8364,
      "duplicate": 8365,
      "equ": 8366,
      "##RA": 8367,
      "##mer": 8368,
      "##GB": 8369,
      "##Gui": 8370,
      "##02": 8371,
      "##estor": 8372,
      "isArray": 8373,
      "##Complex": 8374,
      "testEmployee": 8375,
      "activate": 8376,
      "##Deserial": 8377,
      "getChildNodes": 8378,
      "hours": 8379,
      "coeffs": 8380,
      "MARK": 8381,
      "JMSException": 8382,
      "Sm": 8383,
      "##med": 8384,
      "##mask": 8385,
      "##Criter": 8386,
      "##Clip": 8387,
      "##Iterable": 8388,
      "##Union": 8389,
      "swing": 8390,
      "URISyntaxException": 8391,
      "ActionListener": 8392,
      "relationship": 8393,
      "GUI": 8394,
      "byteCount": 8395,
      "##FieldType": 8396,
      "doGet": 8397,
      "##easured": 8398,
      "##WhiteSpace": 8399,
      "scaled": 8400,
      "##SecurityException": 8401,
      "SAML2SDKUtils": 8402,
      "follow": 8403,
      "##write": 8404,
      "##Offer": 8405,
      "##icon": 8406,
      "##Extent": 8407,
      "setElement": 8408,
      "##ToLong": 8409,
      "par1": 8410,
      "testName": 8411,
      "##ResultSet": 8412,
      "##OTE": 8413,
      "##UNK": 8414,
      "##Origin": 8415,
      "Marker": 8416,
      "NEGATIVE": 8417,
      "MILLISECONDS": 8418,
      "Aggreg": 8419,
      "HG": 8420,
      "YES": 8421,
      "some": 8422,
      "##day": 8423,
      "##aries": 8424,
      "##esc": 8425,
      "##reater": 8426,
      "##verted": 8427,
      "setAction": 8428,
      "setCurrent": 8429,
      "enqueue": 8430,
      "prod": 8431,
      "Transit": 8432,
      "divisor": 8433,
      "excluded": 8434,
      "screenResolution": 8435,
      "LOCATION": 8436,
      "##Inser": 8437,
      "setBorder": 8438,
      "##DataTag": 8439,
      "##ackbar": 8440,
      "Reason": 8441,
      "Cloud": 8442,
      "##JSONObject": 8443,
      "LocalizedStrings": 8444,
      "SecretKey": 8445,
      "##Like": 8446,
      "Le": 8447,
      "MEDI": 8448,
      "critical": 8449,
      "dict": 8450,
      "ge": 8451,
      "mKeys": 8452,
      "nid": 8453,
      "vs": 8454,
      "##bility": 8455,
      "##Pan": 8456,
      "publicKey": 8457,
      "##inance": 8458,
      "##Streams": 8459,
      "assignment": 8460,
      "##Interceptor": 8461,
      "##Recon": 8462,
      "##Endian": 8463,
      "##ACML": 8464,
      "##Searcher": 8465,
      "FIR": 8466,
      "terms": 8467,
      "SCROLL": 8468,
      "Selected": 8469,
      "Payment": 8470,
      "Ind": 8471,
      "LAB": 8472,
      "Place": 8473,
      "Sensor": 8474,
      "Write": 8475,
      "bridge": 8476,
      "##Testing": 8477,
      "##ista": 8478,
      "getItems": 8479,
      "StringUtil": 8480,
      "##Invalidate": 8481,
      "##Require": 8482,
      "##Review": 8483,
      "shader": 8484,
      "##rough": 8485,
      "##Painter": 8486,
      "CertificateException": 8487,
      "runner": 8488,
      "RectF": 8489,
      "VERTICAL": 8490,
      "CALL": 8491,
      "##estion": 8492,
      "getOutput": 8493,
      "##edis": 8494,
      "##oreign": 8495,
      "##Reporter": 8496,
      "##ReturnValue": 8497,
      "##RGB": 8498,
      "##metic": 8499,
      "sysWrite": 8500,
      "getApplicationContext": 8501,
      "##BTTag": 8502,
      "SwingUtilities": 8503,
      "Before": 8504,
      "MP": 8505,
      "OAuth": 8506,
      "UND": 8507,
      "cy": 8508,
      "fDocument": 8509,
      "tester": 8510,
      "##Sq": 8511,
      "##Demand": 8512,
      "getValues": 8513,
      "thisVar": 8514,
      "startOffset": 8515,
      "shadow": 8516,
      "##Ascii": 8517,
      "##SocketFactory": 8518,
      "RESOURCE": 8519,
      "PLAY": 8520,
      "intersects": 8521,
      "Global": 8522,
      "categories": 8523,
      "watch": 8524,
      "##Measure": 8525,
      "##MeasureSpec": 8526,
      "##adoop": 8527,
      "##aving": 8528,
      "readFrom": 8529,
      "printf": 8530,
      "##ALE": 8531,
      "numOf": 8532,
      "unManaged": 8533,
      "getCommand": 8534,
      "##SystemId": 8535,
      "EXCE": 8536,
      "CHUNK": 8537,
      "##mentations": 8538,
      "trunc": 8539,
      "CHARACTER": 8540,
      "##rithmetic": 8541,
      "JO": 8542,
      "Over": 8543,
      "broadcast": 8544,
      "f1": 8545,
      "sd": 8546,
      "speed": 8547,
      "STROKE": 8548,
      "invocation": 8549,
      "##Resume": 8550,
      "readFile": 8551,
      "##OrEmpty": 8552,
      "##awn": 8553,
      "##Targets": 8554,
      "##PLAY": 8555,
      "##Terms": 8556,
      "Aug": 8557,
      "Missing": 8558,
      "sce": 8559,
      "##Station": 8560,
      "##mise": 8561,
      "getFormat": 8562,
      "getGraph": 8563,
      "getEncoded": 8564,
      "##InProgress": 8565,
      "##Accu": 8566,
      "elementCount": 8567,
      "preferred": 8568,
      "Compiler": 8569,
      "Static": 8570,
      "decrement": 8571,
      "matched": 8572,
      "locals": 8573,
      "Parameterized": 8574,
      "pane": 8575,
      "Diff": 8576,
      "LABEL": 8577,
      "PU": 8578,
      "mon": 8579,
      "##nted": 8580,
      "##NOT": 8581,
      "##IER": 8582,
      "##erve": 8583,
      "##ilarity": 8584,
      "##essaging": 8585,
      "##irc": 8586,
      "##ytes": 8587,
      "##Restriction": 8588,
      "createAttribute": 8589,
      "key2": 8590,
      "startX": 8591,
      "##Scal": 8592,
      "showMessage": 8593,
      "##ants": 8594,
      "VALID": 8595,
      "validValues": 8596,
      "hasMoreTokens": 8597,
      "GT": 8598,
      "PDF": 8599,
      "##Roll": 8600,
      "##Mer": 8601,
      "##Lang": 8602,
      "##Daemon": 8603,
      "##Blob": 8604,
      "##terate": 8605,
      "##ulus": 8606,
      "keyType": 8607,
      "delegator": 8608,
      "Chat": 8609,
      "VALUES": 8610,
      "##laration": 8611,
      "patchState": 8612,
      "##Intersection": 8613,
      "Str": 8614,
      "literal": 8615,
      "neuron": 8616,
      "routing": 8617,
      "##Poly": 8618,
      "##Neuron": 8619,
      "newArrayList": 8620,
      "##Interrupt": 8621,
      "##ookies": 8622,
      "##Vectors": 8623,
      "SESS": 8624,
      "ae": 8625,
      "cw": 8626,
      "##Cross": 8627,
      "##by": 8628,
      "##agic": 8629,
      "##ilent": 8630,
      "##Exceptions": 8631,
      "isInstance": 8632,
      "street": 8633,
      "##EventType": 8634,
      "##activate": 8635,
      "sprite": 8636,
      "varName": 8637,
      "CharacterData": 8638,
      "InternalDistributed": 8639,
      "deserializer": 8640,
      "rx": 8641,
      "##Platform": 8642,
      "##Own": 8643,
      "isShow": 8644,
      "resScale": 8645,
      "##Revision": 8646,
      "dismiss": 8647,
      "outputFile": 8648,
      "Replication": 8649,
      "displayName": 8650,
      "ONLY": 8651,
      "getDocumentElement": 8652,
      "RandomAccessFile": 8653,
      "Ev": 8654,
      "EGL": 8655,
      "IV": 8656,
      "Peer": 8657,
      "face": 8658,
      "##Perspective": 8659,
      "##Motion": 8660,
      "##Ele": 8661,
      "getMap": 8662,
      "isUn": 8663,
      "mapSize": 8664,
      "##fined": 8665,
      "##Validity": 8666,
      "##Author": 8667,
      "##Recording": 8668,
      "##Verify": 8669,
      "Verify": 8670,
      "##Overflow": 8671,
      "ApplicationException": 8672,
      "tuples": 8673,
      "##BusinessObjectFormat": 8674,
      "InlineQueryResult": 8675,
      "##Integ": 8676,
      "FX": 8677,
      "HAND": 8678,
      "dup": 8679,
      "grammar": 8680,
      "mx": 8681,
      "sink": 8682,
      "vari": 8683,
      "velocity": 8684,
      "getOp": 8685,
      "##Keyboard": 8686,
      "##Align": 8687,
      "tagName": 8688,
      "##Locations": 8689,
      "##ChangedListener": 8690,
      "ErrorCode": 8691,
      "INaviView": 8692,
      "InstantiationException": 8693,
      "JMenuItem": 8694,
      "atom": 8695,
      "agg": 8696,
      "frequency": 8697,
      "mime": 8698,
      "##Trust": 8699,
      "##Epoch": 8700,
      "##Band": 8701,
      "##itter": 8702,
      "##ingClass": 8703,
      "Classifier": 8704,
      "##That": 8705,
      "##Throwable": 8706,
      "sourceList": 8707,
      "numBytes": 8708,
      "childCount": 8709,
      "repl": 8710,
      "##QueryWith": 8711,
      "lineEnd": 8712,
      "decimal": 8713,
      "DSSinkKind": 8714,
      "archive": 8715,
      "epoch": 8716,
      "fallback": 8717,
      "life": 8718,
      "trees": 8719,
      "##uri": 8720,
      "##Average": 8721,
      "isLocal": 8722,
      "confirm": 8723,
      "##Att": 8724,
      "DSSpec": 8725,
      "subp": 8726,
      "##ValuesHolder": 8727,
      "converted": 8728,
      "EXACT": 8729,
      "NumberFormat": 8730,
      "modCount": 8731,
      "ARROW": 8732,
      "degree": 8733,
      "##BigInteger": 8734,
      "##RESH": 8735,
      "circle": 8736,
      "kernel": 8737,
      "mAdapter": 8738,
      "##Far": 8739,
      "##Solr": 8740,
      "##enc": 8741,
      "addProperty": 8742,
      "Inc": 8743,
      "##ctual": 8744,
      "childNode": 8745,
      "##OrCreate": 8746,
      "##Capture": 8747,
      "connector": 8748,
      "authority": 8749,
      "APIException": 8750,
      "##vilege": 8751,
      "FACTOR": 8752,
      "CIR": 8753,
      "Lib": 8754,
      "TInt": 8755,
      "##4j": 8756,
      "##ares": 8757,
      "##strument": 8758,
      "Initiator": 8759,
      "getSign": 8760,
      "##acion": 8761,
      "stackTrace": 8762,
      "##mmediate": 8763,
      "businessObjectDefinition": 8764,
      "getResourceAsStream": 8765,
      "##MouseListener": 8766,
      "previewing": 8767,
      "##TrafficController": 8768,
      "SESSION": 8769,
      "dao": 8770,
      "k2": 8771,
      "##BI": 8772,
      "maxY": 8773,
      "##Recipe": 8774,
      "decrypt": 8775,
      "##Checksum": 8776,
      "destDir": 8777,
      "serverTransaction": 8778,
      "##Working": 8779,
      "Processing": 8780,
      "getShort": 8781,
      "ENCODING": 8782,
      "bool": 8783,
      "book": 8784,
      "ear": 8785,
      "iNode": 8786,
      "mRoot": 8787,
      "ur": 8788,
      "##ze": 8789,
      "##Bi": 8790,
      "##GUI": 8791,
      "##alc": 8792,
      "##umul": 8793,
      "##Visual": 8794,
      "Produces": 8795,
      "##Asset": 8796,
      "##overed": 8797,
      "##Topology": 8798,
      "##Dependencies": 8799,
      "##CertPath": 8800,
      "caseSensitivity": 8801,
      "By": 8802,
      "GONE": 8803,
      "OVER": 8804,
      "band": 8805,
      "mHeader": 8806,
      "##Ahead": 8807,
      "newLine": 8808,
      "##ounce": 8809,
      "Consumer": 8810,
      "##Choice": 8811,
      "minus": 8812,
      "combined": 8813,
      "schemaName": 8814,
      "##Written": 8815,
      "simulation": 8816,
      "INTERNAL": 8817,
      "cent": 8818,
      "nr": 8819,
      "##chase": 8820,
      "restart": 8821,
      "##Problem": 8822,
      "createDefault": 8823,
      "classifier": 8824,
      "childList": 8825,
      "disc": 8826,
      "DataInputStream": 8827,
      "getAss": 8828,
      "##Delayed": 8829,
      "StackTrace": 8830,
      "started": 8831,
      "PASSWORD": 8832,
      "##ependenceTest": 8833,
      "Def": 8834,
      "Sql": 8835,
      "##etermin": 8836,
      "then": 8837,
      "toLocalized": 8838,
      "##rono": 8839,
      "INTE": 8840,
      "##Partial": 8841,
      "channels": 8842,
      "Workspace": 8843,
      "Stylesheet": 8844,
      "CertPath": 8845,
      "mF": 8846,
      "##lator": 8847,
      "##Fs": 8848,
      "##TON": 8849,
[...]
